{"<|endoftext|>":0,"!":1,"\"":2,"#":3,"$":4,"%":5,"&":6,"'":7,"(":8,")":9,"*":10,"+":11,",":12,"-":13,".":14,"/":15,"0":16,"1":17,"2":18,"3":19,"4":20,"5":21,"6":22,"7":23,"8":24,"9":25,":":26,";":27,"<":28,"=":29,">":30,"?":31,"@":32,"A":33,"B":34,"C":35,"D":36,"E":37,"F":38,"G":39,"H":40,"I":41,"J":42,"K":43,"L":44,"M":45,"N":46,"O":47,"P":48,"Q":49,"R":50,"S":51,"T":52,"U":53,"V":54,"W":55,"X":56,"Y":57,"Z":58,"[":59,"\\":60,"]":61,"^":62,"_":63,"`":64,"a":65,"b":66,"c":67,"d":68,"e":69,"f":70,"g":71,"h":72,"i":73,"j":74,"k":75,"l":76,"m":77,"n":78,"o":79,"p":80,"q":81,"r":82,"s":83,"t":84,"u":85,"v":86,"w":87,"x":88,"y":89,"z":90,"{":91,"|":92,"}":93,"~":94,"¡":95,"¢":96,"£":97,"¤":98,"¥":99,"¦":100,"§":101,"¨":102,"©":103,"ª":104,"«":105,"¬":106,"®":107,"¯":108,"°":109,"±":110,"²":111,"³":112,"´":113,"µ":114,"¶":115,"·":116,"¸":117,"¹":118,"º":119,"»":120,"¼":121,"½":122,"¾":123,"¿":124,"À":125,"Á":126,"Â":127,"Ã":128,"Ä":129,"Å":130,"Æ":131,"Ç":132,"È":133,"É":134,"Ê":135,"Ë":136,"Ì":137,"Í":138,"Î":139,"Ï":140,"Ð":141,"Ñ":142,"Ò":143,"Ó":144,"Ô":145,"Õ":146,"Ö":147,"×":148,"Ø":149,"Ù":150,"Ú":151,"Û":152,"Ü":153,"Ý":154,"Þ":155,"ß":156,"à":157,"á":158,"â":159,"ã":160,"ä":161,"å":162,"æ":163,"ç":164,"è":165,"é":166,"ê":167,"ë":168,"ì":169,"í":170,"î":171,"ï":172,"ð":173,"ñ":174,"ò":175,"ó":176,"ô":177,"õ":178,"ö":179,"÷":180,"ø":181,"ù":182,"ú":183,"û":184,"ü":185,"ý":186,"þ":187,"ÿ":188,"Ā":189,"ā":190,"Ă":191,"ă":192,"Ą":193,"ą":194,"Ć":195,"ć":196,"Ĉ":197,"ĉ":198,"Ċ":199,"ċ":200,"Č":201,"č":202,"Ď":203,"ď":204,"Đ":205,"đ":206,"Ē":207,"ē":208,"Ĕ":209,"ĕ":210,"Ė":211,"ė":212,"Ę":213,"ę":214,"Ě":215,"ě":216,"Ĝ":217,"ĝ":218,"Ğ":219,"ğ":220,"Ġ":221,"ġ":222,"Ģ":223,"ģ":224,"Ĥ":225,"ĥ":226,"Ħ":227,"ħ":228,"Ĩ":229,"ĩ":230,"Ī":231,"ī":232,"Ĭ":233,"ĭ":234,"Į":235,"į":236,"İ":237,"ı":238,"Ĳ":239,"ĳ":240,"Ĵ":241,"ĵ":242,"Ķ":243,"ķ":244,"ĸ":245,"Ĺ":246,"ĺ":247,"Ļ":248,"ļ":249,"Ľ":250,"ľ":251,"Ŀ":252,"ŀ":253,"Ł":254,"ł":255,"Ń":256,"Ġt":257,"Ġa":258,"in":259,"he":260,"re":261,"Ġs":262,"on":263,"Ġthe":264,"Ġc":265,"er":266,"Ġo":267,"at":268,"Ġw":269,"en":270,"Ġp":271,"es":272,"or":273,"an":274,"it":275,"Ġf":276,"Ġb":277,"Ġin":278,"Ġm":279,"ing":280,"ed":281,"al":282,"Ġan":283,"is":284,"ar":285,"Ġto":286,"Ġd":287,"Ġof":288,"Ġand":289,"ic":290,"ion":291,"ro":292,"Ġh":293,"as":294,"Ġre":295,"Ġl":296,"ou":297,"Ġth":298,"ent":299,"Ġe":300,"Ġn":301,"il":302,"âĢ":303,"om":304,"id":305,"us":306,"Ġg":307,"ve":308,"ct":309,"le":310,"Ġ-":311,"et":312,"ly":313,"ur":314,"ut":315,"Ġ--":316,"Ġfor":317,"Ġst":318,"un":319,"Ġbe":320,"st":321,"Ġon":322,"ĠâĢ":323,"ir":324,"ation":325,"ce":326,"im":327,"ay":328,"ol":329,"ver":330,"ig":331,"ow":332,"Ġwe":333,"Ġis":334,"Ġthat":335,"ad":336,"ot":337,"Ġ2":338,"ch":339,"Ġde":340,"Ġas":341,"Ġit":342,"ment":343,"ill":344,"Ġpro":345,"Ġcon":346,"Ġy":347,"Ġcom":348,"Ġv":349,"ers":350,"Ġhe":351,"se":352,"Ġr":353,"ith":354,"âĢĻ":355,"Ġ1":356,"Ġwith":357,"ac":358,"Ġwh":359,"est":360,"Ġal":361,"ate":362,"ul":363,"ter":364,"am":365,"ort":366,"Ġse":367,"and":368,"Ġex":369,"Ġne":370,"ies":371,"up":372,"Ġmo":373,"ld":374,"th":375,"lo":376,"Ġare":377,"Ġ20":378,"Ġat":379,"if":380,"Ġj":381,"ess":382,"ge":383,"Ġ(":384,"Ġch":385,"res":386,"qu":387,"ave":388,"her":389,"ain":390,"ect":391,"ity":392,"Ġco":393,"ab":394,"Ġun":395,"Ġtr":396,"Ġby":397,"Ġsa":398,"ive":399,"ke":400,"ial":401,"Ġsh":402,"em":403,"tr":404,"um":405,"rom":406,"os":407,"Ġor":408,"oc":409,"Ġcomp":410,"op":411,"Ġfrom":412,"iv":413,"ĠâĢľ":414,"ap":415,"oun":416,"Ġhave":417,"Ġ'":418,"ts":419,"port":420,"ĠâĢĿ":421,"igh":422,"Ġinc":423,"vid":424,"Ġhas":425,"Ġthis":426,"Ġsaid":427,"ear":428,"end":429,"el":430,"Ġwor":431,"Ġmar":432,"Ġad":433,"our":434,"Ġwas":435,"ud":436,"red":437,"Ġnot":438,"art":439,"Ġac":440,"00":441,"ions":442,"act":443,"Ġus":444,"ant":445,"Ġwill":446,"Ġgo":447,"ould":448,"'s":449,"ren":450,"Ġres":451,"Ġle":452,"ome":453,"Ġexp":454,"Ġab":455,"Ġ202":456,"ust":457,"19":458,"ie":459,"ub":460,"Ġsp":461,"ine":462,"Ġmore":463,"Ġpl":464,"ast":465,"od":466,"Ġim":467,"Ġi":468,"Ġk":469,"ure":470,"ist":471,"av":472,"Ġnew":473,"Ġ$":474,"all":475,"ks":476,"Ġ''":477,"ated":478,"Ġ3":479,"ib":480,"any":481,"ther":482,"ip":483,"Ġbut":484,"``":485,"Ġ``":486,"ia":487,"ak":488,"ket":489,"Ġour":490,"ans":491,"out":492,"ard":493,"Ġcan":494,"ff":495,"Ġpr":496,"Ġop":497,"Ġap":498,"ug":499,"Ġen":500,"ue":501,"Ġyou":502,"Ġyear":503,"Ġout":504,"Ġper":505,"Ġits":506,"are":507,"age":508,"Ġtheir":509,"ich":510,"Ġthey":511,"Ġcovid":512,"Ġcont":513,"Ġqu":514,"iz":515,"ations":516,"ag":517,"ong":518,"Ġdis":519,"du":520,"illion":521,"Ġint":522,"Ġam":523,"ical":524,"Ġme":525,"ase":526,"Ġwhe":527,"Ġall":528,"con":529,"Ġmarket":530,"Ġup":531,"Ġpe":532,"able":533,"ance":534,"Ġind":535,"orm":536,"Ġte":537,"ĠĠ":538,"irus":539,"der":540,"Ġgro":541,"ight":542,"ack":543,"und":544,"Ġcor":545,"ore":546,"Ġag":547,"og":548,"ll":549,"Ġoff":550,"Ġrec":551,"ber":552,"Ġwhich":553,"ice":554,"so":555,"ail":556,"Ġmon":557,"Ġacc":558,"ors":559,"Ġinf":560,"Ġwork":561,"anc":562,"Ġfin":563,"Ġbeen":564,"Ġother":565,"Ġapp":566,"ok":567,"ople":568,"Ġwho":569,"Ġpeople":570,"Ġdo":571,"Ġem":572,"Ġthan":573,"Ġaf":574,"ous":575,"Ġso":576,"Ġalso":577,"ide":578,"Ġcl":579,"Ġover":580,"own":581,"ments":582,"Ġro":583,"Ġinv":584,"Ġabout":585,"..":586,"Ġwere":587,"Ġli":588,"Ġ5":589,"day":590,"Ġpart":591,"ime":592,"ary":593,"ign":594,"ents":595,"alth":596,"Ġ4":597,"ace":598,"ates":599,"Ġcomm":600,"Ġreport":601,"ire":602,"ities":603,"Ġsup":604,"very":605,"ays":606,"ord":607,"Ġpre":608,"ven":609,"Ġ2020":610,"emic":611,"Ġimp":612,"Ġsc":613,"Ġthere":614,"lic":615,"ile":616,"lud":617,"Ġcompany":618,"Ġhealth":619,"Ġfir":620,"Ġstr":621,"ake":622,"Ġcoun":623,"Ġcr":624,"Ġpres":625,"uch":626,"Ġmillion":627,"ital":628,"pt":629,"andemic":630,"Ġbus":631,"ings":632,"ally":633,"iness":634,"Ġone":635,"ition":636,"Ġlo":637,"Ġu":638,"Ġif":639,"Ġno":640,"Ġbr":641,"ec":642,"Ġpandemic":643,"Ġser":644,"onav":645,"duct":646,"Ġsome":647,"ult":648,"Ġhad":649,"onavirus":650,"Ġcons":651,"acc":652,"ree":653,"ence":654,"Ġbusiness":655,"Ġman":656,"Ġinclud":657,"Ġlike":658,"Ġhow":659,"Ġdr":660,"Ġcoronavirus":661,"Ġinvest":662,"Ġafter":663,"Ġmay":664,"Ġfe":665,"ens":666,"low":667,"Ġar":668,"Ġwould":669,"try":670,"Ġact":671,"Ġdec":672,"Ġreg":673,"old":674,"li":675,"Ġvacc":676,"Ġpo":677,"ugh":678,"Ġass":679,"Ġadd":680,"Ġpol":681,"Ġstate":682,"ite":683,"ased":684,"uring":685,"vern":686,"Ġfirst":687,"Ġtime":688,"conom":689,"rent":690,"fe":691,"one":692,"ep":693,"Ġris":694,"ating":695,"Ġinter":696,"Ġhis":697,"Ġfr":698,"Ġtw":699,"Ġgovern":700,"Ġbec":701,"Ġwhen":702,"Ġcas":703,"Ġeconom":704,"aus":705,"ices":706,"Ġjo":707,"Ġ6":708,"ame":709,"Ġpub":710,"ian":711,"ass":712,"==":713,"vers":714,"te":715,"Ġwhat":716,"Ġcould":717,"uc":718,"ert":719,"ident":720,"enc":721,"Ġunder":722,"Ġwee":723,"Ġsy":724,"ose":725,"ock":726,"Ġthese":727,"lect":728,"ach":729,"ational":730,"lob":731,"Ġnow":732,"Ġneed":733,"Ġear":734,"Ġworld":735,"ility":736,"aly":737,"Ġproduct":738,"rop":739,"ines":740,"form":741,"Ġany":742,"Ġrem":743,"ang":744,"Ġshe":745,"Ġyour":746,"Ġincre":747,"reat":748,"Ġglob":749,"ress":750,"Ġmonth":751,"ual":752,"Ġdat":753,"Ġresp":754,"Ġget":755,"ric":756,"Ġpos":757,"Ġ7":758,"Ġcap":759,"ade":760,"ures":761,"rough":762,"ory":763,"Ġeff":764,"Ġla":765,"Ġbo":766,"Ġdem":767,"hed":768,"olog":769,"Ġend":770,"Ġoper":771,"Ġserv":772,"ild":773,"Ġinto":774,"Ġmost":775,"ues":776,"ected":777,"Ġph":778,"ited":779,"ĠâĢĶ":780,"gh":781,"Ġke":782,"ious":783,"Ġdata":784,"Ġ&":785,"ting":786,"ell":787,"Ġgrow":788,"ink":789,"Ġmed":790,"Ġtech":791,"Ġbet":792,"com":793,"Ġrep":794,"ning":795,"Ġret":796,"Ġwhile":797,"ced":798,"read":799,"Ġfinanc":800,"Ġrel":801,"Ġtrans":802,"ific":803,"Ġquar":804,"Ġmin":805,"Ġlast":806,"Ġjust":807,"Ġprovid":808,"Ġdes":809,"Ġtest":810,"erm":811,"Ġcontin":812,"Ġthem":813,"ss":814,"loy":815,"000":816,"Ġmany":817,"Ġ8":818,"lp":819,"Ġglobal":820,"cess":821,"Ġcur":822,"iss":823,"Ġduring":824,"ough":825,"Ġpat":826,"Ġgovernment":827,"ause":828,"amp":829,"Ġanaly":830,"Ġtwo":831,"Ġsur":832,"Ġlead":833,"Ġthrough":834,"Ġhelp":835,"gr":836,"Ġeu":837,"ina":838,"lop":839,"ne":840,"Ġsee":841,"ploy":842,"Ġ2021":843,"erg":844,"Ġ201":845,"Ġstud":846,"we":847,"Ġthose":848,"Ġhigh":849,"sear":850,"ative":851,"Ġbu":852,"Ġ10":853,"Ġgroup":854,"Ġsal":855,"ick":856,"velop":857,"ted":858,"Ġann":859,"Ġsub":860,"Ġcol":861,"ward":862,"ange":863,"Ġback":864,"Ġ9":865,"Ġfinancial":866,"Ġ0":867,"Ġresear":868,"gan":869,"Ġaut":870,"arg":871,"Ġwell":872,"Ġdevelop":873,"urn":874,"Ġsec":875,"Ġsuch":876,"ied":877,"eric":878,"Ġban":879,"Ġev":880,"Ġincluding":881,"20":882,"ics":883,"Ġdown":884,"ish":885,"ise":886,"Ġindus":887,"ound":888,"Ġweek":889,"Ġgen":890,"iew":891,"Ġrest":892,"io":893,"Ġdif":894,"Ġnet":895,"Ġquarter":896,"ond":897,"Ġtechn":898,"Ġnum":899,"Ġpublic":900,"fore":901,"ince":902,"Ġcent":903,"Ġsign":904,"Ġagain":905,"Ġeven":906,"ible":907,"Ġlong":908,"ump":909,"Ġonly":910,"les":911,"ater":912,"Ġyears":913,"Ġsupport":914,"line":915,"Ġinst":916,"ind":917,"Ġprot":918,"Ġcompan":919,"co":920,"its":921,"Ġfund":922,"Ġameric":923,"Ġshare":924,"Ġcompanies":925,"wn":926,"Ġclo":927,"Ġgr":928,"irect":929,"ost":930,"Ġher":931,"xt":932,"Ġsch":933,"ared":934,"Ġbecause":935,"ĠâĢĵ":936,"ross":937,"Ġwhere":938,"Ġaccord":939,"ax":940,"cr":941,"Ġlow":942,"ons":943,"Ġent":944,"vel":945,"Ġsm":946,"Ġsoc":947,"ved":948,"Ġsince":949,"round":950,"Ġcall":951,"Ġest":952,"Ġcases":953,"Ġimpact":954,"Ġz":955,"ject":956,"Ġkn":957,"stem":958,"Ġsupp":959,"eral":960,"Ġdirect":961,"Ġevery":962,"aking":963,"Ġ]":964,"Ġ[":965,"Ġcar":966,"Ġbefore":967,"Ġinform":968,"Ġchina":969,"Ġrequ":970,"Ġvirus":971,"Ġprof":972,"Ġdep":973,"ood":974,"bs":975,"ient":976,"Ġshould":977,"Ġbillion":978,"Ġresearch":979,"Ġdon":980,"int":981,"Ġvaccine":982,"ential":983,"ives":984,"Ġgu":985,"),":986,"Ġoffic":987,"ior":988,"Ġadv":989,"Ġcost":990,"ft":991,"Ġair":992,"Ġuse":993,"cent":994,"Ġnews":995,"Ġpay":996,"Ġmake":997,"Ġstart":998,"Ġaccording":999,"Ġval":1000,"ivers":1001,"Ġpresident":1002,"Ġav":1003,"Ġshow":1004,"Ġed":1005,"ands":1006,"ath":1007,"Ġins":1008,"Ġplan":1009,"Ġ2019":1010,"Ġcust":1011,"Ġfl":1012,"Ġinte":1013,"Ġbeing":1014,"Ġsystem":1015,"Ġtechnolog":1016,"Ġstill":1017,"ns":1018,"....":1019,"uct":1020,"Ġcountry":1021,"Ġfol":1022,"Ġcurrent":1023,"Ġprev":1024,"ork":1025,"Ġexper":1026,"Ġ19":1027,"ients":1028,"Ġpers":1029,"Ġcustom":1030,"Ġmy":1031,"Ġbot":1032,"Ġpar":1033,"Ġgrowth":1034,"tries":1035,"ults":1036,"ful":1037,"Ġemploy":1038,"rest":1039,"ular":1040,"Ġhome":1041,"Ġsays":1042,"ict":1043,"Ġsales":1044,"air":1045,"med":1046,"Ġfore":1047,"cond":1048,"ights":1049,"Ġlos":1050,"Ġmonths":1051,"Ġatt":1052,"Ġcommun":1053,"Ġcare":1054,"led":1055,"ief":1056,"'t":1057,"Ġequ":1058,"Ġiss":1059,"ix":1060,"hing":1061,"app":1062,"ces":1063,"ily":1064,"als":1065,"Ġlook":1066,"ution":1067,"cer":1068,"Ġrisk":1069,"az":1070,"Ġday":1071,"Ġfollow":1072,"Ġintern":1073,"Ġinformation":1074,"Ġset":1075,"Ġappro":1076,"Ġsecond":1077,"Ġaround":1078,"Ġtake":1079,"Ġmeas":1080,").":1081,"Ġstock":1082,"Ġthink":1083,"rope":1084,"Ġthree":1085,"Ġma":1086,"ertain":1087,"Ġful":1088,"Ġdet":1089,"Ġfut":1090,"Ġnumber":1091,"une":1092,"Ġfact":1093,"====":1094,"down":1095,"Ġeffect":1096,"Ġindustry":1097,"ck":1098,"Ġmuch":1099,"ency":1100,"Ġcontr":1101,"Ġeurope":1102,"Ġben":1103,"Ġbl":1104,"Ġstates":1105,"Ġconf":1106,"iod":1107,"Ġorgan":1108,"ateg":1109,"osp":1110,"Ġform":1111,"Ġrecent":1112,"hip":1113,"ty":1114,"Ġdemand":1115,"Ġ30":1116,"ween":1117,"Ġgoing":1118,"br":1119,"Ġant":1120,"Ġref":1121,"ool":1122,"ants":1123,"Ġbetween":1124,"Ġvery":1125,"Ġacross":1126,"Ġinfect":1127,"Ġdue":1128,"ets":1129,"Ġservices":1130,"Ġaccess":1131,"Ġsay":1132,"Ġmarch":1133,"Ġvar":1134,"Ġhig":1135,"Ġeconomic":1136,"ision":1137,"Ġtrump":1138,"Ġperiod":1139,"Ġdig":1140,"Ġbank":1141,"Ġbig":1142,"Ġnon":1143,"Ġteam":1144,"Ġannoun":1145,"Ġmanage":1146,"Ġreven":1147,"Ġsocial":1148,"Ġown":1149,"Ġagainst":1150,"Ġsol":1151,"Ġ12":1152,"Ġdef":1153,"eng":1154,"Ġresults":1155,"Ġremain":1156,"tal":1157,"Ġve":1158,"Ġplay":1159,"lease":1160,"ials":1161,"ience":1162,"Ġnext":1163,"Ġloc":1164,"itive":1165,"Ġfac":1166,"Ġtop":1167,"Ġlevel":1168,"Ġway":1169,"Ġread":1170,"man":1171,"urs":1172,"Ġpercent":1173,"reak":1174,"imate":1175,"Ġdiffe":1176,"Ġpolic":1177,"other":1178,"Ġpartic":1179,"Ġsecur":1180,"ling":1181,"Ġdid":1182,"Ġwar":1183,"Ġimport":1184,"view":1185,"Ġboth":1186,"Ġcountries":1187,"Ġreal":1188,"uss":1189,"Ġgood":1190,"Ġexpect":1191,"min":1192,"Ġelect":1193,"ering":1194,"bers":1195,"ospital":1196,"Ã©":1197,"verage":1198,"ouse":1199,"ists":1200,"Ġmade":1201,"Ġcre":1202,"the":1203,"por":1204,"gram":1205,"Ġfuture":1206,"Ġrece":1207,"Ġsen":1208,"Ġ15":1209,"ered":1210,"Ġdel":1211,"Ġreported":1212,"Ġprop":1213,"ying":1214,"ized":1215,"ef":1216,"Ġhospital":1217,"Ġnational":1218,"Ġbro":1219,"sel":1220,"yp":1221,"Ġchild":1222,"Ġsim":1223,"land":1224,"Ġdigital":1225,"ization":1226,"Ġche":1227,"arge":1228,"Ġknow":1229,"ute":1230,"ised":1231,"iven":1232,"ves":1233,"Ġ11":1234,"Ġmem":1235,"tions":1236,"Ġtrave":1237,"Ġdisc":1238,"sis":1239,"Ġaddition":1240,"ount":1241,"Ġcris":1242,"Ġterm":1243,"Ġspec":1244,"Ġbel":1245,"Ġinterest":1246,"ares":1247,"Ġhere":1248,"Ġpost":1249,"Ġschool":1250,"Ġthen":1251,"Ġlif":1252,"ps":1253,"Ġpot":1254,"Ġcapital":1255,"Ġaff":1256,"Ġtim":1257,"Ġprogram":1258,"Ġel":1259,"ner":1260,"gin":1261,"ined":1262,"Ġtotal":1263,"Ġauth":1264,"Ġopen":1265,"Ġpatients":1266,"Ġdays":1267,"Ġcle":1268,"ically":1269,"tion":1270,"Ġperson":1271,"Ġprotect":1272,"ĠĠĠĠ":1273,"Ġconsum":1274,"Ġfur":1275,"Ġfar":1276,"ety":1277,"Ġfed":1278,"ivid":1279,"Ġtechnology":1280,"Ġwant":1281,"Ġfound":1282,"Ġhum":1283,"Ġstrateg":1284,"Ġmaj":1285,"Ġfam":1286,"ov":1287,"Ġmas":1288,"mber":1289,"ww":1290,"ars":1291,"tt":1292,"itions":1293,"ned":1294,"Ġeng":1295,"gest":1296,"Ġmain":1297,"aff":1298,"Ġmanagement":1299,"str":1300,"Ġce":1301,"Ġlim":1302,"aw":1303,"Ġsame":1304,"ever":1305,"pl":1306,"Ġ/":1307,"uary":1308,"Ġtold":1309,"ble":1310,"Ġincrease":1311,"Ġworkers":1312,"Ġpop":1313,"ission":1314,"ex":1315,"Ġloss":1316,"Ġcrisis":1317,"ued":1318,"Ġincome":1319,"Ġfour":1320,"Ġmajor":1321,"ize":1322,"Ġob":1323,"Ġcash":1324,"Ġless":1325,"Ø§":1326,"Ġmet":1327,"ms":1328,"ote":1329,"Ġallow":1330,"Ġtrad":1331,"ready":1332,"Ġchang":1333,"ason":1334,"ially":1335,"iting":1336,"ds":1337,"Ġdise":1338,"Ġmeet":1339,"Ġunited":1340,"Ġnear":1341,"Ġlaw":1342,"Ġsect":1343,"Ġanalysis":1344,"Ġeconomy":1345,"Ġpotential":1346,"Ġmod":1347,"Ġalready":1348,"Ġface":1349,"Ġrecord":1350,"Ġcontro":1351,"Ġes":1352,"ocus":1353,"Ġspread":1354,"Ġexpected":1355,"Ġdeath":1356,"Ġpress":1357,"Ġcontinue":1358,"Ġworking":1359,"Ġ13":1360,"Ġpa":1361,"Ġchange":1362,"Ġsit":1363,"Ġright":1364,"ather":1365,"iving":1366,"Ġforward":1367,"ability":1368,"ron":1369,"Ġactiv":1370,"Ġamong":1371,"Ġ14":1372,"ys":1373,"ending":1374,"Ġtax":1375,"Ġmat":1376,"Ġsou":1377,"ention":1378,"Ġjune":1379,"Ġdoes":1380,"Ġpow":1381,"Ġkeep":1382,"Ġprocess":1383,"iversity":1384,"nal":1385,"Ġemploye":1386,"Ġshort":1387,"Ġuk":1388,"Ġext":1389,"Ġcour":1390,"Ġclos":1391,"Ġmarkets":1392,"ages":1393,"Ġreco":1394,"Ġmeasures":1395,"Ġlock":1396,"Ġsupply":1397,"Ġreturn":1398,"bo":1399,"Ġfurther":1400,"Ġproject":1401,"ĠÂ":1402,"Ġused":1403,"Ġauthor":1404,"Ġanother":1405,"Ġhowever":1406,"Ġtravel":1407,"Ġstudy":1408,"itical":1409,"Ġavail":1410,"Ġhouse":1411,"Ġinvestors":1412,"ination":1413,"da":1414,"Ġperform":1415,"Ġchall":1416,"Ġsignific":1417,"Ġexec":1418,"Ġdifferent":1419,"Ġbenef":1420,"orth":1421,"Ġinternational":1422,"Ġvis":1423,"Ġrevenue":1424,"Ġkey":1425,"Ġemerg":1426,"Ġbas":1427,"ism":1428,"Ġpass":1429,"Ġlikely":1430,"ten":1431,"Ġstrong":1432,"Ġblo":1433,"Ġput":1434,"Ġrate":1435,"year":1436,"Ġfocus":1437,"ired":1438,"Ġdeb":1439,"ished":1440,"Ġresult":1441,"Ġhead":1442,"ey":1443,"Ġhigher":1444,"Ġfull":1445,"ri":1446,"istr":1447,"Ġhal":1448,"Ġcomple":1449,"Ġproducts":1450,"Ġcond":1451,"Ġbusinesses":1452,"Ġgreat":1453,"ually":1454,"Ġ31":1455,"Ġinvestment":1456,"get":1457,"Ġlarge":1458,"ril":1459,"Ġsmall":1460,"Â·":1461,"ked":1462,"Ġfew":1463,"tle":1464,"Ġhuman":1465,"Ġsignificant":1466,"to":1467,"Ġshares":1468,"Ġhold":1469,"Ġlab":1470,"Ġdevelopment":1471,"ness":1472,"ilities":1473,"Ġearly":1474,"Ġplace":1475,"per":1476,"acy":1477,"Ġlat":1478,"Ġimportant":1479,"Ġconcer":1480,"ister":1481,"Ġcity":1482,"ph":1483,"utions":1484,"Ġcustomers":1485,"Ġstatements":1486,"Ġonline":1487,"rence":1488,"Ġbar":1489,"Ġoutb":1490,"Ġposs":1491,"look":1492,"pr":1493,"Ġtoday":1494,"Ġtyp":1495,"ry":1496,"Ġoil":1497,"Ġport":1498,"Ġvalue":1499,"Ġtable":1500,"hes":1501,"Ġwithout":1502,"Ġeach":1503,"Ġimpro":1504,"ocks":1505,"Ġbuild":1506,"nes":1507,"me":1508,"just":1509,"hold":1510,"Ġbid":1511,"ained":1512,"Ġcal":1513,"Ġapril":1514,"ustr":1515,"Ġbest":1516,"Ġfood":1517,"Ġpriv":1518,"mar":1519,"Ġdeli":1520,"ains":1521,"way":1522,"Ġfind":1523,"Ġ18":1524,"ving":1525,"ases":1526,"Ġpast":1527,"Ġbetter":1528,"Ġprice":1529,"Ġquest":1530,"ergy":1531,"ah":1532,"Ġpolicy":1533,"Ġdistr":1534,"rap":1535,"Ġmr":1536,"Ġredu":1537,"ale":1538,"Ġsl":1539,"Ġlockdown":1540,"row":1541,"aving":1542,"Ġsw":1543,"Ġexecut":1544,"cept":1545,"ality":1546,"Ġadmin":1547,"nings":1548,"Ġhist":1549,"Ġthough":1550,"Ġservice":1551,"Ġhard":1552,"asing":1553,"ird":1554,"Ġsu":1555,"Ġmedical":1556,"Ġcommit":1557,"cast":1558,"portun":1559,"Ġrestric":1560,"Ġ16":1561,"cl":1562,"Ġavailable":1563,"Ġchildren":1564,"king":1565,"Ġpur":1566,"Ġcompared":1567,"Ġinfl":1568,"Ġ100":1569,"gress":1570,"Ġopportun":1571,"Ġmean":1572,"Ġstre":1573,"iday":1574,"erc":1575,"oci":1576,"Ġwr":1577,"iron":1578,"ield":1579,"Ġvol":1580,"uly":1581,"Ġproduction":1582,"Ġhop":1583,"Ġannounced":1584,"âĢĶ":1585,"Ġprovide":1586,"Ġimm":1587,"Ġcome":1588,"ified":1589,"Ġ25":1590,"mpt":1591,"Ġ//":1592,"Ġfree":1593,".,":1594,"Ġrun":1595,"Ġbelie":1596,"atory":1597,"Ġleg":1598,"'re":1599,"Ġsubs":1600,"uf":1601,"ional":1602,"Ġstocks":1603,"els":1604,"Ġfil":1605,"Ġart":1606,"ÙĦ":1607,"Ġmove":1608,"Ġweeks":1609,"Ġmid":1610,"Ġchief":1611,"Ġoperating":1612,"omet":1613,"Ġgener":1614,"Ġregul":1615,"Ġdisease":1616,"crib":1617,"Ġenv":1618,"Ġprices":1619,"Ġbi":1620,"ners":1621,"Ġbased":1622,"Ġtimes":1623,"Ġcontrol":1624,"Ġable":1625,"Ġadded":1626,"ier":1627,"ra":1628,"Ġassoci":1629,"Ġ17":1630,"go":1631,"Ġemployees":1632,"Ġenergy":1633,"Ġcred":1634,"Ġinit":1635,"Ġra":1636,"Ġdeal":1637,"Ġlocal":1638,"na":1639,"Ġsouth":1640,"Ġpositive":1641,"Ġoperations":1642,"atch":1643,"ins":1644,"Ġtal":1645,"Ġsecurity":1646,"Ġadjust":1647,"ived":1648,"stand":1649,"Ġwom":1650,"Ġlear":1651,"ody":1652,"less":1653,"ider":1654,"ening":1655,"Ġcosts":1656,"based":1657,"Ġhand":1658,"Ġplat":1659,"Ġhapp":1660,"Ġincreased":1661,"Ġdist":1662,"ash":1663,"ural":1664,"Ġsever":1665,"ising":1666,"Ġclose":1667,"ended":1668,"Ġwhether":1669,"Ġagree":1670,"Ġleast":1671,"Ġprior":1672,"Ġestim":1673,"ton":1674,"Ġtreat":1675,"Ġspe":1676,"Ġprevious":1677,"Ġlit":1678,"arm":1679,"ator":1680,"Ġmight":1681,"Ġpower":1682,"pect":1683,"Ġuniversity":1684,"Ġreally":1685,"ĠÐ":1686,"Ġfall":1687,"Ġsuc":1688,"Ġjan":1689,"Ġvir":1690,"Ġcompet":1691,"Ġusing":1692,"Ġhim":1693,"Ġwithin":1694,"Ġearnings":1695,"Ġtarg":1696,"Ġmanag":1697,"Ġcamp":1698,"Ġyork":1699,"Ġnat":1700,"Ġsour":1701,"oms":1702,"Ġretail":1703,"Ġleaders":1704,"atic":1705,"Ġenviron":1706,"ral":1707,"Ġ50":1708,"Ġstand":1709,"lier":1710,"akes":1711,"Ġjour":1712,"Ġstaff":1713,"Ġupd":1714,"ai":1715,"Ġaverage":1716,"Ġrights":1717,"Ġwed":1718,"Ġadministr":1719,"Ġlife":1720,"Ġjoh":1721,"Ġbiden":1722,"Ġrates":1723,"Ġlot":1724,"Ġthird":1725,"Ġvari":1726,"Ġcorpor":1727,"onse":1728,"Ġcase":1729,"Ġanalyst":1730,"Ġet":1731,"Ġtoo":1732,"osed":1733,"Ġtesting":1734,"Ġplatform":1735,"ocr":1736,"Ġlist":1737,"Ġview":1738,"ember":1739,"Ġoutbreak":1740,"ged":1741,"Ġdece":1742,"work":1743,"aring":1744,"Ġfollowing":1745,"itor":1746,"Ġhtt":1747,"ufact":1748,"Ġeffort":1749,"ators":1750,"Ġ200":1751,"Ġunt":1752,"Ġrepres":1753,"Ġmonday":1754,"lished":1755,"Ġfederal":1756,"Ġplans":1757,"be":1758,"Ġdesign":1759,"Ġgre":1760,"........":1761,"Ġaustr":1762,"Ġsing":1763,"Ġresponse":1764,"Ġrelated":1765,"Ġseen":1766,"Ġdiff":1767,"Ġcy":1768,"Ġq":1769,"Ġmanufact":1770,"Ġsaf":1771,"new":1772,"ibut":1773,"for":1774,"Ġdirector":1775,"Ġfive":1776,"inated":1777,"Ġstep":1778,"Ġhalf":1779,"Ġunc":1780,"Ġinstit":1781,"Ġident":1782,"uation":1783,"Ġlower":1784,"rup":1785,"Ġapplic":1786,"care":1787,"Ġcut":1788,"Ġbeh":1789,"Ġmedia":1790,"Ġmult":1791,"side":1792,"Ġdecember":1793,"umm":1794,"Ġmaking":1795,"Ġmater":1796,"Ġchalleng":1797,"ped":1798,"Ġmoney":1799,"ium":1800,"aim":1801,"10":1802,"ends":1803,"Ġjuly":1804,"Ġstatement":1805,"Ġplease":1806,"Ġmor":1807,"cc":1808,"Ġvaccines":1809,"Ġinclude":1810,"Ġvi":1811,"Ġstay":1812,"Ġhit":1813,"Ġrespons":1814,"Ġdepart":1815,"========":1816,"term":1817,"Ġge":1818,"inc":1819,"Ġsk":1820,"Ġenvironment":1821,"Ġcontact":1822,"Ġgeneral":1823,"ulation":1824,"Ġclin":1825,"ense":1826,"Ġlarg":1827,"Ġindivid":1828,"Ġseveral":1829,"ler":1830,"Ġdrug":1831,"acks":1832,"Ġsix":1833,"Ġsug":1834,"Ġyet":1835,"Ġamerican":1836,"Ġuntil":1837,"Ġlet":1838,"Ġexecutive":1839,"Ġpoin":1840,"uesday":1841,"Ġbuy":1842,"Ġtuesday":1843,"Ġperformance":1844,"ats":1845,"50":1846,"Ġaustral":1847,"Ġcertain":1848,"Ġcontract":1849,"ively":1850,"Ġdemocr":1851,"Ġbor":1852,"Ġrestrictions":1853,"Ġothers":1854,"Ġguid":1855,"Ġsuccess":1856,"Ġtren":1857,"Ġcanad":1858,"Ġamerica":1859,"aining":1860,"Ġclear":1861,"Ġbecome":1862,"Ġevents":1863,"Ġgiven":1864,"nesday":1865,"ample":1866,"Ġindividual":1867,"Ġwednesday":1868,"Ġprodu":1869,"Ġended":1870,"Ġpoint":1871,"Ġofficials":1872,"Ġafric":1873,"ĠâĢĺ":1874,"Ġtrade":1875,"Ġadditional":1876,"Ð¾":1877,"Ġthings":1878,"Ġfriday":1879,"head":1880,"Ġorder":1881,"Ġseg":1882,"Ġneg":1883,"Ġgas":1884,"Ġ24":1885,"Ġsept":1886,"Ġcontent":1887,"Ġwin":1888,"Ġhttps":1889,"Ġmust":1890,"ursday":1891,"30":1892,"Ġearlier":1893,"Ġemail":1894,"ger":1895,"Ġpossible":1896,"Ġthursday":1897,"Ġprofess":1898,"Ġeas":1899,"Ġpartners":1900,"Ġsomet":1901,"Ġoffice":1902,"Ġrecovery":1903,"Ġassets":1904,"ienc":1905,"Ġparticular":1906,"lement":1907,"Ġterms":1908,"%,":1909,"Ġturn":1910,"Ġens":1911,"ames":1912,"Ġaug":1913,"Ġcommunity":1914,"apan":1915,"ware":1916,"Ġproble":1917,"Ġboard":1918,"Ġwomen":1919,"Ġcredit":1920,"Ġacqu":1921,"aily":1922,"%.":1923,"Ġdev":1924,"Ġste":1925,"Ġpresent":1926,"Ġnorm":1927,"ference":1928,"rel":1929,"Ġsafe":1930,"Ġmil":1931,"Ġprom":1932,"erv":1933,"Ġrele":1934,"Ġissues":1935,"Ġprofit":1936,"Ġeuropean":1937,"Ġdom":1938,"Ġvide":1939,"Ġmembers":1940,"Ġdesp":1941,"sh":1942,"oot":1943,"Ġ21":1944,"ately":1945,"Ġcomb":1946,"Ġchanges":1947,"Ġsafety":1948,"Ġjournal":1949,"ĠĠĠ":1950,"cal":1951,"Ġceo":1952,"Ġlaun":1953,"Ġminister":1954,"Ġur":1955,"Ġdrop":1956,"Ġhaving":1957,"Ġtem":1958,"Ġlatest":1959,"Ġreview":1960,"Ġsector":1961,"Ġsystems":1962,"Ġlevels":1963,"self":1964,"err":1965,"ping":1966,"hers":1967,"ury":1968,"Ġdecl":1969,"Ġdebt":1970,"Ġcn":1971,"Ġlive":1972,"oll":1973,"Ġhour":1974,"Ġjapan":1975,"ogle":1976,"Ġfamily":1977,"Ġconn":1978,"Ġtarget":1979,"Ġnearly":1980,"Ġlimited":1981,"Ġrisks":1982,"pec":1983,"Ġannual":1984,"Ġevent":1985,"omm":1986,"aces":1987,"ably":1988,"Ġlooking":1989,"inese":1990,"Ġdaily":1991,"Ġuncertain":1992,"Ġjob":1993,"Ġbroad":1994,"ik":1995,"ibility":1996,"Ġ+":1997,"Ġsuggest":1998,"Ġexperience":1999,"Ġsurve":2000,"Ġconfir":2001,"Ġpract":2002,"Ġruss":2003,"ilar":2004,"Ġfig":2005,"Ġconditions":2006,"Ġquick":2007,"Ġrepresent":2008,"ances":2009,"hic":2010,"Ġdespite":2011,"Ġprep":2012,"Ġdecision":2013,"Ġsympt":2014,"Ġchinese":2015,"Ġdeaths":2016,"Ġaddress":2017,"ened":2018,"Ġblack":2019,"Ġsell":2020,"Ġcaus":2021,"Ġrelease":2022,"ove":2023,"Ġbal":2024,"Ġwhite":2025,"ots":2026,"Ġbegin":2027,"Ġbill":2028,"ify":2029,"Ġsan":2030,"Ġeduc":2031,"Ġrequire":2032,"Ġadministration":2033,"Ġnorth":2034,"ured":2035,"Ġ22":2036,"nov":2037,"Ġgerm":2038,"Ġleading":2039,"...":2040,"Ġcoll":2041,"Ġoffer":2042,"Ġclaim":2043,"ift":2044,"cy":2045,"Ðµ":2046,"ories":2047,"looking":2048,"most":2049,"Ġseason":2050,"Ġwhy":2051,"Ġ2022":2052,"Ġsust":2053,"Ġwon":2054,"Ġmasks":2055,"ports":2056,"Ġreporting":2057,"Ġregion":2058,"Ġsimilar":2059,"Ġcommon":2060,"ÙĬ":2061,"Ġcoming":2062,"Ġline":2063,"icult":2064,"Ġdepartment":2065,"21":2066,"Ġtre":2067,"Ġ40":2068,"Ġjanuary":2069,"Ġparticip":2070,"Ġforecast":2071,"Ġfeel":2072,"Ġfunds":2073,"cing":2074,"Ġincreasing":2075,"Ġwal":2076,"Ġ)":2077,"Ġclass":2078,"ones":2079,"Ġtaking":2080,"Ġprivate":2081,"Ġpublished":2082,"Ġreop":2083,"Ġdifficult":2084,"Ġslow":2085,"Ġunderstand":2086,"Ġcurrently":2087,"Ġprim":2088,"Ġvot":2089,"ank":2090,"Ġimprove":2091,"Ġ2018":2092,"Ġahead":2093,"Ġneeds":2094,"Ġmeeting":2095,"Ġlater":2096,"Ġjobs":2097,"ublic":2098,"Ġseptember":2099,"Ġcalled":2100,"ched":2101,"ney":2102,"Ġlink":2103,"Ġresour":2104,"Ġcollect":2105,"ival":2106,"Ġlittle":2107,"Ġsumm":2108,"Ġbrit":2109,"Ġformer":2110,"thing":2111,"Ġdiscuss":2112,"wh":2113,"Ġmic":2114,"orn":2115,"Ġposition":2116,"ancing":2117,"Ġir":2118,"ucture":2119,"Ġ*":2120,"Ġexpl":2121,"Ġfis":2122,"Ġ@":2123,"ians":2124,"de":2125,"Ġdi":2126,"Ġ23":2127,"Ġmus":2128,"ols":2129,"Ġthous":2130,"Ġreports":2131,"aging":2132,"Ġwest":2133,"ways":2134,"Ġrul":2135,"Ġide":2136,"Ġ500":2137,"aken":2138,"Ð°":2139,"Ġpolice":2140,"ta":2141,"Ġfre":2142,"Ġdou":2143,"Ġmoder":2144,"Ġadjusted":2145,"Ġautom":2146,"Ġep":2147,"Ġgot":2148,"ems":2149,"Ġ28":2150,"ont":2151,"Ġpred":2152,"Ġinnov":2153,"gn":2154,"che":2155,"Ġpoints":2156,"Ġnation":2157,"Ġability":2158,"Ġsus":2159,"Ġpolitical":2160,"pos":2161,"Ġindia":2162,"ike":2163,"Ġmill":2164,"Ġinfection":2165,"Ġcop":2166,"Ġhealthcare":2167,"Ġalong":2168,"Ġexample":2169,"Ġequity":2170,"ĠØ":2171,"Ġwatch":2172,"Ġchain":2173,"Ġcentral":2174,"Ġspecial":2175,"Ġstat":2176,"wide":2177,"Ġyoun":2178,"bruary":2179,"Ġthreat":2180,"Ġbelieve":2181,"Ġonce":2182,"Ġpack":2183,"Ġfactors":2184,"uck":2185,"Ġord":2186,"Ġcustomer":2187,"Ġshop":2188,"bit":2189,"ores":2190,"Ġgetting":2191,"Ġill":2192,"Ġtele":2193,"Ġmass":2194,"Ġaccount":2195,"Ġrev":2196,"Ġstudents":2197,"Ġexpens":2198,"Ġlives":2199,"Ġclinical":2200,"oid":2201,"Ġhar":2202,"Ġchar":2203,"action":2204,"ann":2205,"Ġtoget":2206,"Ġarr":2207,"Ġtogether":2208,"Ġsolutions":2209,"Ġmom":2210,"af":2211,"Ġindic":2212,"Ġsymptoms":2213,"Ġboost":2214,"ret":2215,"Ġfebruary":2216,"Ð¸":2217,"Ġdate":2218,"Ġtreatment":2219,"Ġfail":2220,"Ġrap":2221,"Ġbring":2222,"Ġflow":2223,"Ġbre":2224,"lish":2225,"Ġdeliver":2226,"Ġespec":2227,"Ġ27":2228,"Ġoften":2229,"holders":2230,"Ġrespect":2231,"%)":2232,"lf":2233,"Ġaccoun":2234,"Ġx":2235,"mic":2236,"Ġcomes":2237,"of":2238,"Ġemergency":2239,"Ġold":2240,"Ġareas":2241,"Ġinfections":2242,"Ġstop":2243,"Ġorig":2244,"Ġconsumer":2245,"Ġrespond":2246,"uel":2247,"Ġcapac":2248,"Ġstrategy":2249,"vere":2250,"Ġhistor":2251,"Ġsenior":2252,"mit":2253,"Ġpurch":2254,"Ġmeans":2255,"Ġrise":2256,"Ġalmost":2257,"Ġlate":2258,"Ġocc":2259,"Ġnever":2260,"Ġdoing":2261,"pro":2262,"Ġespecially":2263,"arily":2264,"Ġlargest":2265,"Ġconsider":2266,"fol":2267,"aign":2268,"Ġscient":2269,"Ġgold":2270,"Ġexch":2271,"27":2272,"Ġchallenges":2273,"Ġdetail":2274,"Ġhom":2275,"ple":2276,"hest":2277,"Ġindex":2278,"Ġamericans":2279,"Ġever":2280,"Ġago":2281,"Ġdoll":2282,"Ġvisit":2283,"Ġrequired":2284,"Ġgrowing":2285,"Ġcampaign":2286,"Ġclimate":2287,"que":2288,"ris":2289,"by":2290,"Ġgive":2291,"Ġexc":2292,"ining":2293,"Ġtrading":2294,"Ġgoogle":2295,"Ġbenefits":2296,"let":2297,"Ġrepublic":2298,"Ġvideo":2299,"ards":2300,"Ġtested":2301,"Ġrecently":2302,"Ġpopulation":2303,"Ġjohns":2304,"Ġpus":2305,"tern":2306,"abilities":2307,"Ġquestion":2308,"Ġsomething":2309,"Ġsent":2310,"Ġhot":2311,"Ġefforts":2312,"Ġpersonal":2313,"Ġled":2314,"Ġfun":2315,"Ġsustain":2316,"Ġasia":2317,"Ġaction":2318,"Ġque":2319,"Ġorganiz":2320,"Ġprov":2321,"Ġhours":2322,"Ġsat":2323,"Ġphys":2324,"Ġspace":2325,"Ġhol":2326,"Ġred":2327,"Ġbreak":2328,"whe":2329,"Ġtrack":2330,"Ġtoward":2331,"bc":2332,"sc":2333,"Ġinterview":2334,"Ġcontinued":2335,"Ġlabor":2336,"Ġ26":2337,"Ġcomment":2338,"essential":2339,"âĢĵ":2340,"Ġhed":2341,"Ġinvol":2342,"Ġenough":2343,"par":2344,"uge":2345,"ley":2346,"gen":2347,"time":2348,"Ġcapacity":2349,"Ġcame":2350,"Ġexist":2351,"Ġrecomm":2352,"Ġcenter":2353,"Ġrelations":2354,"Ġensure":2355,"Ġequip":2356,"inal":2357,"Ø§ÙĦ":2358,"Ġprotest":2359,"Ġtype":2360,"Ġsituation":2361,"Ġda":2362,"Ġâ":2363,"Ġreser":2364,"Ġmodel":2365,"Ġshut":2366,"ides":2367,"itter":2368,"Ġreflect":2369,"Ġattr":2370,"Ġsecurities":2371,"Ġwebs":2372,"Ġtaken":2373,"Ġtrial":2374,"cov":2375,"aap":2376,"iation":2377,"Ġvirt":2378,"Ġforeign":2379,"Ġenc":2380,"Ġnote":2381,"Ġaugust":2382,"Ġorganization":2383,"ÑĤ":2384,"imately":2385,"Ġship":2386,"www":2387,"Ġsoft":2388,"Ġartic":2389,"Ġbelow":2390,"Ġsegment":2391,"25":2392,"Ġbiggest":2393,"Ġconnect":2394,"Ġeffective":2395,"Ġneeded":2396,"Ġbasis":2397,"Ġreceived":2398,"though":2399,"Ùħ":2400,"11":2401,"Ġaway":2402,"atives":2403,"Ġagency":2404,"Ġleft":2405,"Ġpropert":2406,"Ġnormal":2407,"Ġfiscal":2408,"Ġach":2409,"Ġapproach":2410,"Ġeffic":2411,"Ġcrit":2412,"Ġoct":2413,"Ġremote":2414,"Ġparty":2415,"Ġvent":2416,"aur":2417,"pers":2418,"Ġtour":2419,"Ġportfol":2420,"ogn":2421,"Ġ2012":2422,"Ġconference":2423,"Ġreach":2424,"mon":2425,"Ġamid":2426,"Ġsource":2427,"epend":2428,"employ":2429,"Ġaustralia":2430,"Ġfamil":2431,"Ġver":2432,"Ġnumbers":2433,"los":2434,"Ġvariant":2435,"Ġclosed":2436,"Ġmedic":2437,"Ġprevent":2438,"Ġrob":2439,"Ġnetwork":2440,"Ġabove":2441,"Ġmob":2442,"Ġresources":2443,"Ġoutside":2444,"Ġfeat":2445,"Ġspending":2446,"Ġcolle":2447,"Ġalthough":2448,"Ġmargin":2449,"akers":2450,"Ġsoon":2451,"oud":2452,"Ġmaint":2453,"Ġfirm":2454,"Ġofficer":2455,"Ġhope":2456,"val":2457,"Ġconcerns":2458,"Ġtook":2459,"aged":2460,"Ġrose":2461,"Ġsars":2462,"Ġestimates":2463,"Ġstarted":2464,"Ġexchange":2465,"Ġcell":2466,"Ġafrica":2467,"ades":2468,"Ġopportunities":2469,"ume":2470,"Ġbanks":2471,"Ġvers":2472,"Ġca":2473,"Ġname":2474,"Ġfell":2475,"Ġdivid":2476,"isions":2477,"Ġachie":2478,"Ġcanada":2479,"igr":2480,"ugg":2481,"Ġintegr":2482,"Ġheld":2483,"ras":2484,"Ġcourt":2485,"Ġconsumers":2486,"ument":2487,"Ġcreate":2488,"Ġcho":2489,"Ġprovides":2490,"Ġexperts":2491,"Ġnas":2492,"Ġopt":2493,"Ġbook":2494,"rs":2495,"ude":2496,"Ġexpand":2497,"Ġauthorities":2498,"mission":2499,"lex":2500,"Ġdecre":2501,"ern":2502,"Ġschools":2503,"Ġcommerc":2504,"Ġrapid":2505,"Ġtests":2506,"medi":2507,"Ġrecogn":2508,"Ġelection":2509,"Ġcheck":2510,"Ġsure":2511,"Ġcommunic":2512,"Ġdone":2513,"16":2514,"verse":2515,"ibution":2516,"Ġactivities":2517,"Ġadvis":2518,"Ġprovided":2519,"Ġfinance":2520,"ology":2521,"irc":2522,"Ġlog":2523,"Ġgroups":2524,"Ġsurvey":2525,"Ġut":2526,"Ġaud":2527,"Ġenter":2528,"Ġstreet":2529,"sw":2530,"Ġrole":2531,"force":2532,"ĠâĢĿ.":2533,"Ġmanufacturing":2534,"Ġexperienc":2535,"Ġquickly":2536,"Ġassess":2537,"Ġkind":2538,"Ġcommission":2539,"Ġ29":2540,"Ġmicro":2541,"Ġmess":2542,"Ð½":2543,"Ġvaccination":2544,"Ġdisrup":2545,"Ġimplement":2546,"Ġregard":2547,"igation":2548,"ung":2549,"Ġappear":2550,"Ġalways":2551,"Ġbegan":2552,"Ġ60":2553,"Ġsund":2554,"icip":2555,"Ġremains":2556,"Ġren":2557,"aps":2558,"Ġlonger":2559,"Ġwind":2560,"Ġindepend":2561,"Ġoverall":2562,"Ġresearc":2563,"Ġcourse":2564,"Ġcorporate":2565,"Ġactivity":2566,"Ġincludes":2567,"aper":2568,"Ġdoc":2569,"Ġrestaur":2570,"book":2571,"ceed":2572,"Ġsaying":2573,"Ġlost":2574,"Ġeducation":2575,"Ġcritical":2576,"Ġschol":2577,"po":2578,"Ġsevere":2579,"Ġmoment":2580,"Ġphot":2581,"Ġviol":2582,"Ġopportunity":2583,"Ġtrust":2584,"12":2585,"Ġplayers":2586,"Ġknown":2587,"iple":2588,"off":2589,"Ġprem":2590,"Ġhedge":2591,"Ġjohnson":2592,"Ġfast":2593,"idents":2594,"Ġprogress":2595,"ograp":2596,"Ġpet":2597,"Ġequipment":2598,"Ġmiss":2599,"Ġcommercial":2600,"Ġnecess":2601,"Ġarg":2602,"lines":2603,"Ġexpenses":2604,"Ġreceive":2605,"Ġparticularly":2606,"Ġincluded":2607,"set":2608,"urance":2609,"Ġunemploy":2610,"Ġwa":2611,"Ġeveryone":2612,"aker":2613,"ĠÂ£":2614,"Ġasked":2615,"15":2616,"Ġnove":2617,"Ġissue":2618,"mb":2619,"Ġessential":2620,"Ġcomplete":2621,"oses":2622,"Ġdiv":2623,"Ġreduce":2624,"Ġreason":2625,"Ġnatural":2626,"Ã³":2627,"Ġnegative":2628,"han":2629,"Ġamount":2630,"Ġsunday":2631,"Ġgreen":2632,"Ġ%":2633,"Ġfear":2634,"Ġll":2635,"Ġage":2636,"Ġsuff":2637,"Ġsingle":2638,"Ġrange":2639,"Ġconfirmed":2640,"Ġnovember":2641,"selves":2642,"ters":2643,"ÙĨ":2644,"Ġiniti":2645,"Ġrat":2646,"Ġacce":2647,"Ġchair":2648,"Ġfri":2649,"Ġtrends":2650,"Ġfight":2651,"Ġportfolio":2652,"Ġrequest":2653,"Ġdeep":2654,"Ġwebsite":2655,"Ġcit":2656,"Ġquarant":2657,"rastr":2658,"Ġ199":2659,"Ġcirc":2660,"uction":2661,"Ġconstr":2662,"Ġrules":2663,"Ġevid":2664,"tech":2665,"Ġinfrastr":2666,"Ġways":2667,"Ġshowed":2668,"Ġhy":2669,"17":2670,"ring":2671,"ither":2672,"crip":2673,"Ġaim":2674,"18":2675,"vered":2676,"Ġantib":2677,"40":2678,"Ġbit":2679,"Ġfunding":2680,"Ġacquis":2681,"Ġprotection":2682,"ÙĪ":2683,"Ġtransport":2684,"uters":2685,"Ġbuilding":2686,"Ġcance":2687,"Ġbat":2688,"cil":2689,"Ġself":2690,"Ġamaz":2691,"Ġbond":2692,"Ġcommitte":2693,"Ġinflation":2694,"ondon":2695,"Ġcommunities":2696,"Ġyoung":2697,"Ġaffect":2698,"anced":2699,"Ġcalif":2700,"Ġdistancing":2701,"dle":2702,"ape":2703,"Ġcontinu":2704,"Ġexpress":2705,"going":2706,"Ġgl":2707,"izing":2708,"Ġacceler":2709,"Ġdidn":2710,"ald":2711,"ob":2712,"Ñģ":2713,"Ġagreement":2714,"Ġhighest":2715,"ober":2716,"pa":2717,"Ġsaw":2718,"Ġwashing":2719,"Ġmakes":2720,"Ġprime":2721,"26":2722,"org":2723,"ĠØ§ÙĦ":2724,"Ġarea":2725,"Ġguidance":2726,"Ġinfrastructure":2727,"Ġthousands":2728,"use":2729,"ead":2730,"Ġvaccinated":2731,"Ġfrance":2732,"Ġrather":2733,"Ġtechnologies":2734,"Ġpharm":2735,"Ġshows":2736,"abor":2737,"Ġvs":2738,"tra":2739,"Ġinvestments":2740,"Ġrising":2741,"Ġanalysts":2742,"mer":2743,"lying":2744,"ction":2745,"Ġofficial":2746,"hen":2747,"ij":2748,"pe":2749,"Ġtherap":2750,"Ġtur":2751,"ark":2752,"Ġassist":2753,"ico":2754,"Ġfair":2755,"Ġlosses":2756,"Ġscholar":2757,"ams":2758,"Ġquestions":2759,"Ġrac":2760,"Ġavoid":2761,"Ġimmun":2762,"ently":2763,"Ġwater":2764,"Ġrussia":2765,"ires":2766,"24":2767,"Ġgovernments":2768,"Ġprob":2769,"Ġassociated":2770,"ises":2771,"Ġoctober":2772,"den":2773,"jo":2774,"Ġcloud":2775,"Ġbey":2776,"iety":2777,"la":2778,"Ġdoesn":2779,"Ġfully":2780,"Ġfoot":2781,"Ġcnn":2782,"Ġhistory":2783,"Ġinflu":2784,"Ġfinal":2785,"Ġexpectations":2786,"14":2787,"Ġbrand":2788,"rote":2789,"rency":2790,"13":2791,"Ġer":2792,"Ġstores":2793,"Ġpayments":2794,"berg":2795,"Ġfourth":2796,"Ġinstead":2797,"Ġeuro":2798,"Ġmand":2799,"ls":2800,"Ġbrands":2801,"Ġloans":2802,"ane":2803,"Ġlearning":2804,"Ġhost":2805,"Ġlondon":2806,"Ġtrying":2807,"Ġfront":2808,"Ġsubscrib":2809,"Ġcand":2810,"ÑĢ":2811,"Ġstrugg":2812,"istics":2813,"Ġresearchers":2814,"rist":2815,"Ġpressure":2816,"Ġkong":2817,"Ġden":2818,"Ġtell":2819,"Ġcommittee":2820,"Ġpolicies":2821,"Ġbeyond":2822,"izer":2823,"ĠĠĠĠĠĠĠĠ":2824,"Ġphase":2825,"Ġscience":2826,"Ġthing":2827,"Ġadop":2828,"olid":2829,"Ġdelivery":2830,"Ġai":2831,"ÃŃ":2832,"pm":2833,"Ġbenefit":2834,"Ġten":2835,"micron":2836,"Ġvict":2837,"Ġunemployment":2838,"Ġdecline":2839,"ison":2840,"Ġomicron":2841,"Ġorganizations":2842,"Ġvirtual":2843,"Ġwrote":2844,"Ġland":2845,"ental":2846,"Ġcaliforn":2847,"Ġdeterm":2848,"ellig":2849,"Ġje":2850,"Ġconst":2851,"Ġseries":2852,"Ġvehic":2853,"Ġroll":2854,"ables":2855,"Ġdoct":2856,"ios":2857,"Ġteams":2858,"Ġpreviously":2859,"Ġbehind":2860,"Ġhong":2861,"Ġkill":2862,"Ã¡":2863,"Ġscen":2864,"Ġside":2865,"Ġcontain":2866,"ming":2867,"Ġproblem":2868,"au":2869,"Ġindustr":2870,"aster":2871,"Ġ2027":2872,"Ġannounce":2873,"Ġimmedi":2874,"kn":2875,"yn":2876,"Ġoffering":2877,"Ġlack":2878,"over":2879,"Ġcaused":2880,"Ġmot":2881,"Ġconduct":2882,"ibuted":2883,"Ġmask":2884,"Ð¾Ð":2885,"Ġentire":2886,"reng":2887,"Ġdomest":2888,"Ġpros":2889,"ession":2890,"Ġcontinues":2891,"inary":2892,"rec":2893,"Ġsoftware":2894,"Ġcalifornia":2895,"Ġsusp":2896,"vert":2897,"Ġhospitals":2898,"Ġwide":2899,"dr":2900,"80":2901,"Ġcult":2902,"Ġebit":2903,"Ġexter":2904,"Ġlight":2905,"Ġsche":2906,"Ġsecret":2907,"duction":2908,"Ġintellig":2909,"Ġpatient":2910,"Ġmis":2911,"Ġrevenues":2912,"................":2913,"Ġgermany":2914,"Ġfav":2915,"Ġstreng":2916,"Ġcause":2917,"related":2918,"Ġevidence":2919,"Ġeffects":2920,"reme":2921,"Ø§Ø":2922,"ties":2923,"Ġpaid":2924,"Ġleader":2925,"Ġmen":2926,"oks":2927,"Ġabs":2928,"Ġreb":2929,"ging":2930,"fully":2931,"Ġquality":2932,"Ġoptim":2933,"sequ":2934,"Ġmark":2935,"Ġbul":2936,"Ġbud":2937,"Ġstudies":2938,"Ġbalance":2939,"Ġarticle":2940,"Ġmeasure":2941,"Ġactually":2942,"Ġcollabor":2943,"roll":2944,"Ġfel":2945,"Ġmillions":2946,"Ġsubject":2947,"Ġmiddle":2948,"Ġindividuals":2949,"utes":2950,"pre":2951,"Ġintro":2952,"Ġinfected":2953,"back":2954,"Ġps":2955,"Ġencour":2956,"================":2957,"market":2958,"60":2959,"Ġbur":2960,"do":2961,"ott":2962,"Ġsurge":2963,"Ġconsolid":2964,"ky":2965,"Ġserious":2966,"Ġcandid":2967,"Ġdescrib":2968,"Ġscop":2969,"Ġhighl":2970,"Ġapplication":2971,"come":2972,"Ġ#":2973,"ma":2974,"Ġprojects":2975,"Ġexternal":2976,"Ġindustrial":2977,"ero":2978,"Ġgreater":2979,"Ġpercentage":2980,"Ġvia":2981,"Ġtransform":2982,"Ġcou":2983,"22":2984,"Ġmit":2985,"ague":2986,"Ġ35":2987,"issions":2988,"Ġloan":2989,"Ġunion":2990,"Ġmal":2991,"Ġresponsible":2992,"Ġapprox":2993,"Ġanticip":2994,"Ġroad":2995,"Ġdia":2996,"Ġdomestic":2997,"hol":2998,"Ġexisting":2999,"Ġfa":3000,"mp":3001,"isation":3002,"Ġmultiple":3003,"Ġliqu":3004,"Ġpopular":3005,"Ġstim":3006,"ony":3007,"Ġlegal":3008,"Ġfamilies":3009,"Ġrace":3010,"fer":3011,"Ġpolit":3012,"asts":3013,"Ġcd":3014,"35":3015,"70":3016,"Ġfacilities":3017,"Ġamazon":3018,"Ġestab":3019,"ids":3020,"Ġsite":3021,"Ġasset":3022,"hs":3023,"Ġclean":3024,"Ġtwitter":3025,"Ġeverything":3026,"istic":3027,"Ġgame":3028,"Ġfacebook":3029,"Ĥ¬":3030,"Ġwashington":3031,"Ġrelative":3032,"lim":3033,"Ġdistribution":3034,"load":3035,"Ġstar":3036,"Ġcover":3037,"Ġbase":3038,"Ġwall":3039,"ached":3040,"fect":3041,"Ġsummer":3042,"Ġleave":3043,"Ġspok":3044,"Ġmember":3045,"Ġallowed":3046,"Ġterr":3047,"Ġdeveloped":3048,"Ġreleased":3049,"Ġgames":3050,"Ġobs":3051,"Ġdoses":3052,"Ġpan":3053,"aries":3054,"Ġinsurance":3055,"Ġnight":3056,"Ġoutlook":3057,"Ġkore":3058,"Ġstimul":3059,"Ġvarious":3060,"Ġproviding":3061,"hod":3062,"Ġpen":3063,"Ġny":3064,"Ġmort":3065,"Ġ×":3066,"Ġusers":3067,"Ġestimated":3068,"like":3069,"Ġongoing":3070,"Ġ70":3071,"ida":3072,"Ġwent":3073,"Ġdrive":3074,"Ġ80":3075,"Ġengland":3076,"Ġspecific":3077,"Ġseven":3078,"hens":3079,"ĠÂ©":3080,"Ġsize":3081,"Ġshareholders":3082,"ption":3083,"Ġcongress":3084,"33":3085,"Ġvul":3086,"ored":3087,"Ġdam":3088,"Ġhomes":3089,"Ġproperty":3090,"Ġ2017":3091,"Ġisn":3092,"Ġflo":3093,"Ġapproximately":3094,"Ġindependent":3095,"wor":3096,"Ġmonitor":3097,"daq":3098,"aced":3099,"Ġthemselves":3100,"ips":3101,"Ġcompar":3102,"Ġupdate":3103,"Ġseeing":3104,"Ġcities":3105,"ivity":3106,"Ġinvestor":3107,"clus":3108,"where":3109,"Ġmorning":3110,"Ġaffected":3111,"Ġresidents":3112,"Ġliving":3113,"Ġreuters":3114,"Ġyield":3115,"Ġexcept":3116,"Ġvulner":3117,"fort":3118,"actions":3119,"Ġnasdaq":3120,"reg":3121,"Ġforce":3122,"Ġdead":3123,"Ġadding":3124,"75":3125,"Ġstore":3126,"sec":3127,"Ġchrist":3128,"Ġappe":3129,"Ġsmart":3130,"Ġcharg":3131,"Ġinstitute":3132,"aks":3133,"ification":3134,"Ġwrit":3135,"Ġquarantine":3136,"umb":3137,"Ġ|":3138,"Ġscre":3139,"Ġregulatory":3140,"Ġsubst":3141,"Ġweb":3142,"Ġtradition":3143,"Ġpf":3144,"Ġmich":3145,"bon":3146,"Ġmaterial":3147,"Ġrepl":3148,"Ġclaims":3149,"Ġmatter":3150,"ĠâĤ¬":3151,"Ġtrials":3152,"44":3153,"Ġbraz":3154,"Ġeither":3155,"right":3156,"aud":3157,"Ġbad":3158,"Ġmajority":3159,"Ġconvers":3160,"ee":3161,"Ġsatur":3162,"Ġdemon":3163,"Ġclients":3164,"Ġpick":3165,"Ġlimit":3166,"aft":3167,"ented":3168,"Ġsold":3169,"Ġcoverage":3170,"Ġlearn":3171,"ama":3172,"Ġsites":3173,"Ġsn":3174,"oming":3175,"Ġfigure":3176,"Ġeast":3177,"Ġmc":3178,"net":3179,"ply":3180,"88":3181,"Ġlib":3182,"Ġconv":3183,"ique":3184,"aut":3185,"Ġdiagn":3186,"Ġelse":3187,"29":3188,"Ġwave":3189,"Ġhuge":3190,"23":3191,"Ġselect":3192,"Ġrelationship":3193,"Ġissued":3194,"Ġproblems":3195,"Ġstory":3196,"Ġlaunch":3197,"Ġtools":3198,"Ġpartnership":3199,"Ġgm":3200,"Ġintelligence":3201,"Ġ,":3202,"idence":3203,"eration":3204,"Ġtempor":3205,"Ġdemonstr":3206,"ender":3207,"Ġconsult":3208,"Ġanti":3209,"Ġfocused":3210,"ried":3211,"put":3212,"Ġsyn":3213,"itary":3214,"ches":3215,"enge":3216,"Ġprograms":3217,"xy":3218,"Ġ90":3219,"Ġebitda":3220,"rents":3221,"person":3222,"Ġ36":3223,"Ġengine":3224,"equ":3225,"Ġuncertainty":3226,"while":3227,"iring":3228,"cul":3229,"Ġground":3230,"Ġgain":3231,"Ġmag":3232,"Ġairlines":3233,"ux":3234,"Ġelectric":3235,"ubs":3236,"Ġsaturday":3237,"Ġblock":3238,"âĢ¦":3239,"Ġstarting":3240,"Ġpul":3241,"ature":3242,"uk":3243,"Ġder":3244,"Ġsense":3245,"Ġwhole":3246,"Ġfuel":3247,"Ġshift":3248,"ca":3249,"Ġgains":3250,"Ġmethod":3251,"Ġbritish":3252,"Ġindustries":3253,"Ġfirms":3254,"eline":3255,"ĠâĢĿ,":3256,"Ġround":3257,"Ġoptions":3258,"Ġ.":3259,"Ġexpense":3260,"Ġinsights":3261,"amed":3262,"45":3263,"Ġitaly":3264,"Ġexpert":3265,"Ġepid":3266,"rehens":3267,"Ġtransmission":3268,"Ġassum":3269,"Ġthroughout":3270,"Ġworth":3271,"Ġsil":3272,"Ġliquid":3273,"Ġworldwide":3274,"Ġbrazil":3275,"Ġidea":3276,"Ġtex":3277,"Ġchallenge":3278,"Ġtry":3279,"gaap":3280,"Ġcam":3281,"Ġhous":3282,"Ġupdated":3283,"Ġcopy":3284,"Ġspokes":3285,"Ġmac":3286,"Ġdollar":3287,"Ġstrategic":3288,"lies":3289,"oss":3290,"Ġund":3291,"Ġmer":3292,"99":3293,"Ġaccept":3294,"Ġjud":3295,"Ġtrend":3296,"ban":3297,"Ġmobile":3298,"Ġtraining":3299,"Ġec":3300,"Ġexplo":3301,"Ġsepar":3302,"agr":3303,"Ġcenters":3304,"Ġpasseng":3305,"ament":3306,"Ġlaws":3307,"Ġafp":3308,"Ġmeaning":3309,"Ġbeginning":3310,"Ġpfizer":3311,"Ġchann":3312,"Ġreduced":3313,"rought":3314,"Ġpath":3315,"Ġvote":3316,"Ġprospect":3317,"Ġorders":3318,"Ġprinc":3319,"acing":3320,"Ġnoted":3321,"Ġworks":3322,"aming":3323,"Ġgross":3324,"Ġitems":3325,"bor":3326,"Ġreli":3327,"Ġstimulus":3328,"Ġaid":3329,"imes":3330,"ha":3331,"Ġinstr":3332,"Ġcomprehens":3333,"ado":3334,"Ġdelay":3335,"rain":3336,"Ġ2016":3337,"uit":3338,"Ġwear":3339,"istry":3340,"ension":3341,"Ġhighly":3342,"Ġdied":3343,"Ġlt":3344,"Ġcreated":3345,"Ġparts":3346,"Ġmanufacture":3347,"prise":3348,"Ġforced":3349,"Ġseem":3350,"Ġfacility":3351,"Ġscale":3352,"Ġnotes":3353,"Ġeval":3354,"Ġciv":3355,"Ġplant":3356,"Ġsecretary":3357,"acific":3358,"lin":3359,"Ġcore":3360,"hib":3361,"Ġsignificantly":3362,"hood":3363,"Ġexclud":3364,"Ġexpects":3365,"vant":3366,"uted":3367,"Ġrelief":3368,"Ġpain":3369,"Ġinitial":3370,"Ġjump":3371,"ene":3372,"ills":3373,"Ġmarketing":3374,"28":3375,"Ġbehav":3376,"ges":3377,"hy":3378,"Ġvice":3379,"Ġdocument":3380,"Ġcross":3381,"Ġpartner":3382,"loc":3383,"Ġsens":3384,"Ġpayment":3385,"Ġfield":3386,"Ġdetails":3387,"Ġcomprehensive":3388,"Ġdoub":3389,"Ġsuper":3390,"Ġic":3391,"Ġregular":3392,"Ġrunning":3393,"Ġhelped":3394,"Ġparticipants":3395,"Ġregarding":3396,"Ġdecisions":3397,"Ġexpos":3398,"Ø±":3399,"Ġachieve":3400,"Ġextra":3401,"Ġdirectly":3402,"Ġinnovation":3403,"Ġcitiz":3404,"Ġassociation":3405,"rew":3406,"Ġphil":3407,"ese":3408,"Ġmex":3409,"Ġmoving":3410,"Ġwhose":3411,"Ġchance":3412,"Ġnecessary":3413,"Ġphysical":3414,"Ġsubsid":3415,"bn":3416,"ensive":3417,"isl":3418,"Ġdeveloping":3419,"Ġenvironmental":3420,"Ġprobably":3421,"Ġii":3422,"Ġacquisition":3423,"Ġcard":3424,"Ġisol":3425,"Ġthought":3426,"Ġregional":3427,"Ġmax":3428,"Ġsports":3429,"ilt":3430,"Ġplanning":3431,"Ġminim":3432,"Ġhousehold":3433,"Ġinvestig":3434,"cont":3435,"Ġdest":3436,"Ġprofessor":3437,"Ġdemocratic":3438,"Ġcalls":3439,"Ġparents":3440,"Ġpredict":3441,"Ġcorporation":3442,"Ġscenar":3443,"odies":3444,"Ġstress":3445,"ball":3446,"Ġhistoric":3447,"mark":3448,"Ġconc":3449,"idered":3450,"Ġrestaurants":3451,"Ġsurv":3452,"casts":3453,"Ġediting":3454,"cle":3455,"Ġmeanwhile":3456,"Ġnav":3457,"Ġbody":3458,"Ġsick":3459,"rench":3460,"Ġconsidered":3461,"Ġ45":3462,"Ġmach":3463,"Ġstage":3464,"Ġflu":3465,"Ġey":3466,"Ġshar":3467,"elines":3468,"leg":3469,"Ġaward":3470,"37":3471,"Ġrecommend":3472,"Ġheav":3473,"Ġoffers":3474,"Ġpotentially":3475,"Ġconsolidated":3476,"Ġtreas":3477,"Ġsolution":3478,"Ġscientists":3479,"ĠÃ":3480,"Ġcat":3481,"Ġpaper":3482,"Ġhelping":3483,"ided":3484,"empt":3485,"Ġapple":3486,"ancy":3487,"place":3488,"Ġsources":3489,"Ġansw":3490,");":3491,"Ġraised":3492,"Ġstrategies":3493,"Ġbrief":3494,"Ġreve":3495,"Ġprimary":3496,"Ġemerging":3497,"Ġsociety":3498,"body":3499,"makers":3500,"36":3501,"Ġms":3502,"Ġcritic":3503,"Ġ'',":3504,"used":3505,"Ġfda":3506,"Ġtext":3507,"Ġchairman":3508,"Ġdesigned":3509,"Ġseat":3510,"Ġcateg":3511,"90":3512,"Ġlaunched":3513,"Ġtexas":3514,"Ġeth":3515,"Ġconsist":3516,"ze":3517,"Ġnovel":3518,"95":3519,"Ġdonald":3520,"Ġbecame":3521,"Ġbrought":3522,"rences":3523,"Ġrecorded":3524,"Ġapproved":3525,"Ġworst":3526,"Ġtro":3527,"Ġwindow":3528,"bed":3529,"undred":3530,"mitted":3531,"Ġwarned":3532,"Ġhur":3533,"ife":3534,"Ġmilitary":3535,"Ġattack":3536,"Ġfigures":3537,"Ġphone":3538,"Ġlegisl":3539,"Ġprivacy":3540,"Ġjohn":3541,"amm":3542,"Ġmanager":3543,"Ġoccur":3544,"Ġnations":3545,"Ġsustainable":3546,"Ġinternet":3547,"wa":3548,"uments":3549,"Ġrad":3550,"ijing":3551,"Ġcompetitive":3552,"olution":3553,"Ġvo":3554,"Ġconstruction":3555,"Ġrequirements":3556,"Ġconcern":3557,"Ġcivil":3558,"news":3559,"Ġopin":3560,"Ġtowards":3561,"Ġdil":3562,"Ġeasy":3563,"Ġactual":3564,"istered":3565,"ledge":3566,"ani":3567,"Ġfire":3568,"Ġspot":3569,"Ġcorp":3570,"Ġnor":3571,"Ġdiseases":3572,"duced":3573,"Ġimmune":3574,"ino":3575,"quar":3576,"Ġdirectors":3577,"Ġactions":3578,"Ġking":3579,"Ġaccounts":3580,"Ġsched":3581,"ule":3582,"Ġschedul":3583,"Ġsale":3584,"Ġowners":3585,"ask":3586,"Ġstandard":3587,"ery":3588,"46":3589,"Ġhundred":3590,"Ġarch":3591,"Ġdivision":3592,"Ġorigin":3593,"Ġhands":3594,"Ġextreme":3595,"Ġdriven":3596,"Ġdose":3597,"key":3598,"77":3599,"asons":3600,"Ġwel":3601,"home":3602,"Ġapplications":3603,"encies":3604,"Ġgoal":3605,"Ġapproval":3606,"Ġlargely":3607,"Ġgi":3608,"Ġarm":3609,"Ġworked":3610,"jected":3611,"uff":3612,"aled":3613,"Ġcrude":3614,"Ġdividend":3615,"Ġaltern":3616,"Ġcouncil":3617,"Ġanim":3618,"Ġprimarily":3619,"Ġspeed":3620,"Ġblood":3621,"Ġhappen":3622,"Ġsqu":3623,"Ġnature":3624,"Ġbudget":3625,"Ġheart":3626,"Ġgather":3627,"Ġjoe":3628,"38":3629,"soft":3630,"Ġleadership":3631,"Ġexerc":3632,"Ġdevices":3633,"Ġprote":3634,"wise":3635,"lied":3636,"iff":3637,"Ġdemocrats":3638,"hi":3639,"Ġkorea":3640,"Ġcdc":3641,"Ġbeijing":3642,"Ġsun":3643,"Ġ38":3644,"Ġeight":3645,"Ġmental":3646,"Ġtit":3647,"rael":3648,"Ġreopen":3649,"Ġgoods":3650,"Ġcounty":3651,"Ġobl":3652,"2020":3653,"Ġinfectious":3654,"Ġfrench":3655,"aches":3656,"ought":3657,"Ġ>":3658,"arch":3659,"Ġmaterials":3660,"Ġcancer":3661,"Ġreopening":3662,"Ġreserve":3663,"Ġmaintain":3664,"Ġsteps":3665,"Ġchanged":3666,"Ġitself":3667,"ences":3668,"iment":3669,"Ġrecover":3670,"2019":3671,"Ġdavid":3672,"ounder":3673,"34":3674,"Ġgrad":3675,"inks":3676,"Ġidentify":3677,"Ġ34":3678,"covid":3679,"Ġadvice":3680,"Ġleague":3681,"Ġeditor":3682,"Ġtraditional":3683,"ael":3684,"Ġfit":3685,"Ġsectors":3686,"Ġready":3687,"utical":3688,"Ġroom":3689,"Ġmix":3690,"ford":3691,"Ġinvent":3692,"Ġweak":3693,"yal":3694,"Ġlic":3695,"Ġlove":3696,"Ġfacing":3697,"Ġltd":3698,"Ġidentified":3699,"ites":3700,"Ġdelta":3701,"ĠâĢ¢":3702,"Ġannouncement":3703,"ara":3704,"Ġpict":3705,"Ġpractices":3706,"Ġprincip":3707,"Ġpositions":3708,"Ġactive":3709,"erous":3710,"Ġgrant":3711,"aceutical":3712,"Ġcomplex":3713,"Ġplanned":3714,"Ġpropos":3715,"Ġflex":3716,"Ġflor":3717,"acter":3718,"Ġdefin":3719,"Ġbritain":3720,"Ġspend":3721,"Ġpoll":3722,"Ġdisco":3723,"Ġadvant":3724,"Ġvolume":3725,"Ġrenew":3726,"Ġnine":3727,"Ġministry":3728,"Ġ39":3729,"ek":3730,".)":3731,"Ġsomeone":3732,"Ġengage":3733,"Ġdeploy":3734,"apt":3735,"icians":3736,"Ġmigr":3737,"Ġran":3738,"Ġshown":3739,"Ġqual":3740,"Ġlockdowns":3741,"Ġuns":3742,"Ø©":3743,"Ġenh":3744,"Ġreached":3745,"za":3746,"Ġcomput":3747,"Ġanything":3748,"Ġolder":3749,"Ġrespir":3750,"Ġplaces":3751,"Ġunpre":3752,"Ġrepublican":3753,"alled":3754,"Ġborder":3755,"Ġcopyright":3756,"Ġmodels":3757,"Ġfollowed":3758,"Ġsenate":3759,"Ġrich":3760,"Ġ37":3761,"ivered":3762,"Ġscr":3763,"Ġdecrease":3764,"Ġborrow":3765,"Ġisrael":3766,"Ġcitizens":3767,"Ġele":3768,"Ġsurf":3769,"cape":3770,"ana":3771,"Ġmind":3772,"Ġenjo":3773,"Ġcurrency":3774,"Ġairport":3775,"perform":3776,"Ġemp":3777,"Ġfavor":3778,"Ġtraff":3779,"Ġvulnerable":3780,"Ġcrow":3781,"Ġholdings":3782,"Ġcollege":3783,"Ġtaxes":3784,"Ġdeclined":3785,"Ġnov":3786,"Ġcomments":3787,"cription":3788,"39":3789,"Ġthanks":3790,"Ġtemper":3791,"Ġbloom":3792,"Ġinvolved":3793,"unt":3794,"Ġcondition":3795,"Ġamoun":3796,"Ġdecades":3797,"ws":3798,"Ġlines":3799,"Ġagre":3800,"Ġneigh":3801,"ĠØ§ÙĦØ":3802,"Ġmut":3803,"Ġseems":3804,"Ġforecasts":3805,"ox":3806,"Ġdelivered":3807,"Ġtakes":3808,"Ġfix":3809,"Ġmission":3810,"Ġpurchase":3811,"65":3812,"Ġcele":3813,"Ġestimate":3814,"Ġpal":3815,"yl":3816,"Ġgmt":3817,"ster":3818,"Ġtransition":3819,"Ġconsid":3820,"Ġnort":3821,"icing":3822,"200":3823,"Ġunlike":3824,"Ġles":3825,"Ġbanking":3826,"Ġpackage":3827,"Ġprepared":3828,"Ġjoin":3829,"Ð»":3830,"Ġcells":3831,"Ġincreasingly":3832,"Ġtrillion":3833,"Ġpromot":3834,"Ġyes":3835,"Ġcompetition":3836,"cedented":3837,"Ġproceed":3838,"oph":3839,"Ġfriends":3840,"Ġmicrosoft":3841,"Ġliabilities":3842,"Ġadvanced":3843,"month":3844,"Ġdescribed":3845,"imin":3846,"Ġcarbon":3847,"Ġattract":3848,"Ġcontinuing":3849,"Ġunprecedented":3850,"ashion":3851,"Ġwww":3852,"Ġtouch":3853,"ological":3854,"Ġafrican":3855,"Ġoption":3856,"Ġstandards":3857,"Ġadvert":3858,"Ġwanted":3859,"Ġcelebr":3860,"Ġregions":3861,"df":3862,"Ġproviders":3863,"Ġattention":3864,"play":3865,"Ġjoint":3866,"Ġunit":3867,"Ġstake":3868,"Ġ75":3869,"apore":3870,"gi":3871,"Ġquite":3872,"Ġcalcul":3873,"Ġtrue":3874,"Ġtalk":3875,"Ġpret":3876,"iet":3877,"lear":3878,"Ġupon":3879,"Ġ{":3880,"Ġball":3881,"85":3882,"Ġdouble":3883,"Ġgenerally":3884,"Ġtoll":3885,"Ġinstitutions":3886,"Ġdie":3887,"Ġcompens":3888,"Ġshot":3889,"Ġ}":3890,"Ġlands":3891,"Ġplatforms":3892,"Ġprevention":3893,"iants":3894,"pose":3895,"etary":3896,"Ġrecon":3897,"Ġzero":3898,"works":3899,"Ġdow":3900,"Ġzo":3901,"Ġpush":3902,"Ġemissions":3903,"Ġfeatures":3904,"Ġbelieves":3905,"Ġaren":3906,"Ġfinancing":3907,"Ġalone":3908,"Ġadults":3909,"Ġhon":3910,"Ġexpans":3911,"Ġillness":3912,"ream":3913,"Ġrough":3914,"Ġresil":3915,"Ġliquidity":3916,"Ġfeed":3917,"Ġincreases":3918,"Ġhousing":3919,"Ġdiversity":3920,"cor":3921,"Ġ2015":3922,"Ġjustice":3923,"Ġlinked":3924,"Ġmexico":3925,"Ġuncertainties":3926,"house":3927,"Ġspent":3928,"Ġbuilt":3929,"Ġdetect":3930,"urity":3931,"Ġsuccessful":3932,"Ġobject":3933,"Ġfiled":3934,"Ġflorida":3935,"Ġthank":3936,"Ġfoundation":3937,"quarter":3938,"Ġweekend":3939,"Ġreduction":3940,"Ġforces":3941,"Ã³n":3942,"Ġanyone":3943,"Ġshared":3944,"Ġcnbc":3945,"Ġclick":3946,"Ġ33":3947,"Ġpip":3948,"Ġpubmed":3949,"Ġfat":3950,"fl":3951,"Ġpark":3952,"Ġwealth":3953,"Ġsupplies":3954,"Ġbott":3955,"Ġexposure":3956,"ropri":3957,"Ġask":3958,"Ġcoal":3959,"aven":3960,"ng":3961,"Ġscopus":3962,"Ġattend":3963,"lymp":3964,"Ġapart":3965,"Ġversion":3966,"Ġdollars":3967,"Ġmedicine":3968,"Ġdropped":3969,"Ġ=":3970,"Ġlas":3971,"Ġholding":3972,"Ġdriving":3973,"47":3974,"oke":3975,"Ġcentre":3976,"ba":3977,"Ġevalu":3978,"Ġanalyt":3979,"Ġemployee":3980,"iver":3981,"Ġviolence":3982,"Ġange":3983,"Ġnom":3984,"Ġkeeping":3985,"Ġgiving":3986,"Ġmovement":3987,"Ġconfidence":3988,"Ġil":3989,"standing":3990,"Ġsex":3991,"Ġtwe":3992,"inations":3993,"Ġdang":3994,"Ġparties":3995,"Ġdip":3996,"Ġimpacted":3997,"Ġplus":3998,"Ġult":3999,"48":4000,"Ġrespectively":4001,"Ġ32":4002,"Ġbloomberg":4003,"pon":4004,"Ġtreasury":4005,"Ġsigns":4006,"Ġolymp":4007,"49":4008,"Ġdeg":4009,"Ġfashion":4010,"Ġselling":4011,"resh":4012,"Ġprotests":4013,"Ġcanadian":4014,"illing":4015,"Ġunivers":4016,"Ġlay":4017,"Ġsingapore":4018,"Ġstatus":4019,"ags":4020,"Ġletter":4021,"Ġguidelines":4022,"Ġtom":4023,"Ġbuying":4024,"Ġphotos":4025,"Ġhotel":4026,"Ġstories":4027,"bert":4028,"Ġreasons":4029,"Ġexclus":4030,"Ġsubstant":4031,"ref":4032,"oti":4033,"Ġnothing":4034,"Ġsecure":4035,"Ġseek":4036,"Ġcommitted":4037,"Ġattacks":4038,"Ġdrivers":4039,"Ġimmediately":4040,"ston":4041,"Ġcompon":4042,"Ġbst":4043,"Ġmessage":4044,"Ġchamp":4045,"Ġconserv":4046,"bi":4047,"Ġreform":4048,"Ġhundreds":4049,"ibly":4050,"Ġappo":4051,"Ġrussian":4052,"Ġdoctors":4053,"log":4054,"Ġglobally":4055,"Ġquarterly":4056,"Ġsmaller":4057,"Ġtypically":4058,"ev":4059,"Ġinvesting":4060,"itch":4061,"tered":4062,"Ġlarger":4063,"Ġbir":4064,"ronic":4065,"Ġdisclos":4066,"Ġaustralian":4067,"dp":4068,"Ġunderstanding":4069,"Ġarab":4070,"31":4071,"ighted":4072,"Ġ65":4073,"Ġretailers":4074,"Ġpeak":4075,"Ġ48":4076,"Ġclim":4077,"Ġmassive":4078,"Ġgeneration":4079,"ya":4080,"Ġnurs":4081,"Ġwearing":4082,"Ġsubscribe":4083,"Ġcreating":4084,"Ġmichael":4085,"Ġestate":4086,"Ġpractice":4087,"Ġadvance":4088,"Ġpurs":4089,"Ġ55":4090,"Ġagreed":4091,"Ġones":4092,"idge":4093,"att":4094,"Ġfunction":4095,"Ġchanging":4096,"Ġnyse":4097,"Ġrelevant":4098,"Ġeconomies":4099,"Ġclosing":4100,"Ġsav":4101,"zer":4102,"ously":4103,"66":4104,"Ġtown":4105,"Ġdecided":4106,"05":4107,"Ġafford":4108,"Ġregister":4109,"Ġid":4110,"Ġgeograp":4111,"Ġha":4112,"Ġpremium":4113,"Ġvolat":4114,"Ġinside":4115,"Ġopening":4116,"Ġrapidly":4117,"Ġconsequ":4118,"yle":4119,"Ġtherefore":4120,"Ġproposed":4121,"Ġcents":4122,"commer":4123,"Ġmoved":4124,"Ġgrand":4125,"commerce":4126,"Ġraise":4127,"arant":4128,"Ġoffered":4129,"Ġson":4130,"Ġmoderna":4131,"Ġ<":4132,"Ġaccur":4133,"ensus":4134,"ounds":4135,"Ġvehicles":4136,"Ġpharmaceutical":4137,"Ġfelt":4138,"usion":4139,"ifying":4140,"Ġholiday":4141,"Ġleaving":4142,"igate":4143,"son":4144,"Ġhealthy":4145,"know":4146,"Ġbarrel":4147,"Ġshif":4148,"Ġoriginal":4149,"Ġmonitoring":4150,"Ġfutures":4151,"Ġfees":4152,"oring":4153,"Ġfal":4154,"Ġdecade":4155,"Ġho":4156,"Ġthinking":4157,"Ġcreat":4158,"Ġshowing":4159,"Ġuser":4160,"Ġspain":4161,"Ġukrain":4162,"Ġmention":4163,"Ġpoor":4164,"Ġteac":4165,"Ġcombination":4166,"Ġaccounting":4167,"Ġregulations":4168,"Ġrespiratory":4169,"Ġprofession":4170,"lled":4171,"Ġrepe":4172,"Ġple":4173,"exp":4174,"Ġsimply":4175,"Ġunits":4176,"Ġcouple":4177,"ona":4178,"Ġunique":4179,"phone":4180,"Ġimpacts":4181,"Ġprofessional":4182,"Ġsort":4183,"Ġweekly":4184,"Ġwords":4185,"Ġtraffic":4186,"Ġlooks":4187,"Ġculture":4188,"Ġobt":4189,"Ġsection":4190,"Ġmodern":4191,"ago":4192,"Ġoperational":4193,"Ġproduce":4194,"Ġsuggests":4195,"itors":4196,"Ġoppos":4197,"vious":4198,"Ġkids":4199,"Ġgovernor":4200,"Ġexpansion":4201,"Ġchains":4202,"iveness":4203,"aves":4204,"angu":4205,"Ġpod":4206,"Ġmanaging":4207,"Ġbasic":4208,"Ġok":4209,"Ġflights":4210,"Ġsolid":4211,"Ġcuts":4212,"rep":4213,"Ġfinally":4214,"Ġcook":4215,"Ġdifference":4216,"Ġgoals":4217,"Ġreality":4218,"Ġdur":4219,"no":4220,"Ùģ":4221,"Ġpopul":4222,"Ġasian":4223,"Ġslight":4224,"Ġexperienced":4225,"Ġworkforce":4226,"Ġpace":4227,"Ġemployment":4228,"ham":4229,"pective":4230,"comes":4231,"Ġratio":4232,"Ġcombined":4233,"Ġobvious":4234,"Ġreturns":4235,"ush":4236,"Ġincl":4237,"Øª":4238,"Ġmur":4239,"bur":4240,"Ġprocesses":4241,"Ġwestern":4242,"Ġprovider":4243,"abet":4244,"tic":4245,"Ġamb":4246,"ypt":4247,"Ġrelatively":4248,"health":4249,"dom":4250,"Ġcounter":4251,"Ġcapt":4252,"iency":4253,"Ġmaybe":4254,"haps":4255,"Ġbreat":4256,"erred":4257,"Ġscheduled":4258,"Ġchem":4259,"Ġspike":4260,"pread":4261,"Ġfaster":4262,"Ġ95":4263,"Ġrein":4264,"ny":4265,"Ġsett":4266,"Ġotherwise":4267,"Ġ44":4268,"Ġshopping":4269,"Ġbecoming":4270,"icient":4271,"Ġcro":4272,"Ġreturned":4273,"rect":4274,"Ġcollaboration":4275,"arters":4276,"Ġded":4277,"vent":4278,"Ġextended":4279,"Ġvoters":4280,"Ġdepend":4281,"Ġfilm":4282,"Ġventil":4283,"word":4284,"Ġadvantage":4285,"Ġhor":4286,"Ġrequires":4287,"Ġallows":4288,"Ġcru":4289,"Ġturned":4290,"Ġconstit":4291,"Ġroughly":4292,"kyo":4293,"ibute":4294,"Ġfears":4295,"Ġappropri":4296,"Ġrecession":4297,"Ġcircum":4298,"Ġworse":4299,"Ġdyn":4300,"Ġprec":4301,"Ġperhaps":4302,"Ġusually":4303,"67":4304,"Ġcyber":4305,"Ġpredic":4306,"gu":4307,"Ġweather":4308,"Ġguarant":4309,"Ġwriting":4310,"Ġguard":4311,"Ġfrequ":4312,"Ġacknow":4313,"astic":4314,"ada":4315,"Ġemployers":4316,"Ġwants":4317,"500":4318,"Ġadverse":4319,"Ġscientific":4320,"Ġdut":4321,"Ġgaap":4322,"Ġexact":4323,"amples":4324,"mes":4325,"Ġmusic":4326,"Ġtokyo":4327,"Ġtalks":4328,"Ġoffset":4329,"Ġacad":4330,"omatic":4331,"Ġminutes":4332,"Ġfresh":4333,"Ġ300":4334,"Ġwild":4335,"Ġtight":4336,"Ġmother":4337,"Ġstudent":4338,"Ġfort":4339,"Ġappears":4340,"lia":4341,"Ġmeant":4342,"Ġbed":4343,"Ġdevelopments":4344,"era":4345,"Ġantibody":4346,"Ġdrugs":4347,"Ġepidemic":4348,"Ġvoting":4349,"Ġcharges":4350,"Ġnar":4351,"Ġseeking":4352,"letter":4353,"Ġcaption":4354,"Ġmanagers":4355,"Ġgoes":4356,"Ġtransaction":4357,"Ġtransportation":4358,"Ġindian":4359,"Ġframe":4360,"ses":4361,"Ġstrength":4362,"×Ļ":4363,"Ġjones":4364,"Ġinitiatives":4365,"Ġequival":4366,"iÃ³n":4367,"Ġimproved":4368,"Ġremained":4369,"Ġcovered":4370,"iam":4371,"Ġfans":4372,"part":4373,"iles":4374,"Ġtemporary":4375,"Ġexercise":4376,"Ġcompensation":4377,"lor":4378,"Ġattempt":4379,"liers":4380,"Ġconsidering":4381,"Ġrule":4382,"ups":4383,"Ġsend":4384,"Ġrare":4385,"Ġzacks":4386,"Ġinternal":4387,"Ġserve":4388,"Ġnegoti":4389,"umes":4390,"Ġwu":4391,"Ġgerman":4392,"Ġfranc":4393,"Ġconducted":4394,"Ġrepresenting":4395,"Ġhyp":4396,"Ġdraw":4397,"Ġobser":4398,"izes":4399,"Ġposted":4400,"bl":4401,"Ġtypes":4402,"liance":4403,"Ġsave":4404,"Ġgone":4405,"Ġspring":4406,"cks":4407,"enec":4408,"cross":4409,"Ġtourism":4410,"87":4411,"Ġpage":4412,"omes":4413,"Ġrepublicans":4414,"89":4415,"Ġtv":4416,"Ġbeat":4417,"Ġmel":4418,"inform":4419,"Ġchannel":4420,"69":4421,"Ġprompt":4422,"Ġber":4423,"Ġoutcomes":4424,"Ġvend":4425,"Ġcapabilities":4426,"Ġrally":4427,"Ġexam":4428,"Ġanalytics":4429,"Ġrebound":4430,"bre":4431,"Ġton":4432,"55":4433,"illed":4434,"prof":4435,"Ġcert":4436,"Ġsaud":4437,"Ġtens":4438,"Ġoriginally":4439,"Ġparis":4440,"Ġantibodies":4441,"Ġastr":4442,"Ġze":4443,"Ġpresented":4444,"bour":4445,"Ġbench":4446,"Ġnewsletter":4447,"cell":4448,"Ġfewer":4449,"Ġprotoc":4450,"Ġwinter":4451,"Ġdamage":4452,"Ġuses":4453,"Ġallowing":4454,"ker":4455,"Ġquant":4456,"iat":4457,"mas":4458,"Ġwat":4459,"Ġcircumst":4460,"Ġdynam":4461,"Ġfriend":4462,"Ġfreed":4463,"Ġsubsidi":4464,"Ġfarm":4465,"Ġalle":4466,"Ġcoop":4467,"Ġcertainly":4468,"fo":4469,"Ġsimple":4470,"Ġsupporting":4471,"Ġsud":4472,"Ġlandscape":4473,"Ġoverse":4474,"uations":4475,"Ġwasn":4476,"Ġcontained":4477,"Ġpicture":4478,"):":4479,"chan":4480,"Ġviral":4481,"Ġbonds":4482,"Ġscenario":4483,"Ġmanaged":4484,"Ġpaul":4485,"Ġenterprise":4486,"Ġcharge":4487,"Ġtechnical":4488,"Ġeur":4489,"Ġurg":4490,"Ġfaced":4491,"ÙĤ":4492,"Ġstrengthe":4493,"Ġsustainability":4494,"Ġlatin":4495,"Ġire":4496,"urch":4497,"Ġdownload":4498,"nel":4499,"Ġwait":4500,"Ġchallenging":4501,"32":4502,"Ġiran":4503,"Ġdepos":4504,"Ġvan":4505,"Ġairline":4506,"Ġisland":4507,"Ġcompleted":4508,"Ġpriority":4509,"eing":4510,"Ġcontracts":4511,"Ġminor":4512,"Ġthousand":4513,"Ġstruct":4514,"Ġhelps":4515,"Ġcommunications":4516,"Ġenable":4517,"mo":4518,"Ġdistrict":4519,"Ġkilled":4520,"Ġalloc":4521,"Ġpurpose":4522,"osis":4523,"Ġpassengers":4524,"iate":4525,"Ġmov":4526,"Ġversus":4527,"crossref":4528,"agues":4529,"Ġdu":4530,"Ġentertain":4531,"Ġgave":4532,"Ġtargets":4533,"bus":4534,"Ġsearch":4535,"Ġsigned":4536,"Ġalternative":4537,"Ġalex":4538,"reaks":4539,"Ġcruc":4540,"Ġtransactions":4541,"wire":4542,"Ġglobe":4543,"Ġputting":4544,"Ġenjoy":4545,"Ġhide":4546,"Ġmostly":4547,"Ġprofessionals":4548,"Ġsand":4549,"pass":4550,"Ġevol":4551,"Ġconcerned":4552,"Ġgained":4553,"Ġsuppliers":4554,"Ġvehicle":4555,"Ġgives":4556,"ground":4557,"Ġpricing":4558,"Ġunderlying":4559,"Ġdisapp":4560,"otech":4561,"Ġ''.":4562,"Ġknowledge":4563,"Ġrid":4564,"Ġcomplic":4565,"ression":4566,"Ġoutbreaks":4567,"Ġprogramme":4568,"Ġmanufacturers":4569,"Ġretire":4570,"iled":4571,"Ġwoman":4572,"Ġofficers":4573,"Ġcandidates":4574,"Ġexport":4575,"Ġgiant":4576,"Ġcommunication":4577,"portion":4578,"eed":4579,"Ġfindings":4580,"Ġhopes":4581,"Ġfailure":4582,"Ġsaudi":4583,"Ġ41":4584,"Ġven":4585,"ding":4586,"Ġpie":4587,"hern":4588,"Ġ49":4589,"Ġcalling":4590,"Ġstruggling":4591,"Ġremember":4592,"Ġviews":4593,"Ġimmigr":4594,"cers":4595,"ops":4596,"iences":4597,"Ġcarr":4598,"Ġcast":4599,"Ġamounts":4600,"Ġcommitment":4601,"Ġreducing":4602,"Ġstrict":4603,"Ġbringing":4604,"west":4605,"field":4606,"Ġwidely":4607,"ros":4608,"ych":4609,"ading":4610,"ilit":4611,"Ġcircumstances":4612,"Ã§":4613,"tw":4614,"ctions":4615,"Ġskills":4616,"Ġhappened":4617,"Ġpassed":4618,"Ġ47":4619,"Ġcareer":4620,"Ġireland":4621,"Ġexposed":4622,"Ġproced":4623,"Ġmaxim":4624,"Ġcolor":4625,"Ġpresidential":4626,"Ġcomfort":4627,"Ġoffices":4628,"Ġexpressed":4629,"ech":4630,"Ġoperation":4631,"Ġfle":4632,"Ġcollection":4633,"Ġpretty":4634,"Ġcu":4635,"Ġupdates":4636,"Ġsupported":4637,"Ġassistance":4638,"lands":4639,"Ġlocations":4640,"coming":4641,"wan":4642,"Ġsometimes":4643,"Ø¯":4644,"Ġhaven":4645,"eria":4646,"Ġoperate":4647,"Ġeconomists":4648,"Ġfinding":4649,"Ġpic":4650,"ishing":4651,"Ġperman":4652,"Ġinterests":4653,"more":4654,"itable":4655,"Ġbox":4656,"Ġarrest":4657,"Ġimprovement":4658,"Ġclub":4659,"Ġagencies":4660,"des":4661,"Ġ42":4662,"point":4663,"Ġspreading":4664,"Ġopinion":4665,"uing":4666,"Ġadapt":4667,"Ġzoom":4668,"Ġprotective":4669,"Ġtool":4670,"Ñĥ":4671,"Ġanticipated":4672,"Ġflight":4673,"Ġdecreased":4674,"Ġwritten":4675,"liament":4676,"Ġoutput":4677,"Ġstor":4678,"Ġtransformation":4679,"Ġ46":4680,"Ġdoz":4681,"Ġmad":4682,"ola":4683,"Ġmatch":4684,"orders":4685,"Ġnorthern":4686,"Ġregistered":4687,"Ġaccessed":4688,"Ġcontributed":4689,"Ġestablish":4690,"Ġnetworks":4691,"Ġstructure":4692,"ÐµÐ":4693,"Ġappeared":4694,"Ġvariants":4695,"Ġunless":4696,"Ġgdp":4697,"ipp":4698,"airs":4699,"Ġeffectively":4700,"Ġtrig":4701,"Ġukraine":4702,"Ġcompl":4703,"vide":4704,"Ġwides":4705,"inted":4706,"Ġconfirm":4707,"Ġmortg":4708,"ester":4709,"iar":4710,"Ġwrong":4711,"omb":4712,"Ġchoice":4713,"oo":4714,"Ġamort":4715,"Ġassessment":4716,"Ġoperator":4717,"Ġattribut":4718,"Ġcharacter":4719,"Ġcandidate":4720,"Ġlegislation":4721,"Ġeconomist":4722,"Ġscheme":4723,"Ġswe":4724,"Ġparliament":4725,"Ġlogistics":4726,"Ġlangu":4727,"Ġ43":4728,"Ġwidespread":4729,"Ġrestaurant":4730,"Ġrent":4731,"400":4732,"anta":4733,"Ġlux":4734,"Ġdomin":4735,"Ġclearly":4736,"Ġken":4737,"band":4738,"Ġinitiative":4739,"craft":4740,"iction":4741,"Ġindo":4742,"Ġsport":4743,"ded":4744,"Ġelig":4745,"Ġhear":4746,"rupt":4747,"Ġperspective":4748,"Ġjapanese":4749,"unch":4750,"amb":4751,"Ġbreakdown":4752,"Ġrs":4753,"Ġgrew":4754,"Ġconte":4755,"Ġtalking":4756,"Ġsequ":4757,"ata":4758,"Ġcode":4759,"Ġestablished":4760,"Ġwuhan":4761,"86":4762,"Ġinvestigation":4763,"Ġaffecting":4764,"Ġfailed":4765,"Ġjames":4766,"Ġmechan":4767,"Ġprotein":4768,"Ġneut":4769,"Ġpil":4770,"Ġauthors":4771,"Ġgets":4772,"arian":4773,"Ġresulting":4774,"Ġenforce":4775,"Ġdiluted":4776,"Ġsynd":4777,"Ġimmediate":4778,"ica":4779,"Ġblue":4780,"thern":4781,"Ġcompliance":4782,"Ġtranspa":4783,"Ġgar":4784,"Ġplaying":4785,"Ġincor":4786,"Ġresponses":4787,"Ġwire":4788,"Ġtherapy":4789,"2027":4790,"Ġclosely":4791,"Ġrepresents":4792,"Ġimmunity":4793,"Ġshel":4794,"Ġhub":4795,"Ġtemperature":4796,"Ñĭ":4797,"Ġorganis":4798,"Ġroyal":4799,"Ġconsumption":4800,"ught":4801,"Ġslightly":4802,"Ġinventory":4803,"Ġfraud":4804,"Ġmonthly":4805,"Ġdoctor":4806,"Ġcrucial":4807,"Ġpresentation":4808,"Ġeg":4809,"Ġsouthern":4810,"uses":4811,"================================":4812,"Ġclot":4813,"ees":4814,"................................":4815,"Ġexecutives":4816,"Ġimportance":4817,"Ġauthority":4818,"Ġandrew":4819,"Ġimproving":4820,"Ġanswer":4821,"kets":4822,"olute":4823,"Ġetf":4824,"43":4825,"Ġdeals":4826,"Ġregistr":4827,"Ġwrite":4828,"Ġ2014":4829,"uci":4830,"Ġproduced":4831,"Ġhappening":4832,"Ġappropriate":4833,"Ġchap":4834,"Ġeye":4835,"×ķ":4836,"Ġcoast":4837,"urning":4838,"Ġplayed":4839,"Ġconfident":4840,"Ġinj":4841,"Ġunable":4842,"Ġdram":4843,"Ġbroader":4844,"Ġtweet":4845,"Ġprojected":4846,"Ġcommod":4847,"Ġstorage":4848,"Ġutil":4849,"Ġcab":4850,"Ġunf":4851,"well":4852,"aded":4853,"Ġts":4854,"Ġtopics":4855,"Ġvolumes":4856,"riers":4857,"Ġbiotech":4858,"Ġinstance":4859,"ga":4860,"Ġspeaking":4861,"Ġox":4862,"ĠâĢ¦":4863,"Ġresponsibility":4864,"Ġdefined":4865,"here":4866,"Ġusa":4867,"ptions":4868,"Ġultimately":4869,"otive":4870,"Ġproperties":4871,"Ġusd":4872,"erve":4873,"ault":4874,"erly":4875,"Ġmaterially":4876,"Ġefficacy":4877,"Ġideas":4878,"resp":4879,"Ġbehavior":4880,"Ġmainly":4881,"Ġsegments":4882,"Ġmart":4883,"argo":4884,"Ġdetailed":4885,"Ġconsensus":4886,"Ġstra":4887,"Ġadvoc":4888,"Ġspect":4889,"Ġawa":4890,"Ġ600":4891,"oles":4892,"Ġgir":4893,"Ġfundament":4894,"Ġnhs":4895,"Ġrobust":4896,"Ġresident":4897,"Ġcoord":4898,"Ġpsych":4899,"Ġmonetary":4900,"orter":4901,"eneca":4902,"Ġtes":4903,"Ġdisruption":4904,"Ġnotice":4905,"dule":4906,"ken":4907,"Ġfalse":4908,"Ġfootball":4909,"Ġconstant":4910,"Ġinsp":4911,"Ġconversation":4912,"Ġprocessing":4913,"Ġsheet":4914,"Ġcars":4915,"orge":4916,"Ð°Ð":4917,"Ġwilling":4918,"Ġath":4919,"Ġsavings":4920,"eut":4921,"Ġease":4922,"Ġinstitution":4923,"room":4924,"Ġefficient":4925,"Ġvalues":4926,"Ġtransfer":4927,"Ġrefin":4928,"ady":4929,"Ġsetting":4930,"aling":4931,"azeneca":4932,"Ġmeetings":4933,"vest":4934,"Ġfalling":4935,"vacc":4936,"coun":4937,"79":4938,"Ġgap":4939,"turn":4940,"Ġprovision":4941,"Ġfounder":4942,"Ġreplace":4943,"Ġsuggested":4944,"Ġlease":4945,"Ġprison":4946,"pandemic":4947,"Ġinitially":4948,"Ġhighlights":4949,"enty":4950,"Ġhall":4951,"Ġassumptions":4952,"pacific":4953,"Ġplayer":4954,"Ġtra":4955,"Ġenab":4956,"istan":4957,"Ġdiffer":4958,"Ġinnovative":4959,"Ġcovers":4960,"Ġshutdown":4961,"Ġtherapeut":4962,"Ġfactor":4963,"Ġkept":4964,"Ġrating":4965,"Ġsubsequ":4966,"cling":4967,"Ġfever":4968,"Ġstorm":4969,"arks":4970,"Ġentertainment":4971,"Ġisolation":4972,"ien":4973,"ĠÃ©":4974,"Ġapps":4975,"omp":4976,"atically":4977,"Ġital":4978,"Ġconflic":4979,"Ġrecommendations":4980,"holder":4981,"Ġabsolute":4982,"ifically":4983,"Ġanx":4984,"income":4985,"Ġlou":4986,"anch":4987,"Ġlose":4988,"Ġna":4989,"Ġapply":4990,"Ñı":4991,"date":4992,"sk":4993,"Ġextremely":4994,"Ġdisney":4995,"Ġdetermine":4996,"Ġscott":4997,"met":4998,"Ġprofile":4999,"Ġ150":5000,"Ġautomotive":5001,"expected":5002,"Ġadoption":5003,"Ġagric":5004,"secut":5005,"Ġclient":5006,"Ġwelcome":5007,"Ġstated":5008,"Ġsubscription":5009,"Ġreturning":5010,"Ġremaining":5011,"Ġcaution":5012,"Ġramp":5013,"Ùĩ":5014,"hr":5015,"Ġcontext":5016,"Ġoutstanding":5017,"Ġdedic":5018,"Ġlabour":5019,"Ġstatistics":5020,"Ġcolleagues":5021,"cons":5022,"known":5023,"Ġdefense":5024,"01":5025,"Ġexcluding":5026,"rome":5027,"Ġconcent":5028,"Ġpaying":5029,"Ġib":5030,"lock":5031,"09":5032,"Ã£":5033,"Ġwarning":5034,"Ġharm":5035,"Ġmail":5036,"ivir":5037,"Ġcompletely":5038,"avio":5039,"yan":5040,"Ġopened":5041,"Ġdelivering":5042,"Ġperiods":5043,"Ġchoose":5044,"Ġtrip":5045,"Ġsurpr":5046,"Ġhyd":5047,"Ġcontribut":5048,"uro":5049,"Ġ'')":5050,"Ġoccup":5051,"Ġwood":5052,"Ġexperiences":5053,"Ġrand":5054,"ania":5055,"week":5056,"Ġasking":5057,"Ġhen":5058,"Ġsession":5059,"Ġ52":5060,"Ġgrocer":5061,"Ġcount":5062,"igen":5063,"Ġconcentr":5064,"Ġreading":5065,"Ġconnection":5066,"Ġexplore":5067,"lling":5068,"Ġreceiving":5069,"Ġsle":5070,"Ġjun":5071,"Ġmulti":5072,"Ġchat":5073,"Ġplc":5074,"Ġvital":5075,"Ġ400":5076,"aland":5077,"Ġign":5078,"Ġoutdo":5079,"ille":5080,"Ġsea":5081,"long":5082,"Ġdiscussion":5083,"Ġ1998":5084,"Ġplants":5085,"Ġfixed":5086,"itation":5087,"iers":5088,"Ġeuros":5089,"Ġaggress":5090,"Ġprofits":5091,"isco":5092,"Ġhistorical":5093,"Ġmachine":5094,"Ġrestr":5095,"reciation":5096,"Ġexclusive":5097,"Ġimage":5098,"Ġparent":5099,"Ġatl":5100,"agram":5101,"Ġmerg":5102,"ferences":5103,"Ġfem":5104,"Ġflat":5105,"cap":5106,"board":5107,"Ġpipeline":5108,"Ġfeeling":5109,"active":5110,"Ġtor":5111,"Ġthr":5112,"Ġflows":5113,"Ġclar":5114,"ria":5115,"ulated":5116,"Ġintroduced":5117,"Ġpolitics":5118,"Ġpeace":5119,"Ġmatters":5120,"Ġimpair":5121,"Ġraising":5122,"Ġdevice":5123,"Ġsum":5124,"Ġvolatility":5125,"Ġvariety":5126,"Ġpushed":5127,"ti":5128,"Ġmayor":5129,"Ġauto":5130,"box":5131,"ho":5132,"ĠÃł":5133,"Ġwaste":5134,"Ġnationwide":5135,"Ġurged":5136,"ĠÙħ":5137,"rics":5138,"Ġtend":5139,"Ġregulation":5140,"Ġshortages":5141,"Ġhotels":5142,"Ġmoves":5143,"Ġearth":5144,"Ġconvention":5145,"onom":5146,"06":5147,"night":5148,"ota":5149,"Ġtask":5150,"Ġmomentum":5151,"Ġventure":5152,"Ġacquired":5153,"Ġfauci":5154,"ari":5155,"Ġtack":5156,"ï¿":5157,"Ġpara":5158,"Ġspecifically":5159,"ystem":5160,"Ġkingdom":5161,"Ġcold":5162,"Ġvictim":5163,"Ġattributable":5164,"greg":5165,"Ġpassword":5166,"Ġcompos":5167,"Ġvision":5168,"eff":5169,"Ġemb":5170,"Ġrevealed":5171,"kins":5172,"how":5173,"Ġscreen":5174,"Ġprospects":5175,"Ġ57":5176,"Ġhouseholds":5177,"Ġ56":5178,"apped":5179,"Ġstronger":5180,"Ġchristmas":5181,"Ġwit":5182,"Ġexpend":5183,"Ġinfluence":5184,"ï¿½":5185,"Ġteachers":5186,"Ġprefer":5187,"Ġsharing":5188,"Ġlinking":5189,"igned":5190,"Ġmortality":5191,"Ġpublicly":5192,"mi":5193,"miss":5194,"Ġthus":5195,"Ġagricult":5196,"Ġinterim":5197,"Ġextent":5198,"Ġengineering":5199,"ador":5200,"Ġ85":5201,"Ġspan":5202,"Ġseparate":5203,"ua":5204,"Ġcauses":5205,"Ġyields":5206,"Ġstraight":5207,"Ġfreedom":5208,"unte":5209,"Ġsharp":5210,"Ġincent":5211,"Ġinstagram":5212,"Ġlocation":5213,"Ġ58":5214,"Ġurban":5215,"Ġrecords":5216,"Ġresist":5217,"Ġfu":5218,"ode":5219,"Ġspeak":5220,"Ġvac":5221,"lined":5222,"Ġangeles":5223,"Ġefficiency":5224,"Ġautomation":5225,"Ġwaiting":5226,"Ġbab":5227,"Ġdelays":5228,"Ġadvertising":5229,"Ġcorrect":5230,"Ã£o":5231,"Ġstrain":5232,"Ġbigger":5233,"Ġpacific":5234,"Ġmortgage":5235,"Ġbattle":5236,"Ġbottom":5237,"Ġhimself":5238,"Ġexpendit":5239,"Ġtried":5240,"Ġnuc":5241,"enn":5242,"Ġ59":5243,"Ġmining":5244,"Ġdistributed":5245,"ĠÐ¿":5246,"Ġspeech":5247,"Ġdisruptions":5248,"google":5249,"Ġdiagnost":5250,"Ġadds":5251,"Ġexceed":5252,"infect":5253,"outs":5254,"Ġeasily":5255,"Ġeventually":5256,"Ġinequ":5257,"Ġaccelerate":5258,"Ġimposed":5259,"2021":5260,"Ġmrna":5261,"Ġvolunte":5262,"Ġlowest":5263,"conn":5264,"Ġexhib":5265,"Ġmd":5266,"Ùĥ":5267,"Ġzealand":5268,"Ġvast":5269,"Ġaccordance":5270,"Ġtheat":5271,"Ġimplemented":5272,"Ġsentiment":5273,"Ġreserved":5274,"Ġbooster":5275,"42":5276,"Ġaspect":5277,"lets":5278,"road":5279,"Ġreporters":5280,"Ġending":5281,"07":5282,"Ġfy":5283,"Ġtough":5284,"Ġempow":5285,"Ġproducers":5286,"Ø³":5287,"Ġbeaut":5288,"Ġ2008":5289,"41":5290,"Ġpurchases":5291,"Ġpresence":5292,"Ġsquare":5293,"Ġtroub":5294,"Ã©s":5295,"Ġhun":5296,"Ġgeorge":5297,"elect":5298,"Ġunlikely":5299,"Ġshots":5300,"semb":5301,"Ġfintech":5302,"Ġconclud":5303,"Ġbol":5304,"Ġsees":5305,"elling":5306,"59":5307,"Ġagreements":5308,"Ġtesla":5309,"Ġcomparable":5310,"Ġnamed":5311,"Ġluxury":5312,".âĢĻ":5313,"Ġnone":5314,"Ġsudden":5315,"Ġmentioned":5316,"Ġfif":5317,"Ġblog":5318,"Ġexpanded":5319,"Ġaviation":5320,"Ġgeorg":5321,"Ġoblig":5322,"Ġsettle":5323,"Ġfeature":5324,"Ġexplained":5325,"oy":5326,"Ġtargeted":5327,"Ġcategory":5328,"Ġheavy":5329,"isf":5330,"Ġacquisitions":5331,"Ġtracking":5332,"Ġpled":5333,"Ġcagr":5334,"Ġshr":5335,"Ġneutral":5336,"Ġshock":5337,"Ġcarry":5338,"Ġpowerful":5339,"Ġplaced":5340,"Ġwip":5341,"sa":5342,"Ġeasier":5343,"information":5344,"Ġtransl":5345,"Ġbriefing":5346,"Ġaer":5347,"Ġtai":5348,"anging":5349,"Ġinterviews":5350,"Ġworried":5351,"Ġaircraft":5352,"Ġrout":5353,"Ġrecommended":5354,"Ġconnected":5355,"verty":5356,"Ġrepeated":5357,"Ġastrazeneca":5358,"Ġyourself":5359,"Ġdoubt":5360,"Ġavailability":5361,"Ġheard":5362,"Ġgender":5363,"Ġjeff":5364,"Ġsample":5365,"rem":5366,"Ġperfect":5367,"Ġscope":5368,"Ġopposition":5369,"Ġjoined":5370,"Ġing":5371,"Ġdisp":5372,"Ġconsistent":5373,"grade":5374,"Ġschedule":5375,"itis":5376,"itory":5377,"Ġeligible":5378,"wards":5379,"Ġlawmakers":5380,"ml":5381,"Ġemot":5382,"Ġtiming":5383,"Ġcybers":5384,"Ġdecide":5385,"Ġhydro":5386,"Ġincorpor":5387,"Ġconsequences":5388,"iance":5389,"×Ļ×":5390,"Ġreset":5391,"Ġinvolve":5392,"Ġspr":5393,"nic":5394,"Ġ51":5395,"iontech":5396,"Ġguest":5397,"Ġimag":5398,"Ġadditionally":5399,"Ġoutperform":5400,"Ġsole":5401,"Ġcomputer":5402,"iced":5403,"Ġgov":5404,"Ġdistance":5405,"Ġimages":5406,"Ġdealing":5407,"Ġhappy":5408,"Ġconservative":5409,"Ġthom":5410,"itely":5411,"Ġuseful":5412,"Ġreconcil":5413,"oration":5414,"Ġcriticism":5415,"Ġshortage":5416,"Ġgenerated":5417,"Ġhab":5418,"Ġemph":5419,"Ġspaces":5420,"100":5421,"Ġrespondents":5422,"car":5423,"×ķ×":5424,"Ġbay":5425,"comp":5426,"Ġfather":5427,"Ġburn":5428,"Ġpriorit":5429,"Ġeastern":5430,"Ġsupplement":5431,"Ġpetro":5432,"Ġgenet":5433,"Ġpossibility":5434,"aching":5435,"Ġcruise":5436,"Ġinsight":5437,"Ġlooked":5438,"Ġchic":5439,"Ġminimum":5440,"Ġobviously":5441,"ht":5442,"sp":5443,"Ġvill":5444,"Ġjumped":5445,"Ġextend":5446,"uan":5447,"Ġspir":5448,"Ġexports":5449,"Ġelsewhere":5450,"Ġprotesters":5451,"Ġproposal":5452,"whel":5453,"Ġpoverty":5454,"Ġsuspended":5455,"Ġsubstantial":5456,"Ġclosures":5457,"Ġworker":5458,"Ġdebate":5459,"Ġzd":5460,"Ġcough":5461,"Ġemerged":5462,"Ġdegree":5463,"ste":5464,"Ġdelayed":5465,"Ġadvisory":5466,"Ġamortization":5467,"Ġpushing":5468,"Ġnames":5469,"bu":5470,"Ġexpertise":5471,"Ġengagement":5472,"Ġmaintaining":5473,"Ġdeclared":5474,"68":5475,"ube":5476,"Ġencourage":5477,"hal":5478,"Ġyounger":5479,"ias":5480,"Ġrobert":5481,"Ġvisitors":5482,"owned":5483,"ront":5484,"Ġleverage":5485,"Ġwhom":5486,"Ġchemical":5487,"Ġvictor":5488,"Ġbenchmark":5489,"ita":5490,"Ġzdnet":5491,"rene":5492,"Ġchapter":5493,"vin":5494,"Ġtrain":5495,"Ġappoint":5496,"erson":5497,"Ġfaces":5498,"Â®":5499,"Ġtick":5500,"Ġmun":5501,"Ġtracing":5502,"Ġdocuments":5503,"Ġ53":5504,"stream":5505,"Ġoxy":5506,"Ġapplied":5507,"Ġissu":5508,"Ġprovince":5509,"Ġjudge":5510,"Ġentry":5511,"free":5512,"Ġmount":5513,"being":5514,"Ġelections":5515,"Ġadjustments":5516,"ipped":5517,"Ġproc":5518,"ura":5519,"Ġtelev":5520,"Ġgrap":5521,"Ġprepare":5522,"Ġsound":5523,"Ġod":5524,"Ġserved":5525,"Ġintended":5526,"report":5527,"Ġdub":5528,"Ġusual":5529,"Ġretirement":5530,"Ġhasn":5531,"Ġbullish":5532,"Ġdispos":5533,"Ġaims":5534,"Ġemphas":5535,"Ġregistration":5536,"Ġlosing":5537,"Ġprincipal":5538,"Ġtreatments":5539,"isters":5540,"Ġpackaging":5541,"alities":5542,"Ġexcess":5543,"08":5544,"Ġub":5545,"coronavirus":5546,"Ġaz":5547,"Ġbehavi":5548,"Ġexactly":5549,"Ġsuccessfully":5550,"ength":5551,"Ġmedium":5552,"Ġracial":5553,"wing":5554,"fr":5555,"poses":5556,"Ġ54":5557,"rier":5558,"Ġcatch":5559,"Ġfest":5560,"Ã¨":5561,"emi":5562,"ecurity":5563,"enders":5564,"ÑģÑĤ":5565,"Ġmike":5566,"Ġalongside":5567,"ques":5568,"Ġvirgin":5569,"Ġlanguage":5570,"Ġoverwhel":5571,"Ġbars":5572,"Ġfulf":5573,"57":5574,"Ġspoke":5575,"Ġvoice":5576,"Ġindicated":5577,"Ġped":5578,"Ġacute":5579,"Ġtaiwan":5580,"Ġathlet":5581,"Ġkit":5582,"Ġaged":5583,"Ġaccelerated":5584,"Ġmeat":5585,"Ġlearned":5586,"Ø¹":5587,"pp":5588,"sen":5589,"gun":5590,"Ġarrange":5591,"Ġinterested":5592,"Ġgenerate":5593,"Ġworr":5594,"Ġeconomics":5595,"Ġrank":5596,"Ġdetermined":5597,"Ġpurposes":5598,"Ġdipl":5599,"Ġcybersecurity":5600,"Ġfellow":5601,"Ġpassenger":5602,"ull":5603,"wr":5604,"Ġham":5605,"Ġrecr":5606,"omo":5607,"Ġapplicable":5608,"Ġ66":5609,"Ġlisten":5610,"Ġpersonnel":5611,"Ġ67":5612,"Ġsamples":5613,"Ġdividends":5614,"hel":5615,"Ġowner":5616,"Ġprojections":5617,"Ġindeed":5618,"cular":5619,"Ġdangerous":5620,"Ġincred":5621,"Ġlung":5622,"Ð¸Ð":5623,"itect":5624,"Ġeffectiveness":5625,"Ġtel":5626,"Ġentered":5627,"ogen":5628,"Ġfine":5629,"Ġcarol":5630,"Ġframework":5631,"Ġos":5632,"Ġsettings":5633,"Ġpor":5634,"Ġhandling":5635,"Ġboeing":5636,"country":5637,"Ġdog":5638,"xit":5639,"Ġdan":5640,"Ġoh":5641,"Ġwalk":5642,"Ġaimed":5643,"Ġhandle":5644,"Ġcarried":5645,"Ġtruly":5646,"Ġpremier":5647,"Ġinteresting":5648,"Ġwitness":5649,"Ġrely":5650,"Ġspokesperson":5651,"Ġsurround":5652,"Ġchampions":5653,"Ġresol":5654,"Ġkim":5655,"mal":5656,"Ġsmith":5657,"Ġfollows":5658,"Ġturning":5659,"Ġtalent":5660,"Ġpanel":5661,"Ġba":5662,"Ġinsider":5663,"aint":5664,"Ġsafely":5665,"Ġsufficient":5666,"Ġexpanding":5667,"Ġsin":5668,"Ġoutcome":5669,"Ġsam":5670,"Ġrelationships":5671,"Ġwonder":5672,"Ġ99":5673,"iny":5674,"Ġimplic":5675,"Ġprotocols":5676,"Ġthreats":5677,"Ġmargins":5678,"Ġfacilit":5679,"Ġstable":5680,"itude":5681,"igan":5682,"cs":5683,"Ġopec":5684,"Ġdedicated":5685,"Ø¨":5686,"Ġmandate":5687,"Ġneighbor":5688,"Ġitalian":5689,"ander":5690,"Ġworkplace":5691,"Ġaware":5692,"Ġrecovered":5693,"Ġprocedures":5694,"wood":5695,"Ġpeter":5696,"Ġcycle":5697,"pts":5698,"iminal":5699,"Ġfamiliar":5700,"Ġbirth":5701,"Ġresume":5702,"Ġarchitect":5703,"Ġanimal":5704,"Ġresulted":5705,"Ġaudience":5706,"Ġspokesman":5707,"Ġoperators":5708,"Ġintel":5709,"bank":5710,"Ġconven":5711,"Ġoxygen":5712,"enda":5713,"Ġchicago":5714,"Ġsatisf":5715,"Ġembr":5716,"Ġfeet":5717,"Ġbuyers":5718,"Ġrig":5719,"Ġdivers":5720,"Ġbecomes":5721,"Ġera":5722,"Ġphoto":5723,"Ġspl":5724,"Ġlicens":5725,"ÑĮ":5726,"Ġintegrated":5727,"ĠâĢĭ":5728,"Ġartific":5729,"inet":5730,"what":5731,"Ġadministrative":5732,"ez":5733,"Ġcutting":5734,"Ġcontacts":5735,"flow":5736,"uth":5737,"Ġdiscussed":5738,"anda":5739,"Ġsilver":5740,"Ġpermanent":5741,"Ġrefuge":5742,"Ġclasses":5743,"Ġdevast":5744,"uable":5745,"Ġsky":5746,"Ġordered":5747,"Ġpublish":5748,"Ġrail":5749,"Ġta":5750,"Ġul":5751,"Ġtic":5752,"Ġdriver":5753,"Ġexplain":5754,"Ġgovernance":5755,"Ġrestruct":5756,"Ġowned":5757,"Ġgatherings":5758,"Ġveter":5759,"ayer":5760,"Ġwouldn":5761,"Ġintr":5762,"Ġresilience":5763,"Ġrobot":5764,"Ġstreets":5765,"Ġflexibility":5766,"04":5767,"Ġarabia":5768,"organ":5769,"Ġmoderate":5770,"Ġeld":5771,"Ġborders":5772,"Ġllc":5773,"ughter":5774,"Ġairports":5775,"cohol":5776,"angible":5777,"icef":5778,"Ġfrank":5779,"Ġdisinfect":5780,"Ġshipping":5781,"Ġdifferences":5782,"Ġratings":5783,"Ġaccused":5784,"Ġimpairment":5785,"Ġmovie":5786,"Ġbon":5787,"Ġarticles":5788,"Ġlawy":5789,"Ġtemporarily":5790,"Ġensuring":5791,"Ġviruses":5792,"Ġchecks":5793,"izations":5794,"kes":5795,"Ġhumans":5796,"star":5797,"Ġciting":5798,"Ġdepreciation":5799,"Ġmotor":5800,"Ġrural":5801,"Ġdoor":5802,"Ġmiles":5803,"Ġcouldn":5804,"ka":5805,"Ġgeorgia":5806,"ressed":5807,"Ġpostpon":5808,"Ġly":5809,"Ġimplementation":5810,"Ġcloser":5811,"Ġoverseas":5812,"Ġheavily":5813,"Ġfighting":5814,"Ġnut":5815,"Ġenhance":5816,"Ġswed":5817,"Ġundert":5818,"Ġremotely":5819,"see":5820,"Ġresource":5821,"Ġwid":5822,"Ġsurface":5823,"Ġhus":5824,"Ġ2013":5825,"Ġattor":5826,"Ġbure":5827,"Ġordinary":5828,"Ġadm":5829,"life":5830,"Ġpdf":5831,"va":5832,"Ġprove":5833,"Ġcentury":5834,"Ġfacts":5835,"Ġaffairs":5836,"Ġhappens":5837,"Ġbrown":5838,"Ġcontainer":5839,"Ġoce":5840,"Ġfurl":5841,"Ġprovisions":5842,"Ġpopulations":5843,"Ġlisted":5844,"osystem":5845,"respond":5846,"Ġbankrupt":5847,"ivals":5848,"Ġflood":5849,"Ġhearing":5850,"wind":5851,"Ġextr":5852,"bing":5853,"print":5854,"Ġstopped":5855,"Ġproductivity":5856,"Ġtreated":5857,"uty":5858,"Ġjourney":5859,"Ġjul":5860,"Ġpartially":5861,"ĠÐ²":5862,"ikes":5863,"Ġachieved":5864,"mart":5865,"heast":5866,"Ġpregn":5867,"03":5868,"Ġlouis":5869,"Ġcrypt":5870,"Ġventures":5871,"cies":5872,"Ġdani":5873,"Ġintegration":5874,"Ġreference":5875,"ĠÙĪ":5876,"jan":5877,"Ġ'':":5878,"Ġlng":5879,"Ġimposs":5880,"Ġenforcement":5881,"Ġhiring":5882,"Ġobserv":5883,"Ġvaccinations":5884,"Ġassemb":5885,"Ġcrew":5886,"Ġtechnavio":5887,"Ġ69":5888,"twitter":5889,"Ġware":5890,"Ġsought":5891,"Ġremarks":5892,"Ġheight":5893,"iot":5894,"Ġinstruct":5895,"Ġcoh":5896,"Ġfactory":5897,"apping":5898,"ghan":5899,"Ġolympics":5900,"Ġartificial":5901,"Ġka":5902,"56":5903,"Ġbatter":5904,"Ġcalculated":5905,"isted":5906,"Ġinvested":5907,"Ġdiverse":5908,"men":5909,"quo":5910,"Ġrelating":5911,"ci":5912,"Ġadequ":5913,"Ġcriminal":5914,"Ġdial":5915,"Ġwake":5916,"Ġnursing":5917,"Ġcomponents":5918,"Ġstation":5919,"Ġrmb":5920,"Ġvalid":5921,"ï¿½ï¿½":5922,"Ġresc":5923,"Ġcreative":5924,"Ġdirection":5925,"Ġresort":5926,"Ġcombat":5927,"Ġindones":5928,"ologist":5929,"can":5930,"Ġpoly":5931,"Ġmethods":5932,"Ġobligation":5933,"Ġproud":5934,"Ġchannels":5935,"level":5936,"Ġreserves":5937,"unately":5938,"Ġguide":5939,"Ġcontrols":5940,"Ġdeferred":5941,"Ġ62":5942,"Ġdefic":5943,"Ġagenda":5944,"Ġknew":5945,"Ġvaluation":5946,"Ġdisplay":5947,"Ġrecognition":5948,"Ġintrodu":5949,"Ġacknowled":5950,"Ġdiscussions":5951,"Ġnic":5952,"Ġlee":5953,"Ġcorrespond":5954,"Ġclaimed":5955,"Ġepidemi":5956,"urg":5957,"abil":5958,"Ġkick":5959,"Ġstreaming":5960,"Ġrom":5961,"Ġquarters":5962,"Ġ68":5963,"prises":5964,"Ġlending":5965,"Ġni":5966,"Ġlaboratory":5967,"Ġweight":5968,"Ġsummit":5969,"Ġstream":5970,"Ġfilings":5971,"Ġstan":5972,"erb":5973,"Ġnumerous":5974,"Ġapprec":5975,"ucks":5976,"chain":5977,"Ġshareholder":5978,"Ġcrime":5979,"nam":5980,"Ġmaker":5981,"Ġdownturn":5982,"Ġevening":5983,"Ġrecognized":5984,"Ġecosystem":5985,"hai":5986,"Ġadopted":5987,"02":5988,"reprene":5989,"Ġtransparency":5990,"Ġexpensive":5991,"itarian":5992,"ulate":5993,"offs":5994,"aints":5995,"illance":5996,"Ġwis":5997,"Ġcoup":5998,"Ġnewsp":5999,"Ġ77":6000,"Ġimpossible":6001,"Ġawards":6002,"Ġhill":6003,"Ġchris":6004,"Ġsi":6005,"Ġwife":6006,"comm":6007,"brid":6008,"Ġportion":6009,"Ġtwice":6010,"Ġgrocery":6011,"Ġcoff":6012,"Ġaggreg":6013,"Ġseats":6014,"oted":6015,"Ġprelim":6016,"Ġhighlight":6017,"Ġalliance":6018,"Ã¼":6019,"Ġelev":6020,"Ġvendors":6021,"state":6022,"Ġsuffered":6023,"cn":6024,"Ġtar":6025,"eries":6026,"Ġentreprene":6027,"Ġpointed":6028,"oma":6029,"Ġanimals":6030,"Ġencouraging":6031,"Ġft":6032,"Ġupcoming":6033,"58":6034,"Ġrock":6035,"inem":6036,"ae":6037,"Ġride":6038,"wear":6039,"Ġeasing":6040,"Ġgranted":6041,"Ġmitigate":6042,"Ġbio":6043,"Ġmine":6044,"Ġ2025":6045,"Ġmissing":6046,"limited":6047,"sels":6048,"har":6049,"Ġgard":6050,"lix":6051,"risk":6052,"Ġorganisations":6053,"Ġscore":6054,"Ġfab":6055,"business":6056,"Ġunknown":6057,"Ġfeb":6058,"Ġeb":6059,"Ġfoods":6060,"Ġreasonable":6061,"Ġfile":6062,"Ġ72":6063,"Ġtrail":6064,"Ġleads":6065,"Ġwider":6066,"Ġiv":6067,"tok":6068,"Ġpredicted":6069,"Ġenroll":6070,"Ġbrain":6071,"Ġsciences":6072,"Ġafterno":6073,"aration":6074,"Ġves":6075,"atever":6076,"Ġelectronic":6077,"Ġmild":6078,"Ġesg":6079,"Ġ250":6080,"Ġmainten":6081,"Ġgree":6082,"Ġbear":6083,"Ġ].":6084,"Ġedge":6085,"Ġhighs":6086,"Ġgal":6087,"arent":6088,"Ġtas":6089,"Ã¤":6090,"Ġunicef":6091,"Ġboris":6092,"Ġsurveillance":6093,"Ġharris":6094,"lihood":6095,"Ġmartin":6096,"Ġ64":6097,"Ġbought":6098,"Ġsummary":6099,"Ġexperiencing":6100,"Ġcovering":6101,"link":6102,"Ġnuclear":6103,"Ġrestructuring":6104,"Ġsubsequent":6105,"Ġjers":6106,"Ġdisaster":6107,"Ġorganisation":6108,"Ġwhatever":6109,"Ġalcohol":6110,"Ġ61":6111,"Ġholds":6112,"Ġautonom":6113,"Ġsolar":6114,"Ġbelief":6115,"Ġlag":6116,"ommod":6117,"Ġfrancisco":6118,"Ġbuildings":6119,"Ġintegrity":6120,"ibutions":6121,"ki":6122,"Ġskift":6123,"Ġoptimistic":6124,"Ġafternoon":6125,"Ġlifted":6126,"Ġruns":6127,"Ġpreliminary":6128,"Ġbelieved":6129,"Ġimmigration":6130,"Ġvary":6131,"Ġsurprise":6132,"Ġenterprises":6133,"Ġjon":6134,"gal":6135,"Ġoxford":6136,"Ġeverybody":6137,"class":6138,"Ġharder":6139,"Ġmorgan":6140,"Ġchip":6141,"mat":6142,"pir":6143,"Ã±":6144,"Ġenglish":6145,"Ġunfort":6146,"Ġanxiety":6147,"Ġcycling":6148,"Ġminority":6149,"don":6150,"Ġsteel":6151,"Ġsitting":6152,"Ġregulators":6153,"Ġrandom":6154,"acted":6155,"Ġlocated":6156,"ician":6157,"Ġaccommod":6158,"enced":6159,"Ġmaintenance":6160,"Ġworry":6161,"Ġprocure":6162,"Ġsleep":6163,"inate":6164,"Ġpun":6165,"Ġcontrast":6166,"iated":6167,"Ġrub":6168,"Ġ63":6169,"enza":6170,"Ġfallen":6171,"through":6172,"eless":6173,"Ġmir":6174,"Ġremo":6175,"called":6176,"apse":6177,"Ġnecessarily":6178,"Ġnig":6179,"Ġeditorial":6180,"zz":6181,"outh":6182,"Ġwatching":6183,"Ġcanceled":6184,"cribe":6185,"Ġentirely":6186,"76":6187,"Ġsanctions":6188,"Ġcomponent":6189,"Ġthomas":6190,"Ġwarr":6191,"Ġcfo":6192,"Ġselected":6193,"Ġalign":6194,"Ġinstall":6195,"Ġgenetic":6196,"Ġpartnerships":6197,"Ġanth":6198,"Ġprin":6199,"Ġmole":6200,"Ġcomparison":6201,"Ġmakers":6202,"worth":6203,"Ġrus":6204,"win":6205,"Ã¢":6206,"Ġpatter":6207,"Ġterritory":6208,"Ġalleged":6209,"inking":6210,"Ġstruggle":6211,"iling":6212,"Ġont":6213,"Ġswit":6214,"essions":6215,"Ġscot":6216,"Ġliter":6217,"sey":6218,"reness":6219,"Ġoccurred":6220,"Ġunlimited":6221,"Ġrelig":6222,"Ġconflict":6223,"Ġcohort":6224,"Ġresidential":6225,"Ġdesper":6226,"Ġetc":6227,"Ġemer":6228,"Ġsad":6229,"Ġpreca":6230,"Ġbrexit":6231,"Ġtail":6232,"Ġmineral":6233,"Ġwage":6234,"Ġverified":6235,"Ġshops":6236,"Ġstarts":6237,"Ġapparent":6238,"Ġacademic":6239,"Ġvictory":6240,"Ġjersey":6241,"Ġyen":6242,"Ġobligations":6243,"making":6244,"Ġseaf":6245,"Ġpit":6246,"face":6247,"Ġreaching":6248,"Ġdefinitely":6249,"laim":6250,"audited":6251,"Ġmist":6252,"Ġcontribute":6253,"loyd":6254,"Ġcha":6255,"Ġpromote":6256,"Ġfreight":6257,"Ġequivalent":6258,"Ġbell":6259,"uate":6260,"Ġice":6261,"Ġpowell":6262,"icial":6263,"Ġshang":6264,"econom":6265,"Ġgun":6266,"ache":6267,"profit":6268,"rick":6269,"Ġsupreme":6270,"Ġshall":6271,"Ġpm":6272,"Ġcategories":6273,"aba":6274,"olf":6275,"eu":6276,"rid":6277,"Ġhybrid":6278,"Ġpatterns":6279,"Ġconsideration":6280,"Ġluc":6281,"scale":6282,"markets":6283,"Ġdetection":6284,"%),":6285,"Ġpull":6286,"Ġurgent":6287,"aid":6288,"ville":6289,"ulf":6290,"Ġretailer":6291,"Ġpostponed":6292,"Ġfly":6293,"Ġproceeds":6294,"cel":6295,"Ġcommodity":6296,"Ġrelax":6297,"Ġshoot":6298,"iber":6299,"Ġpersist":6300,"Ġexcell":6301,"Ġobserved":6302,"Ġcited":6303,"Ġidentity":6304,"Ġbow":6305,"Ġram":6306,"Ġlitigation":6307,"Ġintensive":6308,"Ġdisappo":6309,"Ġunaudited":6310,"Ġobama":6311,"Ġdeputy":6312,"Ġcarrying":6313,"Ġmerger":6314,"Ġorganic":6315,"Ġproxy":6316,"uster":6317,"Ġrepresentative":6318,"Ġxi":6319,"anged":6320,"Ġnewly":6321,"Ġanalyz":6322,"Ġadmitted":6323,"Ġtelevision":6324,"Ġprotecting":6325,"Ġelectricity":6326,"aciÃ³n":6327,"Ġcausing":6328,"Ġscenarios":6329,"Ġvideos":6330,"run":6331,"Ġremove":6332,"Ġabsolutely":6333,"kel":6334,"Ġentering":6335,"Ġdaniel":6336,"78":6337,"Ġfemale":6338,"Ġther":6339,"posed":6340,"Ġpap":6341,"Ġchronic":6342,"Ġheat":6343,"Ġmerch":6344,"Ġdemocracy":6345,"hor":6346,"Ġencouraged":6347,"Ġproportion":6348,"ship":6349,"Ġ76":6350,"fall":6351,"Ġsexual":6352,"Ġsuffering":6353,"vaccinated":6354,"Ġpiece":6355,"Ġjoining":6356,"Ġargent":6357,"Ġuniversities":6358,"Ġrequiring":6359,"Ġtravelers":6360,"Ġbrings":6361,"Ġ79":6362,"Ġrepro":6363,"Ġforms":6364,"Ġstaying":6365,"Ġmaximum":6366,"Ġanswers":6367,"Ġextraord":6368,"Ġword":6369,"Ġexplains":6370,"Ġhair":6371,"Ġga":6372,"Ġstuff":6373,"Ġdatab":6374,"Ġcuomo":6375,"fa":6376,"Ġwales":6377,"Ġtan":6378,"Ġequal":6379,"Ġdepending":6380,"Ġpodcast":6381,"draw":6382,"Ġcooperation":6383,"Ġturkey":6384,"Ġsimilarly":6385,"Ġdiscr":6386,"Ġposting":6387,"Ġawareness":6388,"ashed":6389,"Ġbub":6390,"inder":6391,"Ġreflects":6392,"gl":6393,"umn":6394,"itz":6395,"Ġsanit":6396,"Ġfiling":6397,"Ġbackground":6398,"Ġcarolina":6399,"Ġplun":6400,"Ġraw":6401,"minent":6402,"Ġexploration":6403,"Ġcup":6404,"Ġ2010":6405,"Ġauthorization":6406,"Ġindoor":6407,"Ġlever":6408,"Ġcomposite":6409,"Ġdark":6410,"asion":6411,"party":6412,"gas":6413,"real":6414,"imm":6415,"Ġfox":6416,"Ġfeels":6417,"ĠÑģ":6418,"vention":6419,"itative":6420,"Ġrecip":6421,"ympt":6422,"Ġfill":6423,"Ġbn":6424,"Ġdynamics":6425,"Ġsurvive":6426,"Ġbrother":6427,"Ġhaw":6428,"imination":6429,"Ñĩ":6430,"Ġfifth":6431,"aro":6432,"Ġroles":6433,"Ġseriously":6434,"Ġwinning":6435,"Ġvp":6436,"erring":6437,"Ġchart":6438,"Ġswitch":6439,"Ġvisits":6440,"ano":6441,"Ġconcept":6442,"Ġresum":6443,"Ġproven":6444,"Ġfocusing":6445,"ateral":6446,"shore":6447,"Ġ2011":6448,"Ġnormally":6449,"Ġiii":6450,"lam":6451,"gro":6452,"ashing":6453,"Ġmandatory":6454,"pow":6455,"Ġsubsidiaries":6456,"Ġblow":6457,"Ġhiv":6458,"Ġpromising":6459,"Ġstem":6460,"Ġscreening":6461,"pat":6462,"Ġcontains":6463,"Ġcancel":6464,"Ġko":6465,"Ġbegun":6466,"Ġfloor":6467,"Ġcommer":6468,"Ġprotected":6469,"Ġplastic":6470,"Ġkilling":6471,"Ġpreparing":6472,"Ġcultural":6473,"gs":6474,"Ġpiv":6475,"Ġhttp":6476,"Ġvictims":6477,"ils":6478,"Ġweigh":6479,"Ġabuse":6480,"antic":6481,"Ġreflecting":6482,"Ġdemands":6483,"Ġplanet":6484,"ados":6485,"Ġelimin":6486,"Ġanticipate":6487,"Ġdeadly":6488,"Ġbike":6489,"Ġministers":6490,"Ġflexible":6491,"Ġusage":6492,"Ġoverview":6493,"Ġwithdraw":6494,"Ġlimits":6495,"osing":6496,"Ġcontribution":6497,"Ġonto":6498,"Ġbp":6499,"Ġtensions":6500,"stein":6501,"Ġguardian":6502,"Ġhospitality":6503,"Ġperformed":6504,"Ġsar":6505,"Ġburden":6506,"Ġgy":6507,"Ġvaluable":6508,"ray":6509,"Ġinflamm":6510,"Ġtelling":6511,"Ġsurged":6512,"Ġspons":6513,"Ġstands":6514,"Ġhusband":6515,"Ġdry":6516,"Ġparticipate":6517,"Ġmandates":6518,"Ġzone":6519,"Ġunderst":6520,"Ġgrown":6521,"light":6522,"Ġerr":6523,"Ġuniversal":6524,"Ġfounded":6525,"Ġfarmers":6526,"Ġpromise":6527,"ĠdÃ©":6528,"Ġlu":6529,"awa":6530,"Ġshanghai":6531,"Ġtargeting":6532,"Ġreliable":6533,"Ġ89":6534,"Ġhurt":6535,"Ġ2009":6536,"Ġprofitability":6537,"Ġpool":6538,"driven":6539,"Ġmeaningful":6540,"Ġtraders":6541,"ĠØ£":6542,"Ġcancell":6543,"Ġlicense":6544,"Ġstakeholders":6545,"gov":6546,"zy":6547,"Ġofferings":6548,"Ġcontrovers":6549,"Ġearn":6550,"ĠĠĠĠĠĠĠĠĠĠĠĠĠĠĠĠ":6551,"Ġreconciliation":6552,"Ġstrongly":6553,"Ġrequested":6554,"300":6555,"flix":6556,"Ġau":6557,"ula":6558,"Ġboy":6559,"Ġattorney":6560,"usive":6561,"Ġcargo":6562,"Ġinfluenza":6563,"ymptomatic":6564,"world":6565,"Ġmichigan":6566,"Ġmixed":6567,"Ġnarrow":6568,"acking":6569,"Ġ2030":6570,"lett":6571,"iams":6572,"isol":6573,"Ġ120":6574,"Ġjose":6575,"Ġdevelopers":6576,"Ġfrustr":6577,"Ġbes":6578,"Ġwil":6579,"Ġ2023":6580,"Ġbillions":6581,"Ġgaming":6582,"Ġaffil":6583,"Ġmagaz":6584,"Ġcann":6585,"Ġunexpected":6586,"Ġempt":6587,"Ġclosure":6588,"Ġends":6589,"Ġbarrels":6590,"Ġhel":6591,"hand":6592,"Ġbroadcast":6593,"Ġadviser":6594,"Ġjur":6595,"Ġsurfaces":6596,"Ġrichard":6597,"bel":6598,"athan":6599,"atures":6600,"Ġstick":6601,"Ġrequests":6602,"Ġhoping":6603,"Ðº":6604,"Ġarrived":6605,"Ġmarked":6606,"Ġshap":6607,"ints":6608,"Ġfro":6609,"quality":6610,"chen":6611,"Ġruling":6612,"Ġrival":6613,"Ġpublication":6614,"Ġdisclosure":6615,"Ġhighlighted":6616,"gers":6617,"Ġexcited":6618,"Ġwages":6619,"Ġroutine":6620,"Ġ78":6621,"china":6622,"Ġocean":6623,"iest":6624,"rencies":6625,"Ġsending":6626,"Ġuna":6627,"inte":6628,"Ġyouth":6629,"controll":6630,"Ġky":6631,"Ġapproaches":6632,"Ġtot":6633,"outube":6634,"Ġdoors":6635,"Ġtun":6636,"Ġextensive":6637,"Ġrestart":6638,"Ġabb":6639,"Ġpoliticians":6640,"Ġindonesia":6641,"Ġdeclines":6642,"Ġguarantee":6643,"glob":6644,"ØĮ":6645,"Ġolympic":6646,"Ġsupporters":6647,"Ġourselves":6648,"feren":6649,"Ġstret":6650,"Ġreliance":6651,"ubscribe":6652,"ÐµÐ½":6653,"Ġintroduction":6654,"Ġliability":6655,"Ġariz":6656,"Ġupt":6657,"cho":6658,"Ġmissed":6659,".-":6660,"Ġaccurate":6661,"Ġspreads":6662,"rees":6663,"pres":6664,"Ġagents":6665,"Ġopinions":6666,"gor":6667,"Ġoutlined":6668,"Ġfee":6669,"Ġcollected":6670,"emy":6671,"Ġheadqu":6672,"Ġoutdoor":6673,"Ġethnic":6674,"Ġtherapeutics":6675,"gb":6676,"Ġradio":6677,"Ġig":6678,"Ġnegotiations":6679,"Ġforth":6680,"Ġserving":6681,"maker":6682,"Ġdifficulty":6683,"Ġbills":6684,"Ġtechnological":6685,"98":6686,"Ġinformed":6687,"adium":6688,"Ġepis":6689,"Ġimplications":6690,"Ġrevised":6691,"ĠÙģ":6692,"Ġsupports":6693,"founder":6694,"Ġabroad":6695,"Ġreaction":6696,"Ġslowly":6697,"Ġtap":6698,"Ġassociate":6699,"Ġnavigate":6700,"Ġtouching":6701,"Ġinstitutional":6702,"Ġregularly":6703,"Ġpossibly":6704,"Ġsharply":6705,"lis":6706,"Ġgam":6707,"than":6708,"Ġrooms":6709,"Ġrestricted":6710,"ager":6711,"Ġcoalition":6712,"Ġoperates":6713,"Ġsout":6714,"Ġreceiv":6715,"Ġtitle":6716,"Ġvirtually":6717,"Ġgirls":6718,"ius":6719,"Ġreass":6720,"adow":6721,"Ġrental":6722,"Ġsecondary":6723,"rey":6724,"Ġ73":6725,"Ġak":6726,"Ġmisinformation":6727,"Ġinject":6728,"Ġpriorities":6729,"ucky":6730,"Ġshape":6731,"Ġrenewable":6732,"onia":6733,"Ġphotograp":6734,"Ġpayroll":6735,"Ġcollapse":6736,"Ġjet":6737,"Ġglo":6738,"tail":6739,"Ġfactories":6740,"800":6741,"Ġfrag":6742,"Ġamend":6743,"Ġalt":6744,"isan":6745,"Ġhistorically":6746,"Ġchurch":6747,"ato":6748,"Ġnetflix":6749,"Ġviet":6750,"Ġitem":6751,"Ġgoldman":6752,"Ġdozens":6753,"Ġbuff":6754,"edia":6755,"Ġbooks":6756,"Ġaffordable":6757,"Ġeat":6758,"Ġprocurement":6759,"ours":6760,"Ġlift":6761,"Ġrain":6762,"Ġdj":6763,"iter":6764,"Ġguests":6765,"Ġilleg":6766,"Ġnice":6767,"Ġunvaccinated":6768,"Ġassistant":6769,"Ġemerge":6770,"Ġduration":6771,"iana":6772,"Ġrevers":6773,"Ġgrade":6774,"Ġagriculture":6775,"Ġdetected":6776,"Ġunclear":6777,"Ġdrag":6778,"Ġacting":6779,"Ġrollout":6780,"Ġobtain":6781,"Ġdiabet":6782,"ÃŃa":6783,"osh":6784,"Ġconstitution":6785,"Ġvotes":6786,"Ġputin":6787,"dem":6788,"using":6789,"Ġregardless":6790,"Ġcompetitors":6791,"Ġbail":6792,"Ġaccessible":6793,"fin":6794,"Ġseemed":6795,"Ġfleet":6796,"Ġintens":6797,"elled":6798,"Ġthro":6799,"Ġevaluate":6800,"Ġune":6801,"Ġnewspaper":6802,"Ġcool":6803,"Ġresolution":6804,"Ġaspects":6805,"Ġdeadline":6806,"Ġsubscriber":6807,"Ġkil":6808,"Ġkits":6809,"Ġtruck":6810,"Ġcomfortable":6811,"Ġplenty":6812,"Ġmoreover":6813,"Ġryan":6814,"onto":6815,"Ġcere":6816,"Ġmotiv":6817,"micon":6818,"Ġimports":6819,"Ġstrengthen":6820,"Ġnurses":6821,"igue":6822,"Ġyester":6823,"Ġmatt":6824,"Ġremoved":6825,"Ġmessages":6826,"Ġmu":6827,"Ġgrants":6828,"Ġhopkins":6829,"Ġpractical":6830,"miconduct":6831,"Ġproducer":6832,"Ġgene":6833,"will":6834,"Ġ74":6835,"Ġseverity":6836,"ĠÐ½":6837,"wom":6838,"Ġbacked":6839,"Ġ800":6840,"Ġcleaning":6841,"Ġip":6842,"Ġwilliams":6843,"Ġafghan":6844,"Ġelectron":6845,"mc":6846,"urred":6847,"Ġarizona":6848,"Ġasymptomatic":6849,"Ġmuse":6850,"Ġingred":6851,"Ġannounces":6852,"Ġunsubscribe":6853,"Ð²":6854,"roy":6855,"Ġdistribut":6856,"Ġslump":6857,"Ġconsulting":6858,"Ġextension":6859,"Ġpharma":6860,"ario":6861,"Ġsuggesting":6862,"Ġbreathing":6863,"Ġeps":6864,"leading":6865,"Ġcoffee":6866,"Ġracism":6867,"Ġsemiconduct":6868,"Ġcaut":6869,"ione":6870,"Ġboun":6871,"Ġparticipation":6872,"vi":6873,"Ġsong":6874,"Ġbang":6875,"Ġyesterday":6876,"uts":6877,"pin":6878,"Ġdepends":6879,"Ġspanish":6880,"Ġengaged":6881,"Ġreim":6882,"izon":6883,"dig":6884,"quir":6885,"Ġmyself":6886,"Ġash":6887,"Ġcancelled":6888,"ifications":6889,"ini":6890,"Ġcentres":6891,"Ġhospitalized":6892,"Ġjac":6893,"Ġcautious":6894,"Ġuber":6895,"cript":6896,"Ġprinciples":6897,"Ġdaughter":6898,"Ġracing":6899,"Ġtackle":6900,"Ġclimbed":6901,"iding":6902,"Ġpresents":6903,"Ġaggressive":6904,"isa":6905,"Ġbright":6906,"ena":6907,"Ġbeach":6908,"Ġsets":6909,"Ġcontrolled":6910,"Ġsteady":6911,"Ġlaid":6912,"Ġathletes":6913,"Ġunfortunately":6914,"hered":6915,"Ġ71":6916,"Ġhygi":6917,"ales":6918,"Ġford":6919,"Ġexperim":6920,"Ġfavour":6921,"Ġheading":6922,"Ġdeliveries":6923,"Ġinstruments":6924,"ĠÐ¸":6925,"Ġextraordinary":6926,"plus":6927,"Ġcommitments":6928,"bal":6929,"Ġmedicines":6930,"oul":6931,"Ġspar":6932,"Ġwells":6933,"Ġknows":6934,"Ġsuperv":6935,"Ġallies":6936,"Ġcreation":6937,"Ġremind":6938,"Ġpour":6939,"Ġmutations":6940,"Ġ86":6941,"Ġcards":6942,"Ġalleg":6943,"Ġcommerce":6944,"Ġvictoria":6945,"Ġang":6946,"Ġanthony":6947,"Ġneither":6948,"Ġresponded":6949,"Ġticker":6950,"Ġpenal":6951,"Ġbridge":6952,"Ġdeposits":6953,"Ġstood":6954,"Ġattractive":6955,"Ġmetrics":6956,"Ġcomprom":6957,"Ġcontag":6958,"Ġadvised":6959,"Ġfundamental":6960,"eron":6961,"Ġstartup":6962,"Ġincident":6963,"Ġsurrounding":6964,"Ġtay":6965,"Ġreflected":6966,"Ġtraded":6967,"istical":6968,"Ġderiv":6969,"Ġexpenditures":6970,"Ġarmy":6971,"Ġkr":6972,"Ġcommentary":6973,"Ġescal":6974,"Ġipo":6975,"Ġappend":6976,"Ġmigrants":6977,"Ġnoting":6978,"Ġinclusion":6979,"Ġseafood":6980,"Ġenhanced":6981,"Ġanywhere":6982,"Ġbankruptcy":6983,"Ġmaster":6984,"Ġaver":6985,"andmarkets":6986,"Ġrecognize":6987,"Ġreviews":6988,"Ġyoutube":6989,"Ġskin":6990,"Ġcomputing":6991,"Ġkel":6992,"Ġdeter":6993,"Ġcalend":6994,"Ġbeauty":6995,"cher":6996,"Ġmacro":6997,"Ġrepeatedly":6998,"Ġnutr":6999,"Ġshoppers":7000,"iy":7001,"Ġhalt":7002,"Ġmobility":7003,"Ġunve":7004,"Ġlength":7005,"Ġsubsidiary":7006,"Ġstages":7007,"oney":7008,"Ġcollective":7009,"Ġparks":7010,"Ġconclus":7011,"Ġmetal":7012,"Ġmorris":7013,"ãģ":7014,"Ġfinished":7015,"ÂĢ":7016,"Ġbarb":7017,"Ġdiscovery":7018,"Ġunders":7019,"Ġkar":7020,"Ġrepresentatives":7021,"pay":7022,"olic":7023,"Ġovers":7024,"ÙĬØ©":7025,"uries":7026,"Ġpreferred":7027,"Ġmanner":7028,"Ġsecured":7029,"Ġmeasured":7030,"rowing":7031,"Ġcharged":7032,"bid":7033,"Ġcampaigns":7034,"ĠâĢĿ)":7035,"dy":7036,"Ġstockholders":7037,"Ġaudio":7038,"aq":7039,"Ġaside":7040,"Ġstability":7041,"Ġappeal":7042,"Ġ96":7043,"ruption":7044,"serv":7045,"Ġmagazine":7046,"onym":7047,"Ġlenders":7048,"Ġresilient":7049,"itivity":7050,"Ġwilliam":7051,"Ġremov":7052,"Ġreportedly":7053,"Ġsuite":7054,"Ġgall":7055,"Ġpurchasing":7056,"Ġswiss":7057,"ancet":7058,"Ġfloyd":7059,"Ġgeographic":7060,"Ġprompted":7061,"Ġauthorized":7062,"Ġabort":7063,"Ġovernight":7064,"Ġgear":7065,"Ġarrested":7066,"coin":7067,"Ġnationalities":7068,"Ġfinish":7069,"Ġlessons":7070,"Ġimprovements":7071,"Ġmary":7072,"Ġequivalents":7073,"Ġbureau":7074,"Ġaddressing":7075,"with":7076,"Ġacknowledge":7077,"Ġaccomp":7078,"Ġrequirement":7079,"Ġloved":7080,"americ":7081,"Ġenabling":7082,"Ġom":7083,"Ġadult":7084,"Ġpension":7085,"Ġrefer":7086,"ici":7087,"Ġplane":7088,"watch":7089,"htt":7090,"Ġconversations":7091,"Ġeyes":7092,"Ġcaught":7093,"Ġmuseum":7094,"Ġreopened":7095,"Ġ88":7096,"Ġexpecting":7097,"Ġproducing":7098,"Ġkid":7099,"Ġric":7100,"Ġowns":7101,"Ġpreval":7102,"Ġjer":7103,"Ġcabinet":7104,"Ġwalmart":7105,"abs":7106,"spec":7107,"check":7108,"Ġneighbour":7109,"awn":7110,"Ġ2000":7111,"Ġband":7112,"global":7113,"Ġvolunteers":7114,"Ġanalyses":7115,"hl":7116,"Ã¶":7117,"Ġsupposed":7118,"cket":7119,"Ġum":7120,"Ġpeers":7121,"Ġempty":7122,"Ġrepay":7123,"Ġhk":7124,"Ġcontest":7125,"Ġrecy":7126,"Ġgreatest":7127,"Ġsegmentation":7128,"Ġdrilling":7129,"Ġswift":7130,"herlands":7131,"Ġpreventing":7132,"cur":7133,"Ġtourn":7134,"tical":7135,"ĠÂ»":7136,"Ġsanta":7137,"Ġcriteria":7138,"dney":7139,"Ġwish":7140,"Ġelderly":7141,"Ġscotland":7142,"ÂĢÂ":7143,"Ġrealized":7144,"Ġdiscount":7145,"Ġreact":7146,"Ġranked":7147,"Ġpoc":7148,"97":7149,"Ġstanding":7150,"Ġdepression":7151,"Ġfrequently":7152,"Ġrevolution":7153,"Ġbodies":7154,"Ġtweeted":7155,"Ġaudit":7156,"Ġcarriers":7157,"Ġconferences":7158,"rative":7159,"sm":7160,"Ġterror":7161,"hab":7162,"front":7163,"Ġappendix":7164,"Ġpas":7165,"Ġzh":7166,"Ġtow":7167,"Ġ',":7168,"Ġhygiene":7169,"Ġsuperm":7170,"Ġoptimism":7171,"Ġfestival":7172,"Ġnetherlands":7173,"icts":7174,"Ġmachines":7175,"Ġunus":7176,"Ġfish":7177,"Ġol":7178,"Ġsurger":7179,"Ġci":7180,"Ġalph":7181,"criptions":7182,"Ġtast":7183,"Ġbanned":7184,"acerb":7185,"Ġrescue":7186,"Ġ87":7187,"Ġsessions":7188,"Ġ82":7189,"Ġjobless":7190,"Ġobtained":7191,"Ġevolving":7192,"Ġ98":7193,"Ġbrent":7194,"Ġdemonstrated":7195,"Ġearned":7196,"Ġcp":7197,"Ġglass":7198,"emed":7199,"Ġworries":7200,"Ġalert":7201,"Ġsplit":7202,"Ġexacerb":7203,"Ġrisen":7204,"ko":7205,"Ġbaby":7206,"ductions":7207,"Ġpin":7208,"Ġcompr":7209,"Ġcycl":7210,"Ġcalendar":7211,"Ġ97":7212,"Ġmainland":7213,"Ġrall":7214,"Ġimper":7215,"Ġpartly":7216,"ĠÐ¾":7217,"Ġlegacy":7218,"ett":7219,"ran":7220,"Ġliberal":7221,"encing":7222,"Ġownership":7223,"Ġappreciate":7224,"Ġload":7225,"Ñħ":7226,"Ġster":7227,"Ġholders":7228,"Ġcopper":7229,"Ġalgor":7230,"Ġinspect":7231,"burg":7232,"Ġdiagnosis":7233,"Ġtimely":7234,"Ġweap":7235,"Ġhospitalizations":7236,"Ġlots":7237,"economic":7238,"Ġstadium":7239,"Ġpivot":7240,"nis":7241,"Ġpowers":7242,"Ġinhib":7243,"Ð¾Ð²":7244,"Ġobjectives":7245,"Ġsyndrome":7246,"Ġcolumb":7247,"Ġstrategist":7248,"Ġcontracted":7249,"Ġpackages":7250,"Ġargued":7251,"Ġelected":7252,"64":7253,"Ġfurthermore":7254,"Ġdemocrat":7255,"hire":7256,"Ġboom":7257,"chs":7258,"etr":7259,"Ġalgorith":7260,"tor":7261,"Ġreaders":7262,"ØŃ":7263,"ctor":7264,"Ġmont":7265,"Ġclubs":7266,"Ġlin":7267,"Ġventilators":7268,"ĠÙĦ":7269,"Ġeducational":7270,"Ġstabil":7271,"Ġment":7272,"Ġfairly":7273,"Ġconver":7274,"Ġdenied":7275,"cf":7276,"Ġshelter":7277,"ii":7278,"Ġmemor":7279,"Ġsurprising":7280,"minute":7281,"Ġmall":7282,"Ġdisclaim":7283,"Ġmap":7284,"Ġvirginia":7285,"law":7286,"iques":7287,"Ġdiscover":7288,"Ġsides":7289,"Ġriders":7290,"Ġelement":7291,"Ġpleased":7292,"Ġboston":7293,"Ġdegrees":7294,"Ġindependence":7295,"Ġwinner":7296,"Ġlabel":7297,"Ġcommissioner":7298,"Ġphysicians":7299,"urring":7300,"Ġcrowd":7301,"Ġcov":7302,"Ġassociates":7303,"à¤":7304,"aria":7305,"alling":7306,"Ġsweden":7307,"Ġiron":7308,"woman":7309,"rum":7310,"Ġphilipp":7311,"Ġadministered":7312,"Ġteen":7313,"Ġcompletion":7314,"erts":7315,"icate":7316,"Ġproof":7317,"Ġupgr":7318,"hem":7319,"Ġplays":7320,"ailand":7321,"Ġposts":7322,"Ġbiontech":7323,"Ġ],":7324,"Ð´":7325,"Ġpel":7326,"Ġrolling":7327,"Ġbeds":7328,"Ġbern":7329,"Ġtells":7330,"Ġbag":7331,"inger":7332,"Ġjail":7333,"Ġvietnam":7334,"Ġdiabetes":7335,"Ġdro":7336,"Ġsor":7337,"ĠØ¨":7338,"Ġhang":7339,"isd":7340,"Ġnur":7341,"ressive":7342,"bridge":7343,"Ġsensitive":7344,"https":7345,"Ġinvolving":7346,"sell":7347,"Ġell":7348,"Ġaccepted":7349,"imp":7350,"dis":7351,"water":7352,"Ġhou":7353,"Ð°Ð½":7354,"Ġgathering":7355,"Ġfo":7356,"mental":7357,"Ġsolely":7358,"Ġdrinks":7359,"Ġcurve":7360,"idays":7361,"Ġautomated":7362,"Ġtruth":7363,"Ġcheap":7364,"Ġpromised":7365,"Ġppe":7366,"Ġarrival":7367,"Ġbreaking":7368,"Ġirish":7369,"icks":7370,"Ġmilest":7371,"Ġtoronto":7372,"Ġmalays":7373,"Ġdin":7374,"Ġsignal":7375,"vas":7376,"stage":7377,"Ġstruck":7378,"Ġsucceed":7379,"Ġenables":7380,"Ġslide":7381,"Ġ140":7382,"Ġpermission":7383,"Ġactivists":7384,"Ġeric":7385,"alf":7386,"Ġconcerning":7387,"iatric":7388,"Ġstruggled":7389,"ifies":7390,"Ġedition":7391,"Ġtourists":7392,"Ġjournalists":7393,"Ġdream":7394,"Ġneighborhood":7395,"hit":7396,"Ġoun":7397,"Ġju":7398,"Ġvolunt":7399,"ylv":7400,"Ġadopt":7401,"andon":7402,"Ø§Øª":7403,"53":7404,"Ġactively":7405,"Ġske":7406,"Ġhumanitarian":7407,"Ġspecies":7408,"illy":7409,"54":7410,"Ġputs":7411,"sour":7412,"Ġupside":7413,"Ġdozen":7414,"Ġstartups":7415,"inct":7416,"ecess":7417,"ĠØª":7418,"Ġdeeply":7419,"Ġdatabase":7420,"Ġsnap":7421,"Ġstrike":7422,"ĠÂ«":7423,"nsylv":7424,"ingent":7425,"Ġwaves":7426,"Ġmagn":7427,"Ġcapture":7428,"Ġfinds":7429,"Ġ84":7430,"ibilities":7431,"Ġtonnes":7432,"Ġconsecut":7433,"Ġstructural":7434,"Ġtrouble":7435,"Ġaccounted":7436,"Ġdeclining":7437,"Ġthinks":7438,"Ġwrites":7439,"Ġrefused":7440,"Ġreligious":7441,"hips":7442,"Ġdiagnostic":7443,"Ġcampus":7444,"Ġmedian":7445,"unk":7446,"Ġ83":7447,"Ġdeployed":7448,"Ġguess":7449,"Ġelements":7450,"Ġpharmaceuticals":7451,"Ġpolls":7452,"zerland":7453,"Ġsymb":7454,"Ġot":7455,"Ġborn":7456,"rol":7457,"Ġdiscovered":7458,"Ġsydney":7459,"ahoo":7460,"Ġweakness":7461,"Ġalarm":7462,"Ġevolution":7463,"Ġimplementing":7464,"Ġcham":7465,"Ġreput":7466,"Ġintent":7467,"Ġdramatically":7468,"Ġessentially":7469,"Ġpennsylv":7470,"Ġexists":7471,"away":7472,"antly":7473,"Ġsupplier":7474,"ala":7475,"Ġcrowds":7476,"Ġpounds":7477,"Ġdraft":7478,"Ġdramatic":7479,"Ġroute":7480,"Ġmck":7481,"Ġkorean":7482,"Ġ94":7483,"Ġagent":7484,"Ġriver":7485,"Ġsenator":7486,"Ġsac":7487,"Ġgeograph":7488,"sch":7489,"Ġbitcoin":7490,"Ġintention":7491,"Ãº":7492,"Ġentities":7493,"Ġindicate":7494,"Ġml":7495,"Ġperm":7496,"Ġacquire":7497,"ictions":7498,"isons":7499,"Ġbarriers":7500,"Ġimagine":7501,"anes":7502,"Ġheads":7503,"ja":7504,"Ġconsecutive":7505,"Ġsurpass":7506,"Ġsustained":7507,"ingly":7508,"atell":7509,"Ġflag":7510,"Ġ81":7511,"ogue":7512,"Ġbasically":7513,"Ġweren":7514,"Ġmarks":7515,"Ġceremon":7516,"ðŁ":7517,"×¨":7518,"Ġcrack":7519,"Ġbroke":7520,"Ġcannab":7521,"gered":7522,"bb":7523,"Ġthailand":7524,"Ġargentina":7525,"Ġtrips":7526,"Ġantivir":7527,"Ġpennsylvania":7528,"Ġautonomous":7529,"Ġinbox":7530,"Ġnik":7531,"Ġjim":7532,"Ġpump":7533,"Ġshifts":7534,"Ġspirit":7535,"Ġattach":7536,"Ġaggregate":7537,"acle":7538,"Ġintervention":7539,"Ġsurveys":7540,"Ġdies":7541,"Ġmcc":7542,"Ġgop":7543,"Ġforum":7544,"Ġpressures":7545,"Ġbelg":7546,"leum":7547,"Ġsoutheast":7548,"from":7549,"Ġislam":7550,"iffs":7551,"Ġsurveyed":7552,"Ġevaluation":7553,"aked":7554,"Ġslowdown":7555,"Ġshield":7556,"ĠØ¹":7557,"Ġinsure":7558,"Ġintellect":7559,"Ġminds":7560,"Ġfan":7561,"Ġfastest":7562,"Ġrna":7563,"Ġcompete":7564,"Ġconcluded":7565,"olit":7566,"Ġcooper":7567,"Ġble":7568,"store":7569,"Ġchampion":7570,"Ġarrangements":7571,"Ġdrives":7572,"Ġibm":7573,"Ġborrowing":7574,"Ġsteve":7575,"backs":7576,"Ġnotably":7577,"Ġreductions":7578,"Ġcarrier":7579,"Ġcapit":7580,"Ġaw":7581,"Ġjurisd":7582,"ira":7583,"Ġcrises":7584,"olson":7585,"Ġsubmit":7586,"Ġifrs":7587,"orrow":7588,"Ġwatched":7589,"Ġazer":7590,"Ġforest":7591,"html":7592,"Ġgig":7593,"Ġstuck":7594,"Ġdynamic":7595,"Ġrevol":7596,"Ã§Ã£o":7597,"Ġtrusted":7598,"Ġswitzerland":7599,"Ġwebsites":7600,"Ġtally":7601,"ooth":7602,"Ġdoubled":7603,"Ġassembly":7604,"Ġsyst":7605,"Ġsteep":7606,"Ġdav":7607,"Ġprosecut":7608,"Ġfrontline":7609,"Ġwholes":7610,"Ġtheory":7611,"Ġdeficit":7612,"oth":7613,"Ġcurb":7614,"Ġdevastating":7615,"Ġformal":7616,"search":7617,"Ġdispro":7618,"Ġduty":7619,"Ġqualified":7620,"Ġsurvival":7621,"Ġabsence":7622,"ei":7623,"omed":7624,"oked":7625,"eth":7626,"Ġgradually":7627,"Ġdismiss":7628,"bai":7629,"iang":7630,"Ġhes":7631,"neum":7632,"Ġadap":7633,"Ġast":7634,"Ġbattery":7635,"Ġcrash":7636,"Ġbrian":7637,"Ġillustr":7638,"Ġvoted":7639,"Ġmonkey":7640,"Ġgovernors":7641,"ctional":7642,"ulative":7643,"Ġcritics":7644,"uls":7645,"Ġadequate":7646,"Ġwash":7647,"Ġwindows":7648,"contin":7649,"ando":7650,"bd":7651,"pdf":7652,"Ġpak":7653,"Ġrepresented":7654,"Ġcontam":7655,"Ġrealize":7656,"inating":7657,"Ġmodest":7658,"Ġsubstantially":7659,"Ġbehalf":7660,"Ġpetroleum":7661,"effect":7662,"Ġcontributions":7663,"zen":7664,"Ġships":7665,"Ġemotional":7666,"Ġresearchandmarkets":7667,"Ġadvisors":7668,"Ġpollution":7669,"Ġintangible":7670,"Ġonset":7671,"Ġrans":7672,"Ġreleases":7673,"Ġ92":7674,"Ġrobots":7675,"Ġhi":7676,"Ġforg":7677,"Ġrepurch":7678,"obile":7679,"oper":7680,"Ġpence":7681,"Ġflying":7682,"Ġcub":7683,"riend":7684,"Ġlimitations":7685,"ï¼":7686,"Ġwebcast":7687,"Ġemployer":7688,"Ġfalls":7689,"Ġinequality":7690,"Ġcurrencies":7691,"Ġnan":7692,"Ġwarn":7693,"Ġvalued":7694,"Ġtomorrow":7695,"Ġdisclosed":7696,"ighter":7697,"Ġiraq":7698,"Ġmunicip":7699,"Ġfranch":7700,"fir":7701,"Ġhardest":7702,"Ġscar":7703,"Ġbehaviour":7704,"iva":7705,"á»":7706,"84":7707,"Ġrow":7708,"Ġmemory":7709,"ensed":7710,"Ġazerbai":7711,"Ġhack":7712,"Ġprint":7713,"Ġyahoo":7714,"nd":7715,"Ġbasket":7716,"Ġinev":7717,"Ġvalley":7718,"Ġsachs":7719,"Ġreviewed":7720,"Ã¡s":7721,"iser":7722,"Ġraces":7723,"Ġacknowledged":7724,"Ġabandon":7725,"Ġvenues":7726,"Ġtherapies":7727,"Ġmarine":7728,"Ġrecruit":7729,"Ġsuit":7730,"Ġplas":7731,"Ġtaylor":7732,"Ġfoss":7733,"Ġpneum":7734,"Ġconvert":7735,"Ġtelehealth":7736,"Ġexplos":7737,"Ġfurlough":7738,"Ġdisproportion":7739,"Ġboss":7740,"Ġoffshore":7741,"Ġcompound":7742,"Ġretain":7743,"Ġdar":7744,"Ġentrepreneurs":7745,"Ġpra":7746,"Ġads":7747,"Ġsupermar":7748,"this":7749,"Ġprominent":7750,"Ġproteins":7751,"Ġdeemed":7752,"Ġenorm":7753,"Ġpilot":7754,"Ġ700":7755,"Ġsigning":7756,"51":7757,"Ġstephen":7758,"Ġbarr":7759,"Ùī":7760,"Ġseverely":7761,"Ġsettlement":7762,"herent":7763,"Ġlisting":7764,"ventions":7765,"Ġflags":7766,"rary":7767,"96":7768,"Ġbbc":7769,"Ġloyal":7770,"Ġpurchased":7771,"52":7772,"ui":7773,"Ġax":7774,"Ġ93":7775,"Ġindicators":7776,"aire":7777,"Ġdefend":7778,"Ġmaintained":7779,"Ġaccum":7780,"Ġdefault":7781,"ĠÙģÙĬ":7782,"Ġlabs":7783,"Ġjournalism":7784,"Ġcomplications":7785,"Ġhitting":7786,"anges":7787,"wal":7788,"Ġproved":7789,"Ġhero":7790,"specific":7791,"ÂŃ":7792,"Ġneuro":7793,"Ġbroadly":7794,"invest":7795,"Ġfluct":7796,"ican":7797,"Ġsolve":7798,"Ġdiss":7799,"Ġcreates":7800,"Ġlaunches":7801,"ulating":7802,"letters":7803,"Ġtum":7804,"Ġmeals":7805,"iami":7806,"Ġweighted":7807,"Ġshortly":7808,"Ġillegal":7809,"Ġrespective":7810,"Ġsociet":7811,"Ġmarc":7812,"Ġinterventions":7813,"Ġannually":7814,"Ġintellectual":7815,"Ġequities":7816,"opl":7817,"isure":7818,"Ġnbs":7819,"Ġhan":7820,"Ġconspir":7821,"Ġpair":7822,"ido":7823,"Ġbatt":7824,"Ġholidays":7825,"Ġdispar":7826,"Ġcum":7827,"Ġtip":7828,"Ġdelhi":7829,"Ġlinks":7830,"yst":7831,"osen":7832,"Ġsituations":7833,"Ġresistance":7834,"Ġbrut":7835,"Ġbubble":7836,"Ġexamples":7837,"Ġtied":7838,"fi":7839,"ora":7840,"Ġdeployment":7841,"Ġhardware":7842,"Ġplacebo":7843,"Ġaddressed":7844,"beat":7845,"Ġlows":7846,"Ġquiet":7847,"Ġdiplom":7848,"Ġepic":7849,"eland":7850,"Ġcannabis":7851,"Ġinput":7852,"Ġhouston":7853,"×ľ":7854,"Ġelectronics":7855,"Ġdates":7856,"Ġcontinent":7857,"Ġdiscre":7858,"Ġbegins":7859,"Ġactors":7860,"irds":7861,"Ġye":7862,"Ġmarketplace":7863,"Ġcoach":7864,"uits":7865,"Ġamended":7866,"lie":7867,"Ġsomewhat":7868,"Ġdifficulties":7869,"73":7870,"Ġdisrupt":7871,"Ġaccelerating":7872,"clin":7873,"inding":7874,"Ġdetention":7875,"Ġstudied":7876,"Ġinteraction":7877,"dep":7878,"bar":7879,"Ġdining":7880,"Ġformat":7881,"Ġokay":7882,"Ġcomply":7883,"interest":7884,"zo":7885,"Ġconfirmation":7886,"case":7887,"Ġproper":7888,"Ġmuslim":7889,"Ġ000":7890,"Ġserves":7891,"Ġhonest":7892,"idency":7893,"Ġisraeli":7894,"Ġtik":7895,"Ġcomplicated":7896,"Ġresurg":7897,"Ġdiagnosed":7898,"desivir":7899,"cd":7900,"Ġransom":7901,"Ġvendor":7902,"Ġfisher":7903,"hentic":7904,"Ġmosc":7905,"march":7906,"lyn":7907,"Ġsho":7908,"Ġhurric":7909,"itt":7910,"Ġgh":7911,"Ġfurn":7912,"Ġsteven":7913,"Ġstations":7914,"Ġgreg":7915,"Ġ2024":7916,"Ġpeer":7917,"Ġtalked":7918,"Ġspecialist":7919,"Ġ91":7920,"Ġdepartments":7921,"Ġprohib":7922,"Ġsubmitted":7923,"isting":7924,"600":7925,"wis":7926,"ĠÐº":7927,"aph":7928,"Ġhelpful":7929,"Ġtelephone":7930,"mates":7931,"Ġresponding":7932,"ĠØ§ÙĦÙħ":7933,"Ġohio":7934,"Ġfilms":7935,"Ġbreakthrough":7936,"Ġnewsletters":7937,"Ġmuscle":7938,"Ġsir":7939,"Ġwors":7940,"Ġcertific":7941,"Ġblockchain":7942,"Ġcarefully":7943,"Ġow":7944,"Ġbare":7945,"Ġsurging":7946,"Ġentit":7947,"Ġsounds":7948,"Ġenvironments":7949,"Ġshell":7950,"Ġshifting":7951,"Ġbusy":7952,"Ġreferred":7953,"post":7954,"Ġ130":7955,"oral":7956,"Ġsuffer":7957,"oqu":7958,"Ġpu":7959,"uant":7960,"Ġindirect":7961,"Ġmoun":7962,"pan":7963,"Ġaqu":7964,"Ġmacron":7965,"Ġpulled":7966,"Ġlie":7967,"Ġsel":7968,"vard":7969,"Ġlifest":7970,"Ġrefund":7971,"Ġhopefully":7972,"Ġanonym":7973,"Ġreferring":7974,"vals":7975,"Ġmiami":7976,"Ġpersons":7977,"Ġprofitable":7978,"Ġmoscow":7979,"Ġremdesivir":7980,"Ġdiscip":7981,"Ġfunded":7982,"Ġinnovations":7983,"Ġages":7984,"Ġentr":7985,"Ġcorner":7986,"Ġfossil":7987,"Ġcounties":7988,"Ġcharity":7989,"Ġtank":7990,"Ġdefinition":7991,"Ġintend":7992,"Ġcapitol":7993,"Ġtrigger":7994,"Ġtypical":7995,"Ġmt":7996,"Ġscrut":7997,"Ġbreath":7998,"Ġsatell":7999,"Ġpicks":8000,"Ġprince":8001,"Ġtables":8002,"Ġexit":8003,"stone":8004,"llers":8005,"Ġassume":8006,"Ġdefe":8007,"bourne":8008,"Ġtemperatures":8009,"Ġpoland":8010,"Ġppp":8011,"Ġatm":8012,"Ġvig":8013,"Ø§ÙĨ":8014,"Ġshouldn":8015,"Ġcv":8016,"Ġgat":8017,"aka":8018,"Ġshipments":8019,"Ġcrop":8020,"Ġpause":8021,"Ġcolumbia":8022,"Ġgulf":8023,"Ġtier":8024,"Ġgod":8025,"Ġsaving":8026,"Ġballots":8027,"research":8028,"Ġinventories":8029,"war":8030,"Ġauthentic":8031,"Ġnbsp":8032,"Ġslowing":8033,"Ġdivided":8034,"Ġpill":8035,"Ġhat":8036,"gets":8037,"Ġron":8038,"Ġstanley":8039,"Ġwarehouse":8040,"Ġthreatened":8041,"Ġdiscrimination":8042,"Ġinquir":8043,"commun":8044,"Ġlikelihood":8045,"Ġincorporated":8046,"apol":8047,"Ġunp":8048,"Ġappointed":8049,"backed":8050,"Ġpanic":8051,"Ġbroker":8052,"ila":8053,"Ġdiam":8054,"Ġfavorable":8055,"Ġblame":8056,"Ġadj":8057,"onic":8058,"Ġinteractions":8059,"Ġvisual":8060,"Ġexception":8061,"acies":8062,"Ġsemiconductor":8063,"Ġingredients":8064,"my":8065,"Ġjpm":8066,"Ġproposals":8067,"pret":8068,"Ġjournalist":8069,"fs":8070,"Ġtournament":8071,"mond":8072,"Ġelectr":8073,"Ġallegations":8074,"Ġcookies":8075,"ati":8076,"Ġnobody":8077,"Ġpursuant":8078,"Ġpcr":8079,"Ġrecommends":8080,"Ġeased":8081,"Ġallocation":8082,"Ġpublis":8083,"opharm":8084,"col":8085,"isms":8086,"Ġstag":8087,"Ġleases":8088,"Ġtheme":8089,"Ġsimpl":8090,"etime":8091,"Ġhouses":8092,"Ġboosted":8093,"oster":8094,"Ġtact":8095,"uru":8096,"Ġkh":8097,"Ġacademy":8098,"Ġdre":8099,"Ġtrop":8100,"Ġdemograp":8101,"Ġtips":8102,"Ġsnow":8103,"Ġmultim":8104,"Ġstressed":8105,"Ġyuan":8106,"Ġbroken":8107,"Ġmessaging":8108,"Ġfacilitate":8109,"ole":8110,"Ġleisure":8111,"irt":8112,"Ġarts":8113,"empts":8114,"Ġprecautions":8115,"Ġantiviral":8116,"Ġarmed":8117,"Ġannouncing":8118,"Ġafghanistan":8119,"Ġstyle":8120,"Ġpositioned":8121,"Ġnigeria":8122,"bp":8123,"Ġemir":8124,"Ġdrawn":8125,"Ġallocated":8126,"akh":8127,"Ġsurg":8128,"Ġadvisor":8129,"Ġdeterior":8130,"Ġopposed":8131,"Ġclinic":8132,"Ġegypt":8133,"Ġatlanta":8134,"Ġrhe":8135,"Ġovercome":8136,"Ġmanufacturer":8137,"Ġlimiting":8138,"Ġwipes":8139,"Ġjack":8140,"Ġdeeper":8141,"asters":8142,"unction":8143,"Ġfallout":8144,"service":8145,"Ġinstrument":8146,"Ġappointment":8147,"Ġpressing":8148,"Ġdiscoun":8149,"Ġcharacteristics":8150,"mented":8151,"Ġsalary":8152,"Ġeverywhere":8153,"Ġrenewed":8154,"Ġtheaters":8155,"Ġties":8156,"Ġbrazilian":8157,"Ġsab":8158,"Ġpayable":8159,"Ġissuance":8160,"haust":8161,"llor":8162,"Ġfatigue":8163,"Ġsem":8164,"Ġmetals":8165,"Ġpolicymakers":8166,"Ġadjustment":8167,"Ġsuddenly":8168,"Ġdying":8169,",âĢĻ":8170,"Ġsant":8171,"Ġcrimes":8172,"Ġviolent":8173,"Ġkevin":8174,"Ġjew":8175,"Ġarrive":8176,"Ġsoph":8177,"athy":8178,"astrop":8179,"Ġintense":8180,"Ġcow":8181,"Ġsimon":8182,"Ġchoices":8183,"ima":8184,"Ġexpire":8185,"Ġtreating":8186,"Ġshale":8187,"eping":8188,"enter":8189,"Ø¬":8190,"fund":8191,"Ġsponsors":8192,"Ġseeks":8193,"Ġcope":8194,"Ġteaching":8195,"adel":8196,"Ġpreserve":8197,"Ġlake":8198,"Ġparam":8199,"Ġfailing":8200,"ilateral":8201,"71":8202,"Ġnick":8203,"Ġesp":8204,"Ġhesit":8205,"guard":8206,"Ġcares":8207,"oline":8208,"Ġnearby":8209,"rend":8210,"Ġdanger":8211,"Ġunch":8212,"Ġupper":8213,"Ġfootprint":8214,"Ġspin":8215,"Ġpostp":8216,"Ġinstructions":8217,"Ġchatb":8218,"Ġbrook":8219,"Ġrebu":8220,"Ġnbc":8221,"Ġaccuracy":8222,"Ġticket":8223,"Ġvisiting":8224,"Ġsolic":8225,"ih":8226,"hous":8227,"Ġcinem":8228,"Ġstudio":8229,"Ġlibert":8230,"Ġmigration":8231,"Ġinclusive":8232,"Ġexhaust":8233,"Ġcharles":8234,"atories":8235,"otic":8236,"focus":8237,"Ġfaith":8238,"weight":8239,"Ġbound":8240,"foot":8241,"summ":8242,"Ġanc":8243,"Ġtub":8244,"Ġterritor":8245,"Ġhonor":8246,"Ġshifted":8247,"Ġdeposit":8248,"Ġretr":8249,"ologists":8250,"Ġlaunching":8251,"Ġngi":8252,"ror":8253,"Ġpoore":8254,"Ġhs":8255,"Ġpregnant":8256,"izz":8257,"adesh":8258,"top":8259,"Ġforcing":8260,"Ġvillage":8261,"Ġnfl":8262,"Ġperforming":8263,"loroqu":8264,"Ġoutperformed":8265,"Ġintends":8266,"Ġter":8267,"Ġtasks":8268,"Ġattempts":8269,"Ġvisibility":8270,"sized":8271,"63":8272,"Ġfitness":8273,"vereign":8274,"Ġty":8275,"Ġincredibly":8276,"Ķ×":8277,"Ġecho":8278,"Ġsuspected":8279,"Ġpointing":8280,"order":8281,"Ġbeverage":8282,"Ġpledged":8283,"ception":8284,"700":8285,"Ġdemonstrate":8286,"rich":8287,"Ġarchive":8288,"Ġhate":8289,"Ġreverse":8290,"Ġalerts":8291,"amin":8292,"Ġcs":8293,"Ġcongressional":8294,"Ġmalaysia":8295,"Ġontario":8296,"Ġchances":8297,"Ġexcellent":8298,"Ġphilippines":8299,"rooms":8300,"Ġunusual":8301,"Ġphen":8302,"Ġidentifying":8303,"Ġteacher":8304,"Ã¡n":8305,"Ġleaves":8306,"under":8307,"Ġunn":8308,"Ġremark":8309,"Ġregime":8310,"Ġliver":8311,"eter":8312,"Ġdistricts":8313,"loroquine":8314,"ĠÐ´":8315,"Ġindicates":8316,"Ġdutch":8317,"Ġelevated":8318,"Ġseed":8319,"Ġcollections":8320,"Ġemployed":8321,"Ġisolated":8322,"Ġprotocol":8323,"Ġcontents":8324,"umer":8325,"Ġseasonal":8326,"Ġjoseph":8327,"cop":8328,"Ġmode":8329,"Ġdiagnostics":8330,"Ġprogrammes":8331,"ette":8332,"Ġdefence":8333,"Ġrefugees":8334,"Ġinjury":8335,"Ġwelf":8336,"Ġkinds":8337,"Ġhoped":8338,"Ġkat":8339,"test":8340,"Ġlived":8341,"Ġsubstit":8342,"Ġdependent":8343,"Ġmelbourne":8344,"Ġsystemic":8345,"Ġfocuses":8346,"Ġconsent":8347,"ante":8348,"pal":8349,"Ġvolatile":8350,"Ġtiktok":8351,"Ġmere":8352,"Ġunderway":8353,"Ġdestroy":8354,"Ġbookings":8355,"Ġwholesale":8356,"Ġ1990":8357,"Ġfuels":8358,"Ġdesire":8359,"Ġarchitecture":8360,"Ġcatastrop":8361,"Ġdim":8362,"Ġparticipating":8363,"Ġvisa":8364,"Ġwelfare":8365,"Ġhandful":8366,"Ġah":8367,"âĢĭ":8368,"Ø·":8369,"Ġchile":8370,"Ġplasma":8371,"72":8372,"Ġtons":8373,"Ġhu":8374,"igenous":8375,"pg":8376,"Ġwalking":8377,"Ġprolong":8378,"Ġcontainerid":8379,"phones":8380,"Ġsovereign":8381,"Ġtraveling":8382,"Ġconspiracy":8383,"Ġknowing":8384,"Ġhits":8385,"Ġclothing":8386,"Ġfeatured":8387,"Ġattended":8388,"Ġofficially":8389,"Ġcorporations":8390,"kin":8391,"Ġchancellor":8392,"Ġevac":8393,"Ġintermedi":8394,"Ġhomeless":8395,"hus":8396,"Ġresign":8397,"Ġtrem":8398,"Ġnutrition":8399,"Ġcos":8400,"Ġreplic":8401,"Ġexperiment":8402,"Ġted":8403,"nology":8404,"Ġeating":8405,"Ġtriggered":8406,"Ġlawyer":8407,"Ġmerc":8408,"Ġpursue":8409,"mann":8410,"iger":8411,"Ġfields":8412,"Ġcourses":8413,"74":8414,"Ġsubur":8415,"Ġobjective":8416,"Ġmigrant":8417,"Ġinteract":8418,"Ġiot":8419,"Ġkent":8420,"etts":8421,"Ġtopic":8422,"Ġrolled":8423,"61":8424,"Ġadmissions":8425,"Ġdisrupted":8426,"inson":8427,"Ġimpose":8428,"hour":8429,"reshold":8430,"ilead":8431,"dam":8432,"Ġnative":8433,"election":8434,"Ġportfolios":8435,"Ġslowed":8436,"Ġpure":8437,"dose":8438,"Ġfunctions":8439,"rian":8440,"isive":8441,"âĦ":8442,"iones":8443,"Ġliv":8444,"Ġmorrison":8445,"Ġconsistently":8446,"ensions":8447,"Ġviewed":8448,"ä¸":8449,"Ġftse":8450,"Ġstepped":8451,"Ġexciting":8452,"Ġenormous":8453,"Ġtraject":8454,"Ġwinners":8455,"page":8456,"Ġrestrict":8457,"Ġthreshold":8458,"ÙĬÙĨ":8459,"Ġdesk":8460,"Ġstructures":8461,"Ġpicked":8462,"bean":8463,"Ġargue":8464,"achus":8465,"Ġstone":8466,"Ġmn":8467,"Ġmale":8468,"Ġenfor":8469,"Ġsurgery":8470,"Ġhaz":8471,"tering":8472,"Ġlatter":8473,"achusetts":8474,"Ġincentives":8475,"Ġpostpone":8476,"Ġproperly":8477,"Ġtrades":8478,"Ġdna":8479,"aza":8480,"idad":8481,"Ġbengal":8482,"aug":8483,"Ġdans":8484,"Ð¼":8485,"Ġphysician":8486,"uda":8487,"Ġcamera":8488,"Ġheadquarters":8489,"Ġreck":8490,"Ġmobil":8491,"iful":8492,"lon":8493,"2024":8494,"Ġqueen":8495,"cnn":8496,"Ġtaste":8497,"di":8498,"Ġdiversityinc":8499,"Ġcontributing":8500,"Ġabortion":8501,"Ġwins":8502,"Ġrot":8503,"Ġadam":8504,"Ġspeaker":8505,"icious":8506,"Ġrivals":8507,"Ġthor":8508,"Ġgrapp":8509,"Ġunions":8510,"Ġgaps":8511,"Ġprecise":8512,"Ġ110":8513,"Ġincentive":8514,"Ġgreece":8515,"Ġmusk":8516,"Ġartists":8517,"Ġconnectivity":8518,"Ġmovements":8519,"%).":8520,"Ġsurgical":8521,"Ġexceptional":8522,"Ġtrace":8523,"Ġdebut":8524,"Ġshed":8525,"Ġsurviv":8526,"Ġbreach":8527,"Ġunlock":8528,"Ġlies":8529,"Ġodds":8530,"Ġvon":8531,"Ġnomine":8532,"Ġislands":8533,"62":8534,"Ġborrowers":8535,"Ġepisode":8536,"Ġconnections":8537,"Ġmassachusetts":8538,"Ġaccr":8539,"Ġrejected":8540,"Ġsid":8541,"Ġharvard":8542,"Ġsyndicate":8543,"stock":8544,"Ġrelation":8545,"Ġsanders":8546,"ospace":8547,"Ġinherent":8548,"Ġattending":8549,"Ġgav":8550,"Ġenabled":8551,"Ġtherapeutic":8552,"Ġcolomb":8553,"Ġmethodology":8554,"Ġhamp":8555,"Ġgraphic":8556,"ram":8557,"Ġhunt":8558,"enez":8559,"Ġvessels":8560,"Ġindigenous":8561,"81":8562,"ansas":8563,"Ġstars":8564,"Ġresurgence":8565,"Ġdisabilities":8566,"govern":8567,"Ġdecent":8568,"Ġmes":8569,"Ġroads":8570,"Ġarriving":8571,"Ġlocked":8572,"Ġconstruct":8573,"Ġnord":8574,"lif":8575,"Ġfavorite":8576,"Ġbip":8577,"Ġtwenty":8578,"Ġrsquo":8579,"Ġfib":8580,"82":8581,"Ġjord":8582,"focused":8583,"Ġcondensed":8584,"Ġdirected":8585,"Ġdigit":8586,"Ġrecommendation":8587,"Ġkir":8588,"Ġpreparation":8589,"Ġrecovering":8590,"bul":8591,"Ġturns":8592,"aham":8593,"Ġcc":8594,"oking":8595,"zone":8596,"Ġampl":8597,"gry":8598,"Ġwhit":8599,"cash":8600,"oning":8601,"mt":8602,"Ġimportantly":8603,"Ġmechanism":8604,"Ġguy":8605,"Ġcataly":8606,"urally":8607,"Ġlinkedin":8608,"Ġtab":8609,"Ġimf":8610,"Ġbacklog":8611,"Ġsafer":8612,"Ġess":8613,"Ġray":8614,"businesswire":8615,"Ġaccom":8616,"Ġintroduce":8617,"Ġkelly":8618,"ylum":8619,"ilton":8620,"Ġgp":8621,"Ġsoared":8622,"Ġobst":8623,"rection":8624,"Ġtrucks":8625,"Ġpattern":8626,"Ġguys":8627,"Ġfeedback":8628,"Ġempowering":8629,"Ġherein":8630,"Ġlawsuit":8631,"Ġott":8632,"uma":8633,"âĦ¢":8634,"Ġoverwhelming":8635,"Ġpakistan":8636,"donald":8637,"Ġnu":8638,"Ġgolf":8639,"ofi":8640,"Ġunderstood":8641,"Ġpieces":8642,"Ġpent":8643,"Ġexecution":8644,"Ġutility":8645,"Ġinterpret":8646,"Ġcorresponding":8647,"Ġhr":8648,"Ġcontem":8649,"ecd":8650,"Ġlev":8651,"Ġdestr":8652,"Ġscene":8653,"Ġsouthwest":8654,"83":8655,"................................................................":8656,"Ġwet":8657,"Ġabsent":8658,"Ġlifting":8659,"Ġachieving":8660,"Ġquantitative":8661,"Ġrush":8662,"Ġevaluating":8663,"friend":8664,"Ġpropri":8665,"Ġreputation":8666,"Ġamazing":8667,"Ġhung":8668,"Ġraises":8669,"pet":8670,"Ġalternatives":8671,"âĢ¢":8672,"Ġaccordingly":8673,"Ġsuspect":8674,"Ġceremony":8675,"Ġaccompl":8676,"Ġmoments":8677,"Ġsyria":8678,"Ġvertical":8679,"Ġlifestyle":8680,"Ġambit":8681,"ackson":8682,"Ġreforms":8683,"Ġpreced":8684,"Ġwine":8685,"Ġws":8686,"Ġazerbaijan":8687,"Ġgasoline":8688,"Ġcontinuously":8689,"Ġrecept":8690,"Ġconstantly":8691,"Ġtoler":8692,"Ġtrick":8693,"Ġcapable":8694,"Ġimplied":8695,"Ġreactions":8696,"Ġ1995":8697,"Ġshutdowns":8698,"Ġwarrant":8699,"Ġencoun":8700,"Ġspectrum":8701,"20200":8702,"Ġuae":8703,"gar":8704,"Ġgrab":8705,"Ġfrequent":8706,"Ġdispl":8707,"Ġletters":8708,"Ġbh":8709,"Ġincredible":8710,"aska":8711,"ingu":8712,"Ġinvolves":8713,"Ġstatistical":8714,"Ġsurprised":8715,"Ġbacter":8716,"Ġmatthe":8717,"Ġaccessibility":8718,"Ġ2007":8719,"Ġscientist":8720,"Ãł":8721,"Ġinspired":8722,"Ġspokeswoman":8723,"Ġbull":8724,"Ġoutlets":8725,"Ġjonathan":8726,"ocur":8727,"Ġgiants":8728,"losi":8729,"consin":8730,"Ġextending":8731,"worthy":8732,"Ġhire":8733,"Ġwarnings":8734,"Ġreads":8735,"Ġsmartphone":8736,"Ġscores":8737,"Ġcommunicate":8738,"Ġpad":8739,"Ġhorizon":8740,"Ġexcluded":8741,"cles":8742,"Ġhosted":8743,"Ġpicking":8744,"oh":8745,"py":8746,"Ġfer":8747,"Ġfinances":8748,"Ġcontinuous":8749,"abeth":8750,"ancies":8751,"dog":8752,"arel":8753,"Ġnasa":8754,"president":8755,"Ġvisited":8756,"Ġpassing":8757,"Ġward":8758,"Ġpresidency":8759,"Ġmountain":8760,"Ġports":8761,"ŀ×":8762,"Ġvit":8763,"tax":8764,"Ġgilead":8765,"Ġfabric":8766,"Ġtremend":8767,"Ġransomware":8768,"Ġpneumonia":8769,"Ġjam":8770,"Ġ09":8771,"Ġvoluntary":8772,"Ġdiamond":8773,"Ġhay":8774,"Ġeliz":8775,"Ġprevalence":8776,"Ġadvisers":8777,"Ġplanes":8778,"Ġicu":8779,"mail":8780,"odes":8781,"Ġdistribute":8782,"but":8783,"step":8784,"Ġecb":8785,"del":8786,"Ġimpacting":8787,"Ġweaker":8788,"Ġambitious":8789,"Ġemails":8790,"eted":8791,"ĠÑ":8792,"Ġadvances":8793,"fc":8794,"Ġcryptocur":8795,"Ġmultimedia":8796,"Ġbarbara":8797,"hum":8798,"uting":8799,"Ġcounts":8800,"emption":8801,"Ġmiller":8802,"Ġrises":8803,"agen":8804,"Ġscan":8805,"linker":8806,"Ġanalyze":8807,"Ġemirates":8808,"Ãª":8809,"Ġjen":8810,"aki":8811,"Ġsuspension":8812,"arity":8813,"Ġcourts":8814,"emia":8815,"Ġtransf":8816,"Ġpand":8817,"otyp":8818,"Ġoral":8819,"Ġcontaining":8820,"Ġbeer":8821,"Ġtrib":8822,"Ġprompting":8823,"Ġ180":8824,"Ġresearcher":8825,"Ġyel":8826,"ito":8827,"Ġgaining":8828,"Ġsummar":8829,"anth":8830,"Ġselection":8831,"paid":8832,"ji":8833,"Ġtrained":8834,"Ġpermitted":8835,"Ġpalest":8836,"Ġcelebrate":8837,"Ġpound":8838,"Ġjoy":8839,"Ġpromoting":8840,"atar":8841,"Ġamericas":8842,"Ġfake":8843,"Ġpelosi":8844,"Ġcriticized":8845,"Ġgates":8846,"Ġclimb":8847,"Ġwisconsin":8848,"Ġutilities":8849,"opol":8850,"arr":8851,"Ġlikes":8852,"clinical":8853,"Ġasylum":8854,"Ġconsists":8855,"Ġmisleading":8856,"Ġtroops":8857,"fire":8858,"doi":8859,"alle":8860,"Ġpatent":8861,"Ġslower":8862,"Ġcurbs":8863,"Ġcareful":8864,"Ġarms":8865,"Ġattributed":8866,"91":8867,"Ġcontraction":8868,"Ġsher":8869,"Ġjpmorgan":8870,"Ġnotable":8871,"Ġbutton":8872,"Ġseattle":8873,"Ġgarden":8874,"bro":8875,"olsonaro":8876,"Ġinfecting":8877,"Ð¾Ð»":8878,"heim":8879,"agon":8880,"Ġtravellers":8881,"Ġchristian":8882,"erman":8883,"Ġcompeting":8884,"Ġpione":8885,"Ġportug":8886,"Ġregulator":8887,"Ġindoors":8888,"Ġbaseline":8889,"Ġprotections":8890,"Ġcommentaries":8891,"Ġurging":8892,"Ã©r":8893,"Ġreplaced":8894,"inting":8895,"Ġug":8896,"Ġcart":8897,"rell":8898,"Ġinteractive":8899,"ovic":8900,"Ġfilled":8901,"Ġactor":8902,"Ġchosen":8903,"vo":8904,"ceived":8905,"Ġapartment":8906,"Ġnonprofit":8907,"Ġlean":8908,"larg":8909,"Ġdefine":8910,"Ġcommodities":8911,"Ġmolecular":8912,"Ġranging":8913,"Ġlawyers":8914,"Ġbrus":8915,"hester":8916,"Ġnorway":8917,"Ġclarity":8918,"Ġjackson":8919,"gbt":8920,"Ġpatrick":8921,"Ġwellness":8922,"Ġng":8923,"Ġmp":8924,"Ġantigen":8925,"Ġsynthe":8926,"Ġreceivables":8927,"Ġpoised":8928,"ĠÙħÙĨ":8929,"Ñİ":8930,"Ġlewis":8931,"Ġplunged":8932,"Ġphd":8933,"Ġwriter":8934,"Ġdrew":8935,"Ġannivers":8936,"Ġaerospace":8937,"Ġtear":8938,"Ġcalculations":8939,"uated":8940,"Ġwang":8941,"Ġphones":8942,"Ġtariffs":8943,"Ġstretch":8944,"Ġgathered":8945,"Ġnewswire":8946,"Ġvoc":8947,"amer":8948,"Ġbudgets":8949,"Ġcapability":8950,"Ġvaluations":8951,"Ġadvertise":8952,"may":8953,"Ġscand":8954,"Ġpersonalized":8955,"otherap":8956,"Ġbanc":8957,"Ġtrajectory":8958,"Ġatlantic":8959,"iti":8960,"iture":8961,"Ġmutual":8962,"Ġstayed":8963,"Ġalb":8964,"Ġkilomet":8965,"biontech":8966,"bes":8967,"Ġtiss":8968,"card":8969,"Ġcontroversial":8970,"Ġ2026":8971,"Ġroche":8972,"Ġsocially":8973,"Ġbolsonaro":8974,"Ġtenants":8975,"Ġcontributor":8976,"Ġdestination":8977,"Ġentity":8978,"Ġwebin":8979,"Ġveteran":8980,"cut":8981,"Ġdc":8982,"Ġbever":8983,"lu":8984,"ÐµÑĢ":8985,"Ġstockp":8986,"Ġrecall":8987,"kish":8988,"Ġstead":8989,"Ġimpressive":8990,"Ġgotten":8991,"she":8992,"Ġtransmiss":8993,"Ġcrowded":8994,"Ġkeeps":8995,"lan":8996,"Ġchaos":8997,"Ġseam":8998,"Ġconventional":8999,"ãĥ":9000,"Ġbelong":9001,"ĠÐ¿ÑĢ":9002,"je":9003,"Ġwhereas":9004,"Ġdire":9005,"Ġcorn":9006,"Ã©e":9007,"Ġoutdoors":9008,"Ġmoody":9009,"Ġbetting":9010,"Ġbath":9011,"Ġtelecom":9012,"Ġpublishing":9013,"Ġmanc":9014,"Ġventilation":9015,"Ġlaboratories":9016,"Ġcamps":9017,"Ġdiscretion":9018,"Ġwellbeing":9019,"Ġexpenditure":9020,"Ġabbott":9021,"Ġproceedings":9022,"Ġetfs":9023,"Ġreplay":9024,"Ġhospitalization":9025,"Ġheaded":9026,"Ġcluster":9027,"Ġnba":9028,"thirds":9029,"Ġballot":9030,"Ġcontagious":9031,"Ġcure":9032,"Ġaccessing":9033,"not":9034,"Ġclinics":9035,"gel":9036,"Ġtechniques":9037,"lord":9038,"Ġterminal":9039,"Ġpromotions":9040,"Ġfulfill":9041,"winds":9042,"Ġknock":9043,"reen":9044,"summary":9045,"vey":9046,"Ġformed":9047,"Ġlam":9048,"Ġexempt":9049,"Ġroutes":9050,"Ġreserv":9051,"Ġsignals":9052,"Ġmatches":9053,"enture":9054,"Ġpremarket":9055,"Ġ125":9056,"Ġhalted":9057,"Ġgoodwill":9058,"Ġpermit":9059,"american":9060,"Ġchips":9061,"Ġmerck":9062,"ova":9063,"digit":9064,"isse":9065,"communic":9066,"Ġ''),":9067,"Ġsupplemental":9068,"Ġsd":9069,"Ġwarns":9070,"Ġanniversary":9071,"growing":9072,"Ġmps":9073,"Ġpandemics":9074,"cost":9075,"Ġacts":9076,"Ġshaping":9077,"Ġcamer":9078,"Ġfant":9079,"Ġhurricane":9080,"Ġaiming":9081,"Ġmexican":9082,"Ġreveals":9083,"Ġdisclaimer":9084,"abled":9085,"Ġsensors":9086,"nered":9087,"Ġsister":9088,"Ġpending":9089,"Ġvenez":9090,"ĠrÃ©":9091,"Ġguided":9092,"Ġsanofi":9093,"Ġideal":9094,"Ġdealers":9095,"Ġjordan":9096,"Ġfranchise":9097,"Ġoverwhelmed":9098,"Ġ900":9099,"Ġsaved":9100,"Ãµ":9101,"Ġjab":9102,"ocol":9103,"Ġchen":9104,"Ġquarantined":9105,"Ġdesperately":9106,"four":9107,"Ġrh":9108,"Ġkitchen":9109,"Ġincurred":9110,"Ġfool":9111,"Ġbaker":9112,"avor":9113,"Ġactivist":9114,"itr":9115,"Ġinvestigations":9116,"Ġelizabeth":9117,"edited":9118,"Ġcompare":9119,"Ġatmosp":9120,"Ġtoug":9121,"omin":9122,"Ġambass":9123,"Ġhug":9124,"Ġforget":9125,"Ġchamber":9126,"Ġbooking":9127,"Ġpredictions":9128,"Ġindication":9129,"Ġminute":9130,"Ġprogressive":9131,"Ġtitled":9132,"eb":9133,"Ġengineers":9134,"Ġproprietary":9135,"Ġdress":9136,"Ġventilator":9137,"Ġbeating":9138,"Ġconstraints":9139,"Ġphilip":9140,"Ġinflammation":9141,"Ġgut":9142,"icide":9143,"Ġdonations":9144,"Ġpopularity":9145,"Ġsparked":9146,"sup":9147,"olly":9148,"video":9149,"Ġcaps":9150,"Ġmedicare":9151,"Ġexperimental":9152,"Ġmilestone":9153,"Ġengaging":9154,"Ġoperated":9155,"Ġros":9156,"Ġnurse":9157,"erate":9158,"Ġfactset":9159,"Ġcarib":9160,"roid":9161,"Ġequally":9162,"owed":9163,"Ġdeserve":9164,"Ġreluct":9165,"Ġring":9166,"Ġtransparent":9167,"ether":9168,"Ġweapons":9169,"Ġ[...":9170,"Ġregen":9171,"Ġcredits":9172,"Ġaven":9173,"Ġembrace":9174,"Ġbelgium":9175,"Ġjosh":9176,"Ġkam":9177,"Ġsmell":9178,"Ġfunctional":9179,"Ġunderwr":9180,"lessly":9181,"Ġcasual":9182,"Ġempower":9183,"Ġanalyzed":9184,"group":9185,"late":9186,"inf":9187,"Ġrecognised":9188,"inter":9189,"Ġeliminate":9190,"Ġindicator":9191,"Ġnsw":9192,"Ġindexes":9193,"Ġlegit":9194,"apolis":9195,"Ġcaf":9196,"table":9197,"93":9198,"lad":9199,"Ġadoles":9200,"Ġexploring":9201,"Ãµes":9202,"Ġschemes":9203,"Ġbrows":9204,"ÙĦÙī":9205,"Ġincidents":9206,"Ġassurance":9207,"Ġopens":9208,"Ġintelligent":9209,"Ġapplying":9210,"Ġsenators":9211,"Ġlayoffs":9212,"Ġinvestigate":9213,"Ġapprove":9214,"Ġchase":9215,"Ġsporting":9216,"Ġore":9217,"Ġcath":9218,"Ġpp":9219,"Ġeveryday":9220,"Ġvenezuel":9221,"94":9222,"Ġmultip":9223,"Ġdisposal":9224,"Ġ101":9225,"wart":9226,"Ġmetric":9227,"Ġprivile":9228,"Ġbias":9229,"ais":9230,"Ġdescribe":9231,"oton":9232,"Ġnegatively":9233,"fast":9234,"Ġreporter":9235,"Ġassessed":9236,"Ġdas":9237,"Ġmckin":9238,"Ġcontinuity":9239,"Ġalber":9240,"Ġguarantees":9241,"Ġcul":9242,"ĪĴ":9243,"Ġdrawing":9244,"Ġconversion":9245,"Ġpy":9246,"Ġleveraging":9247,"iration":9248,"Ġfatalities":9249,"phy":9250,"Ġawarded":9251,"drop":9252,"Ġthoughts":9253,"Ġlgbt":9254,"Ġclaiming":9255,"tes":9256,"Ð¿":9257,"Ġmarketwatch":9258,"Ġmg":9259,"Ġaccurately":9260,"Ġunrest":9261,"Ã©n":9262,"Ġdrink":9263,"Ġpays":9264,"Ġcolorado":9265,"Ġcontracting":9266,"Ġuptick":9267,"connell":9268,"Ġchemicals":9269,"vis":9270,"def":9271,"Ġsugar":9272,"Ġtotally":9273,"Ġgate":9274,"Ġcancellation":9275,"Ġentitled":9276,"Ġenthus":9277,"Ġfamous":9278,"Ġmurder":9279,"Ġdemanding":9280,"aron":9281,"Ġger":9282,"Ġkeen":9283,"Ġadvocates":9284,"ĠÙĬ":9285,"Ġgeography":9286,"Ġunchanged":9287,"Ġphenom":9288,"Ġcalc":9289,"Ġtoy":9290,"Ġct":9291,"Ġquot":9292,"Ġboosting":9293,"Ġscrutiny":9294,"kshire":9295,"Ġapprovals":9296,"Ġcorruption":9297,"Ġ160":9298,"Ġcautioned":9299,"Ġexplan":9300,"haul":9301,"ibr":9302,"Ġtotaled":9303,"Ġwo":9304,"Ġrum":9305,"Ġholly":9306,"Ġmitigation":9307,"town":9308,"Ġrebuild":9309,"Ġjr":9310,"wei":9311,"Ġagricultural":9312,"opher":9313,"Ġmillenn":9314,"Ġharvest":9315,"Ġwarming":9316,"Ġvariable":9317,"places":9318,"Ġdisch":9319,"Ġautomatically":9320,"bec":9321,"Ġcommand":9322,"Ġprofiles":9323,"Ġbulk":9324,"ibaba":9325,"Ġbush":9326,"Ġdistingu":9327,"Ġsalaries":9328,"ela":9329,"bear":9330,"Ġberlin":9331,"Ġassigned":9332,"Ġvulnerability":9333,"Ġtracks":9334,"Ġconclusion":9335,"Ġheadlines":9336,"Ġunemployed":9337,"first":9338,"ika":9339,"Ġounce":9340,"Ġwarm":9341,"theless":9342,"Ġhyper":9343,"Ġmanchester":9344,"Ġdominant":9345,"ustin":9346,"Ġ350":9347,"Ġsubscribers":9348,"Ġbnt":9349,"icon":9350,"Ġslo":9351,"Ġcumulative":9352,"Ġgolden":9353,"depth":9354,"Ġbounce":9355,"Ġtimeline":9356,"Ġreferen":9357,"Ġpalestin":9358,"Ġescape":9359,"rd":9360,"inton":9361,"Ġfires":9362,"Ġcarn":9363,"oug":9364,"Ġtowns":9365,"Ġreveal":9366,"Ġsooner":9367,"Ġvoices":9368,"site":9369,"Ġdiplomatic":9370,"Ġposed":9371,"Ġearning":9372,"Ġtam":9373,"Ġreject":9374,"cia":9375,"gment":9376,"Ġqueens":9377,"Ġdive":9378,"Ġtumb":9379,"Ġinsurers":9380,"after":9381,"Ġdestinations":9382,"Ġsettled":9383,"core":9384,"Ġdenmark":9385,"Ġcheaper":9386,"Ġlind":9387,"Ġunav":9388,"Ġresolve":9389,"Ġbeliefs":9390,"data":9391,"Ġsymbol":9392,"Ġcontainment":9393,"Ġfinancially":9394,"Ġcollaps":9395,"Ġbranch":9396,"Ġcovax":9397,"Ġappet":9398,"isc":9399,"Ġsight":9400,"Ġdiscontin":9401,"Ġlandlord":9402,"Ġcrown":9403,"Ġemergence":9404,"Ġcogn":9405,"Ġdeveloper":9406,"Ġsimult":9407,"washing":9408,"Ġreward":9409,"Ġbans":9410,"largest":9411,"iking":9412,"Ġ488":9413,"Ġleban":9414,"Ġexhibit":9415,"Ġunveiled":9416,"Ġstrengthening":9417,"Ġcaribbean":9418,"Ġprox":9419,"Ġans":9420,"Ġoppon":9421,"Ġenjoying":9422,"zh":9423,"Ġgrounds":9424,"Ġtremendous":9425,"tim":9426,"Ġdifferently":9427,"Ġruled":9428,"uce":9429,"Ġnevertheless":9430,"Ġtracker":9431,"Ġbiological":9432,"around":9433,"Ð°Ð»":9434,"Ġparticles":9435,"Ġdesignated":9436,"igating":9437,"Ġpassion":9438,"Ġtelegram":9439,"Ġiphone":9440,"Ġtherein":9441,"Ġseparation":9442,"Ġseparately":9443,"Ġflip":9444,"Ġonc":9445,"Ġsimultane":9446,"Ġacid":9447,"Ð¸ÑĤ":9448,"oil":9449,"Ġgift":9450,"Ġrefr":9451,"itud":9452,"ateful":9453,"Ġ},":9454,"Ġexpectation":9455,"Ġnv":9456,"Ġreiter":9457,"Ġprize":9458,"ailing":9459,"iant":9460,"Ġprogramming":9461,"weg":9462,"Ġamounted":9463,"Ġdropping":9464,"Ġgreenhouse":9465,"Ġcommunist":9466,"Ġbob":9467,"Ġapparel":9468,"Ġprolonged":9469,"Ġlocally":9470,"Ġandre":9471,"Ġcompiled":9472,"Ġmcconnell":9473,"Ð°ÑĤ":9474,"Ġfortune":9475,"Ġwireless":9476,"Ġmarsh":9477,"ĠØ¥":9478,"Ġsap":9479,"Ġcomplaints":9480,"ulations":9481,"Ġgenerations":9482,"points":9483,"Ġlyn":9484,"Ġlouisiana":9485,"Ġfolks":9486,"Ġtod":9487,"Ġassessing":9488,"Ġherself":9489,"Ġincidence":9490,"Ġcollectively":9491,"Ġconducting":9492,"illa":9493,"Ġbeautiful":9494,"Ġebola":9495,"held":9496,"Ġrio":9497,"Ġhydroxy":9498,"ĠmÃ¡s":9499,"Ġwarren":9500,"Ð½Ñĭ":9501,"liest":9502,"Ġmeta":9503,"Ġhabits":9504,"Ġintegrate":9505,"ea":9506,"Ġconcert":9507,"inois":9508,"Ġpc":9509,"neys":9510,"Ġbengaluru":9511,"Ġstaffing":9512,"Ġacceptance":9513,"Ġ2003":9514,"Ġhopeful":9515,"Ġwaters":9516,"Ġbiopharm":9517,"ambling":9518,"Ġheightened":9519,"author":9520,"ĠÐ¼":9521,"europe":9522,"Ġcrunch":9523,"ollar":9524,"requ":9525,"umin":9526,"Ġ2006":9527,"Ġpolling":9528,"Ġremun":9529,"generation":9530,"Ã©d":9531,"itiv":9532,"Ġconsolidation":9533,"Ġalibaba":9534,"Ġpersonally":9535,"Ġslipped":9536,"Ġerror":9537,"performing":9538,"tz":9539,"Ġalexander":9540,"Ġrt":9541,"Ġdisag":9542,"Ġbroadband":9543,"Ġsed":9544,"Ġsarah":9545,"Ġwildlife":9546,"Ġtheater":9547,"Ġmembership":9548,"Ġthrow":9549,"Ġcontaminated":9550,"Ġspecialty":9551,"Ġshooting":9552,".'":9553,"Ġkl":9554,"Ġwsj":9555,"Ġmatthew":9556,"Ġphysically":9557,"Ġreplacement":9558,"Ġcbs":9559,"asio":9560,"ishment":9561,"general":9562,"controlled":9563,"olds":9564,"gering":9565,"Ġwalked":9566,"Ġequality":9567,"Ġreth":9568,"Ġconsiderable":9569,"Ġtriple":9570,"Ġtiny":9571,"Ġappointments":9572,"Ġfired":9573,"Ġhydrogen":9574,"Ġrobotics":9575,"Ġfundra":9576,"wall":9577,"astics":9578,"Ġpartial":9579,"Ġadversely":9580,"Ġevolve":9581,"Ġmichel":9582,"Ġchampionship":9583,"Ġconsc":9584,"Ġargument":9585,"Ġlar":9586,"Ġnewsom":9587,"Ġcomo":9588,"chloroquine":9589,"Øµ":9590,"Ġbuck":9591,"Ġdepth":9592,"Ġembed":9593,"Ġmovies":9594,"Ġtransit":9595,"Ġmsc":9596,"ighed":9597,"Ġvest":9598,"Ġpermanently":9599,"Ġterritories":9600,"Ġubs":9601,"mont":9602,"Ġpup":9603,"Ġconsultant":9604,"inn":9605,"Ġups":9606,"Ġ×ĳ":9607,"Ġhua":9608,"Ø§Ø±":9609,"Ġsolidarity":9610,"Ġassuming":9611,"Ġcollaborative":9612,"iel":9613,"icine":9614,"Ġprud":9615,"anche":9616,"Ġswim":9617,"rete":9618,"ationally":9619,"Ġsoaring":9620,"Ġbloc":9621,"Ġcolumn":9622,"Ġbangl":9623,"iencies":9624,"Ġabsor":9625,"Ġultra":9626,"Ġgraduate":9627,"Ġdistress":9628,"Ġminimize":9629,"ĠĠĠĠĠ":9630,"Ġcondem":9631,"Ġassessments":9632,"fold":9633,"Ġjason":9634,"Ġefficiently":9635,"Ġlegislative":9636,"otherapy":9637,"Ġattendance":9638,"aware":9639,"Ġblind":9640,"Ġherd":9641,"high":9642,"Ġtender":9643,"Ġdun":9644,"Ġpitch":9645,"Ġ105":9646,"Ġ×Ķ×":9647,"km":9648,"Ġamendment":9649,"lancet":9650,"Ġsuperior":9651,"Ġtox":9652,"Ġsuspend":9653,"Ġplumm":9654,"Ġexecute":9655,"Ġpages":9656,"enz":9657,"Ġtsx":9658,"ashes":9659,"Ġchick":9660,"raid":9661,"Ø´":9662,"shot":9663,"Ġgenerating":9664,"Ġsellers":9665,"ĠÑĢ":9666,"Ġfluctuations":9667,"âĢĻ,":9668,"Ġinterior":9669,"Ġdistinct":9670,"Ġclassic":9671,"Ġchecking":9672,"ÑĨ":9673,"icted":9674,"Ġdrove":9675,"Ġtree":9676,"Ġsmooth":9677,"92":9678,"ÐµÑĤ":9679,"Ġgrateful":9680,"Ġharass":9681,"Ġforesee":9682,"Ġnomination":9683,"Ġkne":9684,"Ġcontractors":9685,"Ġsatisfaction":9686,"Ġfuneral":9687,"mobile":9688,"Ġinsisted":9689,"Ġstudying":9690,"bnb":9691,"Ġinn":9692,"iner":9693,"Ġsubsequently":9694,"Ġbread":9695,"Ġcalm":9696,"Ġmi":9697,"Ġtracked":9698,"lab":9699,"Ġassault":9700,"Ġbeverages":9701,"Ġgloves":9702,"ella":9703,"Ġcolleges":9704,"mod":9705,"Ġstrains":9706,"Ġpictures":9707,"Ġquart":9708,"Ġhosts":9709,"avax":9710,"Ġhawai":9711,"opin":9712,"acked":9713,"Ġbios":9714,"Ġblocked":9715,"Ġmechanisms":9716,"Ġgon":9717,"Ġbipart":9718,"Ġpromises":9719,"Ġdeleg":9720,"Ġtraditionally":9721,"media":9722,"Ġyang":9723,"Ġyellow":9724,"jet":9725,"Ġtickets":9726,"Ġtermin":9727,"Ġenjoyed":9728,"Ġay":9729,"Ġwitnessed":9730,"Ġaccompany":9731,"Ġcurfe":9732,"Ġthorough":9733,"Ġbrad":9734,"Ġillnesses":9735,"chers":9736,"Ġcounting":9737,"Ġdetained":9738,"Ġspots":9739,"Ġorganizers":9740,"ethe":9741,"Ġclassified":9742,"Ġinstalled":9743,"Ġbeneficial":9744,"Ġapparently":9745,"Ġhydroxychloroquine":9746,"Ġorganized":9747,"Ġwars":9748,"Ġpac":9749,"borne":9750,"comed":9751,"Ġcontrolling":9752,"Ġcitizen":9753,"Ġvoter":9754,"Ġsizes":9755,"udeau":9756,"Ġwealthy":9757,"Ġultimate":9758,"adelph":9759,"Ġinvasion":9760,"Ġwedding":9761,"Ġoversight":9762,"Ġrepair":9763,"Ġbalances":9764,"Ġfederation":9765,"Ġvegas":9766,"Ġfeaturing":9767,"Ġinability":9768,"Ġcurtail":9769,"162":9770,"Ġcardi":9771,"Ġspeaks":9772,"Ġopposite":9773,"Ġaggressively":9774,"Ġaccident":9775,"wegian":9776,"current":9777,"aa":9778,"analy":9779,"Ġhid":9780,"Ġarbit":9781,"Ġconvenience":9782,"demand":9783,"Ġrug":9784,"rett":9785,"Ġproductive":9786,"large":9787,"Ġhumanity":9788,"breaking":9789,"Ġappetite":9790,"adelphia":9791,"Ġcater":9792,"Ġcoupled":9793,"Ġgerms":9794,"Ġtoil":9795,"Ġlith":9796,"Ġmetrop":9797,"Ġliterally":9798,"Ġowing":9799,"Ġafraid":9800,"Ġbomb":9801,"rolog":9802,"Ġlasting":9803,"Ġbump":9804,"Ġcameras":9805,"Ġconfusion":9806,"Ġrelying":9807,"Ġartist":9808,"Ġcertified":9809,"eva":9810,"Ġdeparture":9811,"swire":9812,"Ġregistering":9813,"Ġprosper":9814,"Ġie":9815,"content":9816,"Ġinoc":9817,"Ġrecording":9818,"Ġcrypto":9819,"asc":9820,"orous":9821,"Ġpaus":9822,"Ġdall":9823,"Ġnest":9824,"Ġexpression":9825,"burse":9826,"Ġstance":9827,"Ġpriced":9828,"Ġdivest":9829,"eding":9830,"value":9831,"Ġfrequency":9832,"Ġcad":9833,"Ġrestore":9834,"induced":9835,"Ġveget":9836,"Ð¾Ð´":9837,"Ġoccupancy":9838,"erved":9839,"only":9840,"attan":9841,"Ġtrim":9842,"Ġtennis":9843,"Ġoverl":9844,"Ġsheets":9845,"Ġmos":9846,"Ġbron":9847,"Ġbenefited":9848,"Ġaustria":9849,"Ġmol":9850,"lose":9851,"fit":9852,"Ġcrore":9853,"Ġsubsidies":9854,"Ġexacerbated":9855,"Ġgraph":9856,"ĠÂ¥":9857,"Ġflagship":9858,"Ġmemorial":9859,"Ġrelies":9860,"Ġtent":9861,"Ġjin":9862,"Ġmotors":9863,"Ġnich":9864,"Ġdreams":9865,"Ġabc":9866,"Ġsunak":9867,"ĠÐ±":9868,"Ġmckinsey":9869,"Ġnarrative":9870,"Ð¾ÑĢ":9871,"Ġshadow":9872,"Ġremuneration":9873,"Ġmidst":9874,"Ġ2005":9875,"Ġprinting":9876,"Ġace":9877,"Ġchose":9878,"Ġfarms":9879,"Ġborrowings":9880,"born":9881,"Ġelite":9882,"Ġrallied":9883,"Ġstrip":9884,"Ġexceeded":9885,"Ġconj":9886,"Ġsacr":9887,"Ġagile":9888,"ulture":9889,"Ġcolon":9890,"Ġsams":9891,"found":9892,"dquo":9893,"ipt":9894,"Ġcomputers":9895,"Ġannouncements":9896,"Ġwelcomed":9897,"Ġadvancing":9898,"anmar":9899,"Ġlights":9900,"Ġpose":9901,"Ġbacking":9902,"Ġresumed":9903,"Ġanne":9904,"Ġapolog":9905,"develop":9906,"Ġinvestigating":9907,"Ġgrid":9908,"Ġqualify":9909,"Ġconce":9910,"Ġresponsibilities":9911,"Ġcolombia":9912,"Ġlun":9913,"Ġsurvivors":9914,"Ġstark":9915,"Ġdisorders":9916,"Ġdubai":9917,"Ġjean":9918,"adas":9919,"Ġchristopher":9920,"size":9921,"security":9922,"Ġraj":9923,"Ġrober":9924,"ifer":9925,"Ġmyanmar":9926,"Ġavoiding":9927,"mine":9928,"Ġsne":9929,"Ġillinois":9930,"oto":9931,"Ġlau":9932,"Ġlicensed":9933,"Ġnad":9934,"Ġtrudeau":9935,"Ġcorrel":9936,"Ġfrozen":9937,"Ġindicating":9938,"Ġminimal":9939,"mente":9940,"Ġphiladelphia":9941,"Ġdeliber":9942,"Ġbarg":9943,"Ġ170":9944,"Ġcensus":9945,"×Ķ":9946,"struct":9947,"Ġcatalyst":9948,"Ġbarron":9949,"Ġviolations":9950,"Ġsquad":9951,"Ġrecipients":9952,"Ġbrid":9953,"Ġsymptom":9954,"Ġker":9955,"Ġdisproportionately":9956,"oughed":9957,"Ġairways":9958,"101":9959,"Ġconcrete":9960,"Ġsod":9961,"houses":9962,"Ġadvantages":9963,"Ġtranscript":9964,"900":9965,"Ġanger":9966,"Ġinquiry":9967,"Ġthreatening":9968,"Ġgym":9969,"Ġcaring":9970,"Ġrebounded":9971,"Ġlibrary":9972,"Ġanticipates":9973,"Ġadmission":9974,"Ġdict":9975,"Ġ1980":9976,"Ġrefugee":9977,"Ġskept":9978,"Ġairbnb":9979,"Ġpersistent":9980,"nesota":9981,"Ġbaseball":9982,"inst":9983,"Ġunw":9984,"Ġpenetr":9985,"Ġsatellite":9986,"Ġexamine":9987,"Ġmemo":9988,"Ġaffects":9989,"Ġdisappear":9990,"Ġlivest":9991,"Ġdisability":9992,"Ġmounting":9993,"pool":9994,"Ġseasons":9995,"Ġmanh":9996,"Ġnev":9997,"Ġderivatives":9998,"Ġgab":9999,"Ġdogs":10000,"ller":10001,"Ġcommented":10002,"Ð¾Ð¼":10003,"Ġbipartisan":10004,"Ġappearance":10005,"Ġupgrade":10006,"Ġviable":10007,"omson":10008,"Ġconstitute":10009,"Ġfred":10010,"Ġmerkel":10011,"edy":10012,"Ġrepeat":10013,"Ġnorwegian":10014,"Ġsymptomatic":10015,"Ġmul":10016,"Ġdiego":10017,"Ġviewers":10018,"Ġfargo":10019,"ĠÑĤ":10020,"Ġdescription":10021,"Ġrelatives":10022,"Ġlad":10023,"Ġaccumulated":10024,"Ġconsiders":10025,"Ġmurphy":10026,"Ġphenomen":10027,"Ġhosting":10028,"Ġbags":10029,"iop":10030,"Ġperu":10031,"Ġurgency":10032,"hop":10033,"Ġdesigner":10034,"Ġlon":10035,"ensity":10036,"Ġsixth":10037,"Ġslam":10038,"Ġmapping":10039,"Ġgrave":10040,"Ġcoverings":10041,"pc":10042,"powered":10043,"Ġdeuts":10044,"Ġethical":10045,"lete":10046,"Ġcoronaviruses":10047,"friendly":10048,"Ġluck":10049,"Ġambassador":10050,"Ġpickup":10051,"Ġasc":10052,"anger":10053,"uous":10054,"Ġinevitable":10055,"Ġvisible":10056,"iminals":10057,"Ġsweeping":10058,"ali":10059,"arc":10060,"Ġvariations":10061,"Ġbuc":10062,"Ġdeclaration":10063,"Ġminnesota":10064,"Ġagreeing":10065,"Ġratios":10066,"Ġtangible":10067,"sed":10068,"Ġfarming":10069,"Ġreminder":10070,"Ġunal":10071,"ogether":10072,"Ġlucky":10073,"Ġrounds":10074,"Ġmilk":10075,"Ġsuscept":10076,"dec":10077,"Ġdisorder":10078,"Ġclock":10079,"Ġseconds":10080,"Ġintermediate":10081,"Ġimmigrants":10082,"Ġsemi":10083,"Ġbreaks":10084,"aped":10085,"Ġswing":10086,"Ġtouc":10087,"Ġbiotechnology":10088,"Ġcounsel":10089,"Ġcomplement":10090,"ulty":10091,"Ġpsychological":10092,"ivo":10093,"Ġ2050":10094,"Ġpositioning":10095,"Ġfurloughed":10096,"endo":10097,"Ġross":10098,"Ġpostal":10099,"Ġbusinesswire":10100,"Ġcraz":10101,"Ġbadly":10102,"Ġexcludes":10103,"aine":10104,"Ġsla":10105,"usal":10106,"ni":10107,"Ġfert":10108,"Ġinterviewed":10109,"Ġexpressions":10110,"Ġsweet":10111,"aya":10112,"Ġ106":10113,"Ġinjection":10114,"olitan":10115,"Ġtone":10116,"rele":10117,"Ġeager":10118,"sored":10119,"Ġretention":10120,"Ġpapers":10121,"third":10122,"ergies":10123,"Ġcancellations":10124,"Ġflash":10125,"Ġblamed":10126,"Ġforever":10127,"Ġmars":10128,"Ġrepresentation":10129,"Ġwinds":10130,"Ġexclude":10131,"Ġpeloton":10132,"Ġscal":10133,"Ġstrongest":10134,"Ġfoster":10135,"Ġlapt":10136,"advant":10137,"ista":10138,"Ġsignificance":10139,"Ġinitiated":10140,"Ġworrying":10141,"Ġstap":10142,"Ġkenya":10143,"Ġprosecutors":10144,"artic":10145,"Ġcanadians":10146,"roup":10147,"Ġdiet":10148,"Ġimported":10149,"Ġresorts":10150,"Ġrocket":10151,"Ġconcentration":10152,"Ġboards":10153,"opolitical":10154,"Ġpregnancy":10155,"umab":10156,"Ġsg":10157,"Ġinternationally":10158,"Ġabe":10159,"Ġdonors":10160,"uy":10161,"Ġhav":10162,"Ġceos":10163,"Ġbrussels":10164,"ovirus":10165,"Ġsubscriptions":10166,"Ġ2001":10167,"Ġcoven":10168,"Ġbesides":10169,"Ġcm":10170,"Ġgang":10171,"Ġdrinking":10172,"Ġdefinitive":10173,"Ġdipped":10174,"Ġalphabet":10175,"Ġdesperate":10176,"obj":10177,"Ġsystematic":10178,"Ð¾Ð³":10179,"ogenic":10180,"Ġ115":10181,"lson":10182,"ifi":10183,"Ġcookie":10184,"Ġmanhattan":10185,"Ġkur":10186,"ãĤ":10187,"Ġanyway":10188,"Ġincremental":10189,"Ġsensitivity":10190,"Ġpharmacy":10191,"child":10192,"Ġisolate":10193,"orp":10194,"Ġharbor":10195,"Ġsr":10196,"Ġ107":10197,"Ġsoldiers":10198,"sters":10199,"Ġveterans":10200,"Ġunnecess":10201,"Ġschedules":10202,"Ġaccommodation":10203,"Ġprosec":10204,"usters":10205,"Ġsubjects":10206,"Ġinstant":10207,"Ġprioritize":10208,"Ġdash":10209,"giving":10210,"Ġrav":10211,"Ġreduces":10212,"Ġcorrection":10213,"Ġallowance":10214,"Ġnerv":10215,"Ġgent":10216,"Ġretired":10217,"Ġcg":10218,"Ġrecru":10219,"Ġsocio":10220,"Ġrip":10221,"Ġmarria":10222,"spe":10223,"Ġpocket":10224,"eded":10225,"Ġsophistic":10226,"Ġpredicts":10227,"Ġthrive":10228,"atorium":10229,"vp":10230,"Ġsafeguard":10231,"Ġrational":10232,"Ġdrops":10233,"Ġabuses":10234,"Ġauction":10235,"Ġmainstream":10236,"press":10237,"Ġdos":10238,"Ġkentucky":10239,"Ġguaranteed":10240,"Ġprospective":10241,"Ġandroid":10242,"Ġspotlight":10243,"Ġbiod":10244,"trump":10245,"Ġassumed":10246,"Ġhuawei":10247,"Ġloyalty":10248,"Ġdod":10249,"Ġsalv":10250,"Ġexplic":10251,"Ġanton":10252,"Ġwheel":10253,"Ġjerome":10254,"Ġdestruction":10255,"ometer":10256,"Ġsupervis":10257,"Ġtopped":10258,"Ġcleared":10259,"Ġfruit":10260,"build":10261,"Ġmood":10262,"Ġoptimize":10263,"Ġinjuries":10264,"omic":10265,"Ġ102":10266,"Ġbangladesh":10267,"Ġassert":10268,"Ġmadrid":10269,"Ġlob":10270,"Ġmetres":10271,"Ġqatar":10272,"Ġaustin":10273,"Ġgoverning":10274,"Ġgreek":10275,"Ġtelecommunic":10276,"Ġcomplaint":10277,"Ġnominee":10278,"Ġaffir":10279,"Ġforemost":10280,"ere":10281,"Ġbreast":10282,"Ġwithd":10283,"ski":10284,"Ġshen":10285,"Ġmodi":10286,"Ġgenerates":10287,"Ġbah":10288,"rix":10289,"Ġmah":10290,"Ġexchanges":10291,"Ġsty":10292,"Ġgeopolitical":10293,"Ġprocessed":10294,"Ġgreatly":10295,"kers":10296,"ãĢ":10297,"Ġlens":10298,"Ġbarely":10299,"Ġalive":10300,"Ġmoon":10301,"Ġdisasters":10302,"Ġva":10303,"Ġkate":10304,"Ġremoving":10305,"Ġpreparedness":10306,"Ġlists":10307,"Ġrecre":10308,"Ġurge":10309,"Ġgirl":10310,"Ġsorry":10311,"Ġsomebody":10312,"Ġmistake":10313,"Ġsingh":10314,"Ġdepr":10315,"Ġmarking":10316,"Ġeve":10317,"effective":10318,"sing":10319,"Ġconfront":10320,"loads":10321,"Ġradical":10322,"medicine":10323,"Ġmaturity":10324,"Ġdelivers":10325,"Ġportugal":10326,"Ġdescribes":10327,"iqu":10328,"Ġpacked":10329,"Ġachievements":10330,"Ġconcess":10331,"Ġblocks":10332,"Ġgenu":10333,"Ġdiscussing":10334,"Ġsamsung":10335,"Ġmedication":10336,"Ġmilan":10337,"Ġproduces":10338,"Ġpowered":10339,"Ġconvertible":10340,"Ġmarried":10341,"Ġvigil":10342,"Ġottawa":10343,"Ġconfig":10344,"Ġmaria":10345,"Ġcomplexity":10346,"Ġhole":10347,"Ġremarkable":10348,"Ġpediatric":10349,"Ġmini":10350,"Ġheadache":10351,"roit":10352,"Ġdispute":10353,"ÐµÐ»":10354,"Ġthroat":10355,"Ġfiles":10356,"Ġrussell":10357,"Ġwy":10358,"Ġbolster":10359,"Ġplunge":10360,"Ġconcentrated":10361,"Ġdrill":10362,"station":10363,"Ġ==":10364,"anded":10365,"Ġdated":10366,"Ġhenry":10367,"Ġbenefici":10368,"informed":10369,"Ġpolitically":10370,"Ġelectrical":10371,"wer":10372,"Ġvaried":10373,"Ġinflammatory":10374,"Ġdal":10375,"Ġattendees":10376,"001":10377,"Ġbund":10378,"iates":10379,"Ġaccountability":10380,"dist":10381,"ilst":10382,"Ġcompass":10383,"Ġspecialized":10384,"Ġinvited":10385,"Ġmeg":10386,"ÙĪÙĨ":10387,"mph":10388,"Ġattachments":10389,"Ġarising":10390,"Ġforecasting":10391,"Ġemphasis":10392,"Ġhanc":10393,"Ġscottish":10394,"Ġstro":10395,"Ġperceived":10396,"Ġprinciple":10397,"Ġfi":10398,"Ġzhang":10399,"artered":10400,"Ġtransferred":10401,"Ġmodified":10402,"Ġvacation":10403,"zero":10404,"Ġou":10405,"Ġbackdrop":10406,"Ġhollywood":10407,"Ġ'').":10408,"Ġbold":10409,"emen":10410,"doc":10411,"Ġminus":10412,"Ġmouth":10413,"Ġaustralians":10414,"Ġcarries":10415,"lah":10416,"Ġidentification":10417,"Ġmerchand":10418,"Ġoreg":10419,"Ġpom":10420,"Ġdimin":10421,"tre":10422,"Ġbalanced":10423,"Ġbirthday":10424,"Ġcot":10425,"Ġpride":10426,"neapolis":10427,"Ġkaren":10428,"Ġrena":10429,"Ġvessel":10430,"Ġproceeding":10431,"Ġ750":10432,"Ġclassroom":10433,"Ġlistening":10434,"Ġclothes":10435,"profile":10436,"length":10437,"Ġconnecting":10438,"Ġplate":10439,"Ġoregon":10440,"ĠðŁ":10441,"Ġcf":10442,"ami":10443,"Ġelectoral":10444,"Ġdad":10445,"public":10446,"grad":10447,"Ġdiscour":10448,"Ġfines":10449,"Ġaudiences":10450,"antis":10451,"power":10452,"Ġmechanical":10453,"agement":10454,"Ġwhilst":10455,"oured":10456,"Ġsomewhere":10457,"Ġbets":10458,"ĠĠĠĠĠĠ":10459,"Ġnovavax":10460,"Ġfeas":10461,"listed":10462,"Ġhancock":10463,"Ġconservation":10464,"season":10465,"Ġpig":10466,"Ġnaturally":10467,"Ġgran":10468,"Ġadjusting":10469,"Ġlungs":10470,"ÑĪ":10471,"othe":10472,"Ġgradual":10473,"Ġrisky":10474,"Ġcircular":10475,"Ġcertification":10476,"aning":10477,"ĠÂ·":10478,"controlling":10479,"Ġconsort":10480,"Ġscreens":10481,"Ġranks":10482,"Ġattached":10483,"Ġadminister":10484,"Ġprincess":10485,"Ġtoxic":10486,"Ġ================================":10487,"Ġsom":10488,"Ġqui":10489,"Ġmagnitude":10490,"Ġimaging":10491,"Ġ104":10492,"Ġutilization":10493,"Ġtransmissible":10494,"Ġcambridge":10495,"Ġhence":10496,"Ġdonated":10497,"Ġfurniture":10498,"ĠĠĠĠĠĠĠ":10499,"ao":10500,"Ġvout":10501,"Ġpledge":10502,"base":10503,"Ġoccasion":10504,"rate":10505,"stop":10506,"Ġnike":10507,"wered":10508,"Ġhired":10509,"Ġclinton":10510,"itage":10511,"neg":10512,"Ð½Ð¾":10513,"iors":10514,"Ġpubs":10515,"Ġgauge":10516,"Ġcharl":10517,"Ġinstitutes":10518,"inces":10519,"Ġoc":10520,"Ġcork":10521,"Ġlegend":10522,"Ġdiesel":10523,"Ġguil":10524,"you":10525,"Ġthin":10526,"Ġordering":10527,"Ġlicensing":10528,"Ġevaluated":10529,"arer":10530,"rog":10531,"Ġstudios":10532,"Ġtourist":10533,"lection":10534,"Ġcommonly":10535,"Ġstored":10536,"Ġacceleration":10537,"Ġweighed":10538,"Ġsimultaneously":10539,"Ġdisadvant":10540,"Ġdallas":10541,"Ġboxes":10542,"Ġmonoc":10543,"Ġmarginal":10544,"Ġmeasurement":10545,"Ġrecruitment":10546,"Ġsevent":10547,"Ġalgorithms":10548,"Ġ108":10549,"Ġling":10550,"iban":10551,"Ġgovernmental":10552,"Ġprocedure":10553,"Ġundertake":10554,"Ġparking":10555,"ailed":10556,"Ġminneapolis":10557,"Ġtu":10558,"Ġalter":10559,"Ġissuing":10560,"Ġislamic":10561,"connect":10562,"================================================":10563,"ĠÃ©t":10564,"Ġhabit":10565,"Ġ================================================================================":10566,"Ġcharging":10567,"Ġdavis":10568,"ĠâĪĴ":10569,"Ġrecycling":10570,"Ġcloth":10571,"Ġcalculation":10572,"uchin":10573,"asp":10574,"anches":10575,"Ġchallenged":10576,"airy":10577,"Ġdesigners":10578,"company":10579,"mh":10580,"Ġcock":10581,"Ġprofound":10582,"Ġtag":10583,"Ġdonation":10584,"Ġupward":10585,"Ġquit":10586,"Ġ103":10587,"share":10588,"Ð¸Ñı":10589,"Ġeurozone":10590,"Ġdemonstrators":10591,"Ġcapex":10592,"list":10593,"human":10594,"Ġru":10595,"Ġrup":10596,")%":10597,"astro":10598,"Ġdefeat":10599,"Ġintact":10600,"Ġroot":10601,"Ġderived":10602,"arth":10603,"newswire":10604,"Ġsalmon":10605,"Ġtie":10606,"Ġwithdrawal":10607,"×¨×":10608,"Ġuncon":10609,"Ġsourcing":10610,"âĢĻ.":10611,"Ġark":10612,"Ġemergencies":10613,"Ġpromotion":10614,"Ġcoinc":10615,"Ġzones":10616,"Ġmeal":10617,"Ġdefer":10618,"Ġremainder":10619,"Ġmeters":10620,"Ġcharter":10621,"Ġwarrants":10622,"Ġnevada":10623,"ufficient":10624,"half":10625,"Ġarguing":10626,"Ġheadline":10627,"Ø²":10628,"Ġresh":10629,"Ġcustoms":10630,"Ġannualized":10631,"Ġadvocacy":10632,"Ġhighlighting":10633,"Ġtightening":10634,"Ġuncom":10635,"ieved":10636,"Ġrepurchase":10637,"Ġjess":10638,"Ġprovinces":10639,"Ġcorona":10640,"Ġmamm":10641,"Ġthereby":10642,"Ġstruggles":10643,"Ġmath":10644,"Ġstringent":10645,"Ġmaryland":10646,"emb":10647,"Ġparag":10648,"Ġdominated":10649,"Ġsurpassed":10650,"Ġmcdonald":10651,"Ġtheories":10652,"Ġrestrain":10653,"Ġmotion":10654,"Ġhem":10655,"Ġshorter":10656,"Ġbpd":10657,"unate":10658,"Ġcoordination":10659,"Ġrice":10660,"arn":10661,"Ġgbp":10662,"Ġintroducing":10663,"pinned":10664,"lick":10665,"Ġfishing":10666,"trans":10667,"Ġcoordinated":10668,"Ġarth":10669,"Ġsecuring":10670,"Ġlivelihood":10671,"Ġfailures":10672,"Ġcircuit":10673,"Ġbain":10674,"Ġfiber":10675,"Ġmorningstar":10676,"Ġdance":10677,"eters":10678,"Ġgraham":10679,"Ġmoral":10680,"Ġasp":10681,"Ġfacial":10682,"Ġhars":10683,"Ġnoticed":10684,"Ġboat":10685,"Ġdave":10686,"otsp":10687,"infl":10688,"çļ":10689,"Ġthermal":10690,"Ġcostly":10691,"Ġlip":10692,"Ġvenue":10693,"Ġchan":10694,"Ġplacing":10695,"chat":10696,"opro":10697,"Ø¶":10698,"Ġrelate":10699,"Ġdilig":10700,"Ġsilicon":10701,"Ġturnaround":10702,"Ġrarely":10703,"Ġdiversified":10704,"Ġbiology":10705,"Ġrevise":10706,"Ġcrus":10707,"justed":10708,"Ġequipped":10709,"Ġlender":10710,"iro":10711,"keep":10712,"school":10713,"Ġpaycheck":10714,"Ġmilit":10715,"Ġamy":10716,"Ġiranian":10717,"Ġdesigns":10718,"Ġsear":10719,"Ġhorr":10720,"Ġlisa":10721,"Ġinvolvement":10722,"Ġtwel":10723,"Ġenrolled":10724,"auc":10725,"Ġsupportive":10726,"çļĦ":10727,"Ġdownward":10728,"nan":10729,"Ġtravelling":10730,"hyl":10731,"Ġsque":10732,"Ġpremiums":10733,"bors":10734,"Ġgenes":10735,"Ġpasses":10736,"Ġmagic":10737,"Ġrome":10738,"burgh":10739,"Ġdisparities":10740,"Ġapplies":10741,"Ġantibiot":10742,"Ġalaska":10743,"istically":10744,"Ġsanitizer":10745,"nat":10746,"Ġwilson":10747,"Ġhardship":10748,"afe":10749,"Ġ225":10750,"ucker":10751,"áº":10752,"Ġskill":10753,"Ġvlad":10754,"Ġestablishing":10755,"Ġremoval":10756,"rocket":10757,"Ġdownside":10758,"ĠâĢĿ),":10759,"Ġdemographic":10760,"Ġlikewise":10761,"Ġriding":10762,"Ġbonus":10763,"Ġhotsp":10764,"Ġ08":10765,"Ġinjured":10766,"Ġquantum":10767,"Ġmunicipal":10768,"Ġoccurring":10769,"Ġanxious":10770,"anied":10771,"sem":10772,"Ġfraction":10773,"Ġstakes":10774,"Ġconsultation":10775,"Ã§Ãµes":10776,"Ġpartnered":10777,"Ġatmosphere":10778,"ounced":10779,"Ġstun":10780,"Ġsteadily":10781,"Ġboe":10782,"Ġworkflow":10783,"icking":10784,"beit":10785,"parts":10786,"Ġtea":10787,"Ġjustin":10788,"Ġsells":10789,"Ġrelied":10790,"adequ":10791,"Ġchildhood":10792,"Ġbehaviors":10793,"Ġconsiderations":10794,"wo":10795,"Ġmothers":10796,"Ġarrangement":10797,"Ġpleas":10798,"Ġnorthwest":10799,"bound":10800,"Ġtill":10801,"Ġcree":10802,"Ġfulfilling":10803,"Ġsoccer":10804,"Ġamc":10805,"Ġbankers":10806,"viet":10807,"Ġnancy":10808,"elle":10809,"Ġadvocate":10810,"Ġsuitable":10811,"Ġmicrobi":10812,"Ġrecurring":10813,"Ġcritically":10814,"Ġeag":10815,"Ġattempted":10816,"igo":10817,"last":10818,"imb":10819,"Ġformula":10820,"Ġcarnival":10821,"Ġjets":10822,"Ġentre":10823,"ĠØ§ÙĦØ£":10824,"Ġtort":10825,"Ġdonate":10826,"Ġmerely":10827,"Ġmanif":10828,"bell":10829,"Ġpray":10830,"Ġmeantime":10831,"fires":10832,"Ġheritage":10833,"Ġcher":10834,"Ġnose":10835,"Ġrevive":10836,"dollar":10837,"Ġdetermining":10838,"ÐµÐ¼":10839,"sea":10840,"Ġsubstitute":10841,"Ġku":10842,"Ġtony":10843,"ferencing":10844,"Ġgavin":10845,"Ġfueled":10846,"Ġtranslation":10847,"Ġdor":10848,"arations":10849,"Ġfluid":10850,"utive":10851,"Ġterrible":10852,"owa":10853,"Ġdivide":10854,"Ġinaug":10855,"alia":10856,"Ġhike":10857,"Ġbinding":10858,"Ġinadequ":10859,"lass":10860,"Ġethics":10861,"Ġenrollment":10862,"Ġ2002":10863,"Ġdisappointed":10864,"alog":10865,"Ġ'.":10866,"Ġaccompanying":10867,"Ġist":10868,"Ġeconomically":10869,"×Ļ×Ŀ":10870,"itÃ©":10871,"Ġinters":10872,"lahoma":10873,"yen":10874,"Ġphr":10875,"Ġdisclose":10876,"Ġobjects":10877,"Ġdialogue":10878,"×ķ×ª":10879,"Ġequitable":10880,"Ġadopting":10881,"Ġbarrier":10882,"Ġexposing":10883,"umar":10884,"Ġpainful":10885,"Ġmnuchin":10886,"Ġprovinc":10887,"Ġshuttered":10888,"Ġincomes":10889,"Ġprevented":10890,"Ġparaly":10891,"Ġlimitation":10892,"Ġseemingly":10893,"Ġshutting":10894,"Ġtailored":10895,"Ġjenn":10896,"product":10897,"panic":10898,"Ġharry":10899,"Ġversions":10900,"Ġparalle":10901,"Ġrevolving":10902,"Ġbird":10903,"stered":10904,"Ġaddresses":10905,"icket":10906,"Ġiq":10907,"Ġ111":10908,"ercul":10909,"Ġgay":10910,"Ġwise":10911,"upta":10912,"Ġunco":10913,"Ġbuffett":10914,"Ġattempting":10915,"Ġconstitutional":10916,"Ġ00":10917,"Ġhuff":10918,"Ġseoul":10919,"vering":10920,"winning":10921,"Ġmm":10922,"Ġdating":10923,"Ġorient":10924,"Ġteach":10925,"yer":10926,"Ġsamp":10927,"Ġnationals":10928,"Ġskilled":10929,"Ġcaptured":10930,"Ġleather":10931,"Ġcramer":10932,"Ã©es":10933,"xon":10934,"sex":10935,"Ġirr":10936,"Ġtwelve":10937,"Ġnervous":10938,"etheless":10939,"Ġgyms":10940,"aires":10941,"pace":10942,"Ġstamp":10943,"Ġrecognise":10944,"Ġpulling":10945,"Ġreinfor":10946,"Ġmetropolitan":10947,"Ġanymore":10948,"Ġdak":10949,"Ġquestioned":10950,"Ġmarriage":10951,"Ġcable":10952,"Ġcraft":10953,"Ġconsortium":10954,"Ġtropical":10955,"Ġpeaceful":10956,"Ġtm":10957,"Ġfounding":10958,"Ġachievement":10959,"Ġjurisdictions":10960,"Ġchildcare":10961,"Ġnavy":10962,"Ġsuicide":10963,"Ġchoosing":10964,"Ġignore":10965,"rage":10966,"Ġmanual":10967,"Ġtrailing":10968,"Ġtrees":10969,"Ġcomparing":10970,"Ġultr":10971,"Ġmoratorium":10972,"iev":10973,"2026":10974,"Ġdistur":10975,"Ġvulnerabilities":10976,"Ġdairy":10977,"Ġ109":10978,"Ġhardly":10979,"Ġtaliban":10980,"Ġnortheast":10981,"ails":10982,"rock":10983,"Ġstig":10984,"heav":10985,"Ġfundamentals":10986,"Ġboosters":10987,"irty":10988,"Ġcompromise":10989,"Ġdeutsche":10990,"Ġoklahoma":10991,"encia":10992,"Ġtherm":10993,"Ġaap":10994,"Ġyeah":10995,"Ġcontactless":10996,"Ġvolunteer":10997,"Ġslack":10998,"Ġsequencing":10999,"ï¿½ï¿½ï¿½ï¿½":11000,"Ġarray":11001,"Ġreceptor":11002,"Ġhud":11003,"Ġalab":11004,"Ġassign":11005,"mid":11006,"Ġnonetheless":11007,"umbai":11008,"Ġbasketball":11009,"Ġsurplus":11010,"Ġdiver":11011,"Ġvaccinate":11012,"Ġally":11013,"Ġcohen":11014,"Ġinfluential":11015,"gy":11016,"Ġturkish":11017,"Ġimmunization":11018,"Ġscenes":11019,"rus":11020,"Ġliberty":11021,"Ġunderperform":11022,"Ġhadn":11023,"erculosis":11024,"Ġaccrued":11025,"Ġcardio":11026,"Ġconscious":11027,"Ġgenuine":11028,"Ġdemonstrations":11029,"Ġwillingness":11030,"Ġsophisticated":11031,"Ġpilots":11032,"oned":11033,"Ġtweets":11034,"Ġpresum":11035,"roph":11036,"okovic":11037,"Ġentrepreneur":11038,"Ġaccus":11039,"Ġcryst":11040,"Ġwidth":11041,"ÙĪÙĦ":11042,"start":11043,"Ġ450":11044,"Ġonboard":11045,"Ġcomparative":11046,"videopl":11047,"Õ¡":11048,"style":11049,"Ġcompelling":11050,"marks":11051,"Ġstriking":11052,"Ġtelemedicine":11053,"Ġcrackdown":11054,"owners":11055,"Ġaquac":11056,"Ġbooked":11057,"Ġargues":11058,"Ġsolicitation":11059,"Ġshore":11060,"patient":11061,"Ġcertificate":11062,"Ġ190":11063,"Ġretros":11064,"Ġresolved":11065,"Ġspoken":11066,"usts":11067,"bury":11068,"Ġnoise":11069,"ĠÃ¢":11070,"och":11071,"Ġ135":11072,"Ġpursuing":11073,"Ã«":11074,"Ġali":11075,"Ġwhenever":11076,"Ġairbus":11077,"Ġinvestigators":11078,"imir":11079,"Ġbeaches":11080,"Ġnationally":11081,"Ġrab":11082,"Ġ07":11083,"Ġautumn":11084,"Ġglad":11085,"Ġconsultancy":11086,"Ġtut":11087,"Ġskyrocket":11088,"Ġfollowers":11089,"Ġharmful":11090,"Ġavoided":11091,"Ġsubscribing":11092,"Ġvenezuela":11093,"Ġduties":11094,"Ġquad":11095,"Ġworkplaces":11096,"Ġblast":11097,"Ġ2004":11098,"Ġdump":11099,"Ġanderson":11100,"Ġtrending":11101,"Ġproactive":11102,"assy":11103,"iders":11104,"Ġlegally":11105,"eur":11106,"Ø®":11107,"Ġss":11108,"Ġracist":11109,"Ġdatas":11110,"Ġbriefly":11111,"osa":11112,"Ġcollecting":11113,"Ġsupermarket":11114,"there":11115,"Ġethiop":11116,"made":11117,"Ġdual":11118,"Ġbeef":11119,"Ġperformances":11120,"Ġreceivable":11121,"Ġfeelings":11122,"Ġdomain":11123,"Ġandy":11124,"Ġblasio":11125,"Ġave":11126,"Ġadmit":11127,"Ġcompetitor":11128,"Ġprecaution":11129,"ÙĬØ±":11130,"Ġalabama":11131,"Ġbikes":11132,"Ġtradem":11133,"Ġsore":11134,"Ġroy":11135,"Ġdestroyed":11136,"vascular":11137,"Ġunaltered":11138,"price":11139,"Ġprospectus":11140,"mex":11141,"Ġunedited":11142,"Ġquoted":11143,"Ġallergy":11144,"Ġbuyer":11145,"Ġdismissed":11146,"Ġundue":11147,"Ġrefinitiv":11148,"Ġthrown":11149,"Ġbreaches":11150,"Ġcontingent":11151,"oz":11152,"Ġmines":11153,"Ġdetroit":11154,"plant":11155,"Ġcryptocurrency":11156,"Ġlilly":11157,"pol":11158,"Ġsmartphones":11159,"Ġlv":11160,"acles":11161,"stre":11162,"Ġberkshire":11163,"Ġdowngr":11164,"Ø§Ùħ":11165,"Ġgeographies":11166,"Ġoncology":11167,"Ġgrim":11168,"Ġdell":11169,"Ġcra":11170,"Ġtissue":11171,"Ġindef":11172,"Ġspeculation":11173,"Ð¾Ð½":11174,"Ġanch":11175,"Ġhp":11176,"Ġdamaged":11177,"Ð±":11178,"Ġliu":11179,"Ġlunch":11180,"Ġinterrup":11181,"imity":11182,"Ġcomparisons":11183,"Ġcoordin":11184,"Ġdjokovic":11185,"Ġclinicians":11186,"reach":11187,"Ġfid":11188,"Ġanybody":11189,"Ġslip":11190,"Ġarrivals":11191,"Ġvr":11192,"Ġletting":11193,"Ġmoh":11194,"Ġcontainers":11195,"san":11196,"Ġsequential":11197,"Ġcolleague":11198,"Ġuni":11199,"Ġconflicts":11200,"Ġexpon":11201,"Ġtuberculosis":11202,"Ġshocks":11203,"Ġfriendly":11204,"jiang":11205,"urer":11206,"Ġgrades":11207,"Ġpalm":11208,"Ġunif":11209,"ili":11210,"Ġxin":11211,"Ġthomson":11212,"berry":11213,"Ġaids":11214,"Ġ2028":11215,"Ġ1970":11216,"idas":11217,"Ġboys":11218,"Ġallegedly":11219,"Ġnato":11220,"Ġcooking":11221,"Ġcrazy":11222,"Ġrenewables":11223,"Ġbrothers":11224,"Ġambul":11225,"Ġbcf":11226,"Ġmanifest":11227,"Ġhawaii":11228,"Ġdisappointing":11229,"source":11230,"Ġabandoned":11231,"Ġpreferences":11232,"ahn":11233,"Ġcamb":11234,"ĠÎ":11235,"Ġwanting":11236,"Ġsmoke":11237,"Ġunnecessary":11238,"Ġlifetime":11239,"celona":11240,"Ġcommons":11241,"erving":11242,"Ġjay":11243,"Ġtransmitted":11244,"Ġspeakers":11245,"Ġeco":11246,"vol":11247,"Ġdys":11248,"ching":11249,"Ġforeseeable":11250,"Ġcounterparts":11251,"iox":11252,"Ġunfair":11253,"Ġ113":11254,"Ġchicken":11255,"Ġtower":11256,"Ġunfold":11257,"apers":11258,"Ġprecious":11259,"Ġenforced":11260,"inos":11261,"Ġdetermination":11262,"Ġoecd":11263,"people":11264,"Ġcurfew":11265,"lers":11266,"Ġdamp":11267,"Ġallen":11268,"anka":11269,"Ġwhats":11270,"Ġsignature":11271,"Ġprovincial":11272,"Ġflaw":11273,"Ġwholly":11274,"who":11275,"Ã´":11276,"Ġstrange":11277,"nc":11278,"Ġsafest":11279,"Ġcollins":11280,"Ġwalls":11281,"anz":11282,"Ġcrossing":11283,"hana":11284,"Ġexplicit":11285,"player":11286,"Ġbillionaire":11287,"Ġpredomin":11288,"Ġlebanon":11289,"Ġaquaculture":11290,"Ġlancet":11291,"Ġwipe":11292,"Ġstopping":11293,"fig":11294,"math":11295,"ighth":11296,"Ġvladimir":11297,"irts":11298,"Ġtall":11299,"existing":11300,"Ġutah":11301,"Ġpron":11302,"Ġdigitally":11303,"Ġguilty":11304,"email":11305,"Ġfx":11306,"Ġforefront":11307,"Ġosc":11308,"ibles":11309,"Ġcognitive":11310,"Ġ01":11311,"Ġhubs":11312,"Ġlucrative":11313,"Ġadolesc":11314,"Ġspx":11315,"management":11316,"Ġdinner":11317,"map":11318,"Ġincumb":11319,"Ġedited":11320,"uz":11321,"Ġcb":11322,"Ġlaura":11323,"Ġcredential":11324,"Ġja":11325,"Ġconvenient":11326,"Ġtaught":11327,"Ġlen":11328,"Ġpermits":11329,"Ġalumin":11330,"uration":11331,"oga":11332,"Ġacceptable":11333,"ige":11334,"Ġsmes":11335,"fam":11336,"Ġdrama":11337,"Ġlooming":11338,"Ġvariables":11339,"Ġhell":11340,"Ġdocumented":11341,"Ġdiscretionary":11342,"web":11343,"olas":11344,"Ġbiom":11345,"sten":11346,"ums":11347,"Ġbrooklyn":11348,"techn":11349,"Ġlaugh":11350,"Ġwondering":11351,"Ġderivative":11352,"Ġquartz":11353,"Ġrelaxed":11354,"Ġrugby":11355,"norm":11356,"Ġinformal":11357,"Ġinfluenc":11358,"Ã¼r":11359,"Ġmerchants":11360,"Ġhoward":11361,"Ġinsufficient":11362,"Ġworsening":11363,"Ġwhatsapp":11364,"×ª":11365,"Ġinfo":11366,"redict":11367,"Ġsentence":11368,"Ġrefinery":11369,"Ġgest":11370,"Ġfrustration":11371,"mate":11372,"Ġcounted":11373,"Ġtackling":11374,"Ġwoods":11375,"Ġadapted":11376,"arus":11377,"urt":11378,"heit":11379,"Ġbacteria":11380,"yes":11381,"Ġpess":11382,"Ġburning":11383,"liver":11384,"Ġhond":11385,"Ġexcellence":11386,"Ġmachin":11387,"Ġ~":11388,"chin":11389,"they":11390,"Ġcategor":11391,"Ġaws":11392,"Ġsusan":11393,"Ġdisclosures":11394,"Ġces":11395,"Ġangry":11396,"Ġthinkers":11397,"Ġbarcl":11398,"Ġtheatre":11399,"monary":11400,"Ġrhetor":11401,"imab":11402,"Ġsensor":11403,"Ġdoubling":11404,"Ġbin":11405,"Ġreimburse":11406,"Ġcustody":11407,"Ġthreatens":11408,"Ġadvises":11409,"Ġcomprised":11410,"Ġrobin":11411,"aux":11412,"Ġtumbled":11413,"Ġpti":11414,"Ġ112":11415,"Ġmb":11416,"Ġjudges":11417,"Ġfrancis":11418,"Ġredund":11419,"Ġreceives":11420,"two":11421,"Ġplacement":11422,"Ġlandlords":11423,"isers":11424,"sector":11425,"itudes":11426,"Ġpenetration":11427,"Ġpodcasts":11428,"Ġmistakes":11429,"127":11430,"Ġparliamentary":11431,"Ġpenalty":11432,"Ġ:":11433,"Ġphill":11434,"Ġhanded":11435,"Ġpivotal":11436,"Ġkansas":11437,"Ġconvin":11438,"Ġdublin":11439,"Ġconting":11440,"Ġprobable":11441,"Ġvirolog":11442,"dles":11443,"prnewswire":11444,"Ġspark":11445,"Ġbarcelona":11446,"rob":11447,"Ġspikes":11448,"2022":11449,"Ġsalesforce":11450,"Ġdetain":11451,"Ġfootage":11452,"Ġposes":11453,"Ġcirculating":11454,"Ġjennifer":11455,"Ġ×ľ":11456,"Ġclimbing":11457,"Ġpublisher":11458,"Ġcareers":11459,"adays":11460,"change":11461,"Ġtranslate":11462,"Ġexamined":11463,"Ġlesson":11464,"Ġmonoclon":11465,"Ġoccas":11466,"Ġphenomenon":11467,"Ġale":11468,"Ġasks":11469,"Ġpredicting":11470,"Ġheadwinds":11471,"Ġdisinfecting":11472,"Ġscored":11473,"Ġrallies":11474,"Ġreliability":11475,"Ġcaptain":11476,"chell":11477,"Ġneighbors":11478,"Ġconvinced":11479,"Ġnowadays":11480,"Ġcollaborate":11481,"Ġtransfers":11482,"Ġtelecommunications":11483,"Ġplug":11484,"azz":11485,"Ġstepping":11486,"european":11487,"ivan":11488,"Ġ360":11489,"Ġphilos":11490,"isolate":11491,"Ġfounders":11492,"Ġfaculty":11493,"Ġtopical":11494,"Ġpep":11495,"Ġwebinar":11496,"bucks":11497,"Ġaltogether":11498,"Ġignored":11499,"Ġhf":11500,"videoplayer":11501,"vy":11502,"Ġquote":11503,"Ġprobability":11504,"nering":11505,"Ġjunior":11506,"Ġindefin":11507,"Ġcharities":11508,"Ġexistence":11509,"Ġhamm":11510,"Ġindications":11511,"Ġjewish":11512,"Ġmanip":11513,"ori":11514,"Ġkhan":11515,"Ġfeared":11516,"Ġprecision":11517,"government":11518,"Ġexponential":11519,"Ġclusters":11520,"orient":11521,"Ġaccommodate":11522,"Ġspam":11523,"asia":11524,"Ġunreal":11525,"ĠØ§ÙĦØª":11526,"forward":11527,"Ġfragile":11528,"Ġsterling":11529,"Ġfron":11530,"Ġturnover":11531,"Ġprisons":11532,"esity":11533,"Ġspotify":11534,"Ġdiscounts":11535,"Ġmeets":11536,"athon":11537,"Ġarise":11538,"Ġshrink":11539,"Ġsupermarkets":11540,"inda":11541,"Ġattracted":11542,"Ġbrowser":11543,"Ġcreditors":11544,"Ġprefect":11545,"Ã¨s":11546,"igroup":11547,"Ġreviewing":11548,"chem":11549,"Ġweighing":11550,"Ġacted":11551,"Ġyoy":11552,"Ġsep":11553,"Ġinequalities":11554,"Ġrethink":11555,"Ġactionable":11556,"zing":11557,"Ġmsci":11558,"kei":11559,"user":11560,"Ġpier":11561,"pop":11562,"Ġmotivated":11563,"annel":11564,"due":11565,"Ġgenome":11566,"Ġexplanation":11567,"Ġferr":11568,"Ġgeneva":11569,"Ġlane":11570,"Ġgil":11571,"Ġfolder":11572,"Ġjurisdiction":11573,"Ġmonoclonal":11574,"Ġundermine":11575,"Ġreluctant":11576,"Ġpropag":11577,"Ġmetro":11578,"Ġlowered":11579,"Ġyan":11580,"Ġaftermath":11581,"gg":11582,"Ġsean":11583,"ieve":11584,"Ġorange":11585,"Ġfier":11586,"Ġsuisse":11587,"Ġdol":11588,"hu":11589,"Ġsinger":11590,"asy":11591,"republic":11592,"kar":11593,"ection":11594,"Ġpear":11595,"Ġhidden":11596,"Ġblu":11597,"enger":11598,"prem":11599,"ava":11600,"heimer":11601,"Ġparticipant":11602,"Ġinspire":11603,"icut":11604,"carbon":11605,"Ġharassment":11606,"open":11607,"cribed":11608,"Ġscaling":11609,"isp":11610,"chi":11611,"Ġsuga":11612,"Ġhikes":11613,"Ġuniform":11614,"Ġstol":11615,"Ġinadequate":11616,"lay":11617,"Ġlect":11618,"Ġ119":11619,"Ġmississ":11620,"Ġapproaching":11621,"Ġtoilet":11622,"Ġpompe":11623,"ulin":11624,"Ġflav":11625,"Ġundergo":11626,"Ġbrutality":11627,"Ġavenue":11628,"Ġdere":11629,"lÃ©":11630,"Ġmandated":11631,"Ġprisoners":11632,"Ġspy":11633,"ogens":11634,"Ġinfluenced":11635,"Ġrit":11636,"Ġjoins":11637,"Ġengineer":11638,"Ġtrains":11639,"Ġdemonstrates":11640,"Ġdent":11641,"Ġrefers":11642,"Ġ114":11643,"Ġpraised":11644,"Ġcort":11645,"Ġchatbot":11646,"Ġwound":11647,"Ġtoyota":11648,"june":11649,"izr":11650,"Ġscrap":11651,"Ġtitles":11652,"moil":11653,"Ġtri":11654,"Ġqueensland":11655,"Ġroberts":11656,"Ġfah":11657,"Ġroof":11658,"Ġstatut":11659,"ele":11660,"Ġdroplets":11661,"Ġjudgment":11662,"Ġbeta":11663,"Ġhunger":11664,"Ġriot":11665,"Ġlongest":11666,"Ġprobe":11667,"Ġunity":11668,"mr":11669,"Ġpositivity":11670,"Ġhackers":11671,"Ġdeclare":11672,"Ġedward":11673,"Ġ117":11674,"border":11675,"Ġturmoil":11676,"arged":11677,"Ġleasing":11678,"Ġinstruction":11679,"Ġsponsorship":11680,"lash":11681,"Ġshortfall":11682,"Ġmalls":11683,"acting":11684,"Ġdivisions":11685,"Ġtd":11686,"Ġ116":11687,"Ġcze":11688,"Ġempire":11689,"Ġbc":11690,"Ġwore":11691,"Ġmumbai":11692,"iller":11693,"Ġestablishment":11694,"Ġdisagree":11695,"eling":11696,"Ġneutralizing":11697,"Ġalbeit":11698,"Ġprivately":11699,"Ġgiro":11700,"Ġreloc":11701,"Ġffo":11702,"Ġspac":11703,"Ġremed":11704,"Ġtransmit":11705,"Ġfatal":11706,"Ġgroceries":11707,"Ġpd":11708,"Ġlp":11709,"Ġassociations":11710,"shire":11711,"Ġuptake":11712,"million":11713,"Ġsurges":11714,"Ġevident":11715,"Ġweakened":11716,"orbid":11717,"Ġbour":11718,"Ġoptimal":11719,"Ġconfined":11720,"Ġlanguages":11721,"Ġalike":11722,"Ġsacrif":11723,"Ġspectators":11724,"Ġnin":11725,"Ġabd":11726,"Ġurgently":11727,"Ġtennes":11728,"atri":11729,"Ġunle":11730,"Ġmanufactured":11731,"Ġicon":11732,"Ġcontroversy":11733,"uates":11734,"eting":11735,"Ġregulated":11736,"ippi":11737,"Ġexemption":11738,"Ġwti":11739,"Ġtries":11740,"Ġformally":11741,"Ġrod":11742,"Ġfled":11743,"Ġlighting":11744,"Ġcer":11745,"Ġ06":11746,"Ġpredecess":11747,"Ġoak":11748,"Ġlod":11749,"Ġsony":11750,"Ġstops":11751,"Ġregeneron":11752,"Ġmodernizr":11753,"Ġalberta":11754,"Ġhart":11755,"Ġpatch":11756,"marketresearch":11757,"Ġcontempl":11758,"ben":11759,"fight":11760,"Ġgrass":11761,"gold":11762,"Ġhungary":11763,"Ġdean":11764,"Ġiowa":11765,"Ġproximity":11766,"Ġhuffpost":11767,"Ġgpt":11768,"gener":11769,"Ġmachinery":11770,"caster":11771,"Ġconnecticut":11772,"Ġcoughing":11773,"ĠÐ½Ð°":11774,"Ġtwin":11775,"Ġcollapsed":11776,"Ġdisposable":11777,"Ġlarry":11778,"ocy":11779,"avir":11780,"ardo":11781,"Ġsubstance":11782,"Ġiconic":11783,"Ġambition":11784,"âĢ¦âĢ¦":11785,"Ġswedish":11786,"acent":11787,"Ġhandled":11788,"Ġmodeling":11789,"una":11790,"Ġ133":11791,"Ġstrengthened":11792,"Ġreiterated":11793,"Ġ175":11794,"Ġeli":11795,"inity":11796,"Ġamongst":11797,"Ġcombining":11798,"Ġmonit":11799,"!!":11800,"Ġhind":11801,"Ġ(%)":11802,"oon":11803,"Ġunpredict":11804,"Ġarguments":11805,"zhou":11806,"Ġscared":11807,"Ġinstances":11808,"Ġios":11809,"adox":11810,"Ġcardiovascular":11811,"Ġthread":11812,"Ġnaz":11813,"Ġparticipated":11814,"Ġcasino":11815,"Ġtactics":11816,"Ġexped":11817,"Ġbrist":11818,"onaut":11819,"Ġdealt":11820,"Ġoccurs":11821,"Ġpromoted":11822,"Ġkaz":11823,"Ġdescribing":11824,"vs":11825,"Ġaligned":11826,"Ġreasonably":11827,"Ġdowning":11828,"gender":11829,"nik":11830,"Ġthreaten":11831,"Ġdistinguish":11832,"Ġfern":11833,"aved":11834,"Ġalgorithm":11835,"Ġundersco":11836,"Ġmerchandise":11837,"ju":11838,"Ġearliest":11839,"Ġassumption":11840,"Ġundermin":11841,"ĠÙĤ":11842,"Ġpharmacies":11843,"city":11844,"Ġbranches":11845,"Ġexhibition":11846,"Ġcontacted":11847,"Ġvin":11848,"Ġpublications":11849,"Ġengines":11850,"äº":11851,"Ġpredictive":11852,"Ġobesity":11853,"Ġconsiderably":11854,"oub":11855,"Ġpersu":11856,"Ġstatutory":11857,"Ġtennessee":11858,"Ġplastics":11859,"Ġbarack":11860,"manuel":11861,"Ġirs":11862,"Ġâī":11863,"Ġintensity":11864,"Ġliverpool":11865,"Ġsits":11866,"Ġimmense":11867,"Ġkicked":11868,"Ġscandal":11869,"mort":11870,"Ġberg":11871,"Ġcompares":11872,"Ġbowl":11873,"Ġprivilege":11874,"Ġanswered":11875,"iations":11876,"Ġlawsuits":11877,"Ġperception":11878,"Ġstructured":11879,"Ġmile":11880,"Ġdiscontinued":11881,"Ġnowhere":11882,"Ġcatching":11883,"Ġsocieties":11884,"Ġheadquartered":11885,"Ġaveraged":11886,"add":11887,"Ġwherever":11888,"Ġdistributions":11889,"Ġheating":11890,"Ġupgraded":11891,"code":11892,"Ġnikkei":11893,"ema":11894,"Ġpoorer":11895,"Ġtougher":11896,"Ġamendments":11897,"Ġprogression":11898,"Ġencr":11899,"het":11900,"Ġlayer":11901,"Ġpes":11902,"Ġsusceptible":11903,"Ġyemen":11904,"Ġplot":11905,"ÑģÐº":11906,"calling":11907,"Ġcycles":11908,"Ġsoftbank":11909,"Ġtrauma":11910,"Ġrigorous":11911,"Ġissn":11912,"hn":11913,"orse":11914,"Ġpaint":11915,"zhen":11916,"Ġjefferies":11917,"aÃ§Ã£o":11918,"Ġ118":11919,"Ġmoore":11920,"Ġshelves":11921,"Ġspray":11922,"Ġtob":11923,"oxx":11924,"Ġry":11925,"Ġdowntown":11926,"Ġfundamentally":11927,"Ġfundraising":11928,"working":11929,"Ġmalaria":11930,"Ġparagrap":11931,"Ġdebts":11932,"Ġportal":11933,"why":11934,"Ġ365":11935,"Ġlegitimate":11936,"ÐµÐ´":11937,"Ġbattling":11938,"adic":11939,"Ġcytok":11940,"Ġnetworking":11941,"Ġembedded":11942,"tc":11943,"Ġrepayment":11944,"Ġdup":11945,"Ġbearish":11946,"Ġzu":11947,"Ġexclusively":11948,"Ġdeport":11949,"Ġcellular":11950,"Ġbiomed":11951,"Ġflooding":11952,"ÙĩØ§":11953,"vac":11954,"Ġcitigroup":11955,"Ġstarbucks":11956,"Ġopted":11957,"Ġein":11958,"uled":11959,"Ġpathogens":11960,"Ġdakota":11961,"Ġorganisers":11962,"Ġrefining":11963,"Ġrides":11964,"Ð¾ÑĤ":11965,"Ġspecialists":11966,"Ġmers":11967,"idos":11968,"Ġdesantis":11969,"Ġdeduct":11970,"Ġswiftly":11971,"Ġwing":11972,"Ġlady":11973,"Ġappeals":11974,"Ġeducate":11975,"Ġautomakers":11976,"ĠÑĥ":11977,"Ġdefended":11978,"eman":11979,"Ġtechnique":11980,"Ġblocking":11981,"Ġdisinformation":11982,"Ġpatri":11983,"Ġlongtime":11984,"Ġcodes":11985,"die":11986,"Ġwarehouses":11987,"Ġimposing":11988,"Ġvowed":11989,"Ġchest":11990,"Ġpresenting":11991,"Ġtrader":11992,"Ġexcessive":11993,"Ġarena":11994,"Ġmississippi":11995,"oen":11996,"Ġvel":11997,"Ġjinping":11998,"Ġpompeo":11999,"Ġcertainty":12000,"Ġcombine":12001,"Ġczech":12002,"Ð¾Ð¹":12003,"rez":12004,"Ġdisruptive":12005,"Ġtouched":12006,"Ġbarclays":12007,"vie":12008,"Ġraging":12009,"Ġcbd":12010,"Ġshake":12011,"Ġaging":12012,"Ġretained":12013,"rawn":12014,"Ġresidence":12015,"anim":12016,"Ġtermination":12017,"Ġconstitu":12018,"Ġexxon":12019,"Ġunde":12020,"Ġwolf":12021,"Ġsobre":12022,"Ġri":12023,"Ġpolar":12024,"Ġwonderful":12025,"Ġsoil":12026,"Ġcricket":12027,"Ġtul":12028,"Ġattacked":12029,"Ġmonitored":12030,"Ġian":12031,"Ġbullet":12032,"Ġmacroeconomic":12033,"Ġaj":12034,"Ġfilling":12035,"Ġassay":12036,"cola":12037,"Ġtends":12038,"Ġbb":12039,"Ġbatteries":12040,"Ġbehavioral":12041,"Ġalexand":12042,"Ġthemes":12043,"Ġbuilds":12044,"Ø§Ø¯":12045,"Ġdecentral":12046,"billion":12047,"dc":12048,"Ġslashed":12049,"connected":12050,"Ġcapita":12051,"Ġmais":12052,"Ġsequence":12053,"Ġresumption":12054,"fact":12055,"Ġtraction":12056,"Ġpalace":12057,"Ġagm":12058,"Ġagility":12059,"tu":12060,"agers":12061,"Ġextrem":12062,"Ġfate":12063,"ouri":12064,"Ġ230":12065,"Ġsyrian":12066,"Ġexperiments":12067,"Ġcet":12068,"Ġspecified":12069,"Ġharsh":12070,"Ġdamaging":12071,"Ġeligibility":12072,"Ġembassy":12073,"Ġshortness":12074,"lining":12075,"Ġseamless":12076,"otte":12077,"Ġcharts":12078,"Ġevolved":12079,"Ġimperial":12080,"Ġbart":12081,"icy":12082,"Ġslated":12083,"Ġextends":12084,"Ġcompleting":12085,"Ġepidemiology":12086,"count":12087,"rx":12088,"zn":12089,"dub":12090,"Ġsie":12091,"Ġbrick":12092,"Ġ737":12093,"ography":12094,"Ġcircle":12095,"Ġstays":12096,"Ð·":12097,"Ġconverted":12098,"Ġpoorest":12099,"Ġcriticised":12100,"eds":12101,"acon":12102,"Ġneeding":12103,"Ġrhetoric":12104,"Ġcel":12105,"Ġcontractual":12106,"Ġefficiencies":12107,"york":12108,"Ġkon":12109,"Ġambitions":12110,"Ġalpha":12111,"Ġmund":12112,"ders":12113,"Ġconfron":12114,"aciones":12115,"blo":12116,"nedy":12117,"Ġtraged":12118,"Ġmature":12119,"Ġfried":12120,"Ġaccepting":12121,"Ġmatching":12122,"Ġinflow":12123,"Ġpathogen":12124,"Ġpassport":12125,"Ġpreventive":12126,"japan":12127,"Ġtract":12128,"Ġinval":12129,"Ġrealizing":12130,"itably":12131,"Ġbiomet":12132,"Ġoriginated":12133,"Ġconjunction":12134,"follow":12135,"uity":12136,"Ġtraveled":12137,"Ġfavorites":12138,"Ġrefuse":12139,"Ø§Ø³":12140,"Ġabund":12141,"Ġrider":12142,"Ġdele":12143,"Ġpolled":12144,"Ġduke":12145,"Ø£":12146,"Ġsegmented":12147,"Ġaccomplish":12148,"Ġopponents":12149,"Ġcoat":12150,"Ġclassification":12151,"vaccine":12152,"selling":12153,"scop":12154,"Ġsurely":12155,"Ġtags":12156,"ules":12157,"Ġprosperity":12158,"Ġ×ĳ×":12159,"istent":12160,"Ġcollateral":12161,"Ġmichelle":12162,"Ġserver":12163,"Ġaux":12164,"Ġserum":12165,"aco":12166,"gre":12167,"Ġpulmonary":12168,"Ġpenalties":12169,"Ġshah":12170,"Ġcocktail":12171,"Ġpartnering":12172,"Ġdelaware":12173,"Ġrubber":12174,"arbon":12175,"Ġaccessories":12176,"Ġparallel":12177,"Ġjes":12178,"Ġsail":12179,"Ġcatastrophic":12180,"hot":12181,"Ġ121":12182,"cules":12183,"Ġ':":12184,"Ġformerly":12185,"Ġresignation":12186,"Ġinterven":12187,"Ġpathway":12188,"Ġcoca":12189,"Ġjeffrey":12190,"Ġwol":12191,"Ġorganizational":12192,"Ġ128":12193,"Ġdefensive":12194,"Ġstrikes":12195,"Ġperspect":12196,"Ġcoastal":12197,"Ġukrainian":12198,"Ġpresidents":12199,"Ġmeasuring":12200,"Ġlanding":12201,"Ġsri":12202,"Ġphishing":12203,"Ġcosmet":12204,"prop":12205,"Ġdex":12206,"Ġaccountable":12207,"Ġdemanded":12208,"riott":12209,"Ġsections":12210,"Ġ127":12211,"Ġkrist":12212,"iously":12213,"when":12214,"Ġgray":12215,"Ġ145":12216,"Ġkennedy":12217,"Ġexplosion":12218,"bra":12219,"Ġnp":12220,"adi":12221,"Ġenacted":12222,"vidia":12223,"Ġcongest":12224,"Ġconsequence":12225,"Ġhoney":12226,"usd":12227,"Ġgps":12228,"Ġneck":12229,"Ġramping":12230,"Ġhispanic":12231,"Ġreversal":12232,"Ġadams":12233,"Ġinterpre":12234,"getty":12235,"Ġmedications":12236,"Ġaffiliates":12237,"opard":12238,"iere":12239,"activ":12240,"Ġtakeover":12241,"Ġshipped":12242,"Ġoptimization":12243,"Ġoverlap":12244,"Ġstatewide":12245,"Ġrandomized":12246,"Ġboyc":12247,"Õ¡Õ":12248,"van":12249,"isolation":12250,"Ġlivelihoods":12251,"ulous":12252,"Ġtension":12253,"Ġinduced":12254,"Ġhog":12255,"Ġarc":12256,"Ġinstallation":12257,"rim":12258,"Ġdefining":12259,"Ġepicenter":12260,"umber":12261,"Ġdoi":12262,"Ġmalware":12263,"Ġyu":12264,"Ġchatbots":12265,"semble":12266,"atel":12267,"Ġpreference":12268,"astern":12269,"Ġkay":12270,"Ġmindset":12271,"bow":12272,"Ġappreciation":12273,"Ġadministrators":12274,"Ġfrustrated":12275,"Ġcompromised":12276,"lead":12277,"Ġmodelling":12278,"vales":12279,"erto":12280,"Ġdistributors":12281,"Ġhominem":12282,"Ġacquiring":12283,"120":12284,"chair":12285,"Ġabu":12286,"brit":12287,"Ġcyberatt":12288,"Ġaides":12289,"Ġcoaches":12290,"wealth":12291,"Ġblan":12292,"compass":12293,"Ġgeneric":12294,"Ġconnects":12295,"Ġphased":12296,"Ġconservatives":12297,"Ġasth":12298,"aze":12299,"Ġcement":12300,"Ġnorms":12301,"Ġenerg":12302,"Ġcolour":12303,"Ġaus":12304,"cha":12305,"Ġmotley":12306,"lenec":12307,"omics":12308,"ensky":12309,"Ġfunctioning":12310,"ancial":12311,"Ġcelebrated":12312,"Ġfunctionality":12313,"alone":12314,"pson":12315,"Ġhsbc":12316,"uer":12317,"Ġpractition":12318,"Ġadolescents":12319,"agan":12320,"Ġdock":12321,"Ġaccompanied":12322,"gate":12323,"Ġtamp":12324,"Ġpharmac":12325,"Ġcelebration":12326,"Ġbunch":12327,"hetic":12328,"Ġgrip":12329,"Ġ123":12330,"rica":12331,"Ġtopically":12332,"Ġemphasized":12333,"Ð°Ðº":12334,"Ġcraig":12335,"Ġbelt":12336,"Ġ220":12337,"Ġtiff":12338,"Ġindices":12339,"icals":12340,"Ġanytime":12341,"Ġimperative":12342,"Ġprest":12343,"Ġhubei":12344,"Ġ124":12345,"æľ":12346,"Ġcalculate":12347,"Ġunified":12348,"Ġnc":12349,"Ġrailway":12350,"crow":12351,"Ø°":12352,"Ġcrystal":12353,"Ġrehab":12354,"Ġbacklash":12355,"Ġoliver":12356,"issance":12357,"Ġgrav":12358,"Ġexplaining":12359,"break":12360,"Ġpreclinical":12361,"Ġdrones":12362,"Ġcameron":12363,"Ġì":12364,"Ġranking":12365,"Ġmarit":12366,"adjusted":12367,"Ġnaval":12368,"Ġcautionary":12369,"ĠÙĥ":12370,"ĠÐ³":12371,"sharing":12372,"Ġ126":12373,"Ġjessica":12374,"Ġscholars":12375,"Ġvarying":12376,"Ġ122":12377,"Ġpeps":12378,"Ġbuses":12379,"Ġsoy":12380,"Ġthanksgiving":12381,"Ġdiscipline":12382,"Ġflatten":12383,"Ġreversed":12384,"Ġpert":12385,"Ġoffline":12386,"Ġbiolog":12387,"achment":12388,"Ġ();":12389,"Ġreproduced":12390,"Ġgenerous":12391,"Ġreit":12392,"Ġaeros":12393,"Ġneurolog":12394,"Ġmarshall":12395,"2018":12396,"Ġobstacles":12397,"Ġconvales":12398,"Ġrealistic":12399,"Ġbelarus":12400,"Ġangela":12401,"Ġsuggestions":12402,"Ġseekers":12403,"Ġalarming":12404,"Ġfinancials":12405,"Ġedt":12406,"Ġrents":12407,"ĠØ¹ÙĦÙī":12408,"arma":12409,"obs":12410,"esh":12411,"Ġbats":12412,"Ġlord":12413,"Ġrecalled":12414,"/?":12415,"Ġinacc":12416,"Ġdecarbon":12417,"Ġlithium":12418,"Ġcush":12419,"Ġ1999":12420,"250":12421,"Ġti":12422,"Ġpmi":12423,"aret":12424,"Ġgrows":12425,"åħ":12426,"reportlinker":12427,"ioxide":12428,"Ġenhancing":12429,"Ġstal":12430,"Ġimpe":12431,"kr":12432,"Ġshenzhen":12433,"virus":12434,"astically":12435,"plan":12436,"Ġfilter":12437,"mm":12438,"Ġinjust":12439,"Ġreplacing":12440,"izza":12441,"orate":12442,"Ġutc":12443,"Ġexplores":12444,"Ġdeciding":12445,"Ġevans":12446,"Ġaffiliate":12447,"Ġencounter":12448,"that":12449,"ocon":12450,"Ġedits":12451,"Ġneil":12452,"Ġprescription":12453,"appro":12454,"Äį":12455,"Ġsanitation":12456,"ullivan":12457,"review":12458,"Ġassumes":12459,"iminated":12460,"kh":12461,"Ġgupta":12462,"Ġstring":12463,"Ġstoxx":12464,"Ġfinland":12465,"oir":12466,"centric":12467,"Ġfame":12468,"Ġkidney":12469,"Ġbasin":12470,"Ġemotion":12471,"kee":12472,"now":12473,"iÃ¨":12474,"Ġradar":12475,"Ġ212":12476,"wick":12477,"Ġgrace":12478,"Ġstreams":12479,"atemal":12480,"Ġfc":12481,"lando":12482,"Ġissuer":12483,"Ġinterpretation":12484,"Ġfulfillment":12485,"rer":12486,"stan":12487,"lockdown":12488,"Ġadapting":12489,"Ġunderwriting":12490,"Ġmathe":12491,"eze":12492,"Ġgif":12493,"Ġcertificates":12494,"Ġapr":12495,"ologies":12496,"Ġmedicaid":12497,"Ġtire":12498,"Ġmarriott":12499,"Ġindependently":12500,"nett":12501,"Ġincorporate":12502,"Ġsoviet":12503,"Ġfond":12504,"Ġcommence":12505,"Ġblunt":12506,"Ġcompuls":12507,"Ġapi":12508,"Ġsorts":12509,"Ġpv":12510,"edge":12511,"Ġendors":12512,"ĠØ§ÙĦØ¹":12513,"Ġstalled":12514,"Ġcease":12515,"Ġmatrix":12516,"Ġunpaid":12517,"jor":12518,"Ġalan":12519,"Ġrated":12520,"Ġcompassion":12521,"cled":12522,"Ġshoes":12523,"Ġbreathe":12524,"Ġdrone":12525,"Ġdelaying":12526,"matic":12527,"Ġaccenture":12528,"Ġfedex":12529,"Ġshin":12530,"Ġmaximize":12531,"Ġmirror":12532,"inge":12533,"linked":12534,"help":12535,"ocial":12536,"Ġnvidia":12537,"Ġcry":12538,"sample":12539,"Ġchev":12540,"imens":12541,"Ġigg":12542,"anthrop":12543,"Ġincorrect":12544,"Ġwai":12545,"Ġnegotiating":12546,"su":12547,"Ġtestim":12548,"Ġerup":12549,"Ġkal":12550,"Ġpaused":12551,"Ġdensity":12552,"Ġholder":12553,"Ġ');":12554,"Ġscaled":12555,"Ġedged":12556,"Ġbookmark":12557,"Ġjak":12558,"Ġemmanuel":12559,"Ġtired":12560,"Ġconfirms":12561,"Ġseniors":12562,"Ġalbum":12563,"Ġfantastic":12564,"ulent":12565,"Ġende":12566,"Ġpupils":12567,"Ġrash":12568,"Ġcinemas":12569,"kind":12570,"Ġrbc":12571,"Ġclassrooms":12572,"Ġconfidential":12573,"dering":12574,"150":12575,"Ġbj":12576,"Ġbottlenec":12577,"Ġmalicious":12578,"Ġendpoint":12579,"Ġclearing":12580,"Ġmaritime":12581,"Ġencompass":12582,"Ġtransplant":12583,"Ġbm":12584,"osm":12585,"exec":12586,"ĠpaÃŃ":12587,"Ġpalestinian":12588,"Ġcouples":12589,"non":12590,"Ġenf":12591,"ĠÐ·":12592,"Ġâĸ":12593,"Ġstrengths":12594,"Ġdiscrimin":12595,"eg":12596,"esco":12597,"imen":12598,"Ġmonet":12599,"Ġcumm":12600,"Ġphases":12601,"Ġcommercialization":12602,"Ġbps":12603,"Ġnucle":12604,"Ġrodr":12605,"Ġrelates":12606,"Ġinvestigated":12607,"Ġwildfires":12608,"Ġhorse":12609,"Ġminorities":12610,"Ġneighborhoods":12611,"Ġpetition":12612,"ims":12613,"Ġmedal":12614,"Ġlobb":12615,"Ġtransformed":12616,"Ñī":12617,"Ġspi":12618,"Ġihs":12619,"Ġfold":12620,"Ġmissouri":12621,"Ġnotion":12622,"show":12623,"Ġpositively":12624,"Ġsudan":12625,"Ġeliminating":12626,"Ġlatino":12627,"Ġunavoid":12628,"erves":12629,"inement":12630,"game":12631,"Ġchocol":12632,"Ġlgbtq":12633,"Ġhc":12634,"Ġhey":12635,"ouver":12636,"Ġcultiv":12637,"Ġconsequently":12638,"Ġmergers":12639,"Ġï":12640,"Ġsolo":12641,"uana":12642,"holding":12643,"Ġasthma":12644,"ÛĮ":12645,"Ð³":12646,"Ġkap":12647,"Ġrankings":12648,"Ġdh":12649,"Ġdot":12650,"Ġleon":12651,"Ġloop":12652,"Ġauthorised":12653,"Ġemotions":12654,"Ġdiversification":12655,"gow":12656,"Ġchuck":12657,"consumer":12658,"Ġ137":12659,"Ġresid":12660,"Ġtonight":12661,"Ġdioxide":12662,"Ġinternally":12663,"Ġneighbourhood":12664,"Ġhazard":12665,"Ġdependence":12666,"payers":12667,"aucr":12668,"Ġclip":12669,"austr":12670,"Ġdeploying":12671,"acco":12672,"funded":12673,"Ġrosen":12674,"Ġchop":12675,"Ġcollaborations":12676,"Ġintentions":12677,"Ġtours":12678,"Ġincoming":12679,"Ġabr":12680,"Ġknee":12681,"Ġtotaling":12682,"Ġsatisfied":12683,"005":12684,"Ġbanning":12685,"Ġcriminals":12686,"text":12687,"Ġpioneer":12688,"otal":12689,"Ġenzy":12690,"Ġhip":12691,"oshi":12692,"Ġciti":12693,"Ġupgrades":12694,"Ġgrat":12695,"Ġ132":12696,"Ġlyft":12697,"Ġovert":12698,"Ġnotified":12699,"Ġunre":12700,"Ġmack":12701,"vir":12702,"Ġcomplained":12703,"Ġreproduction":12704,"Ġoutsour":12705,"Ġpremature":12706,"Ġjd":12707,"Ġviolation":12708,"Ġtory":12709,"omy":12710,"Ġreleasing":12711,"Ġcruises":12712,"izable":12713,"dern":12714,"Ġvas":12715,"Ġspirits":12716,"Ġstanford":12717,"Ġinsecurity":12718,"Ġbrokers":12719,"cla":12720,"Ġpoorly":12721,"password":12722,"essed":12723,"Ġschumer":12724,"asive":12725,"Ġupbeat":12726,"Ġobtaining":12727,"Ġclosest":12728,"Ġwatchdog":12729,"Ø§Ø¦":12730,"Ġtedros":12731,"Ġperspectives":12732,"Ġbreakup":12733,"Ġstolen":12734,"Ġethnicity":12735,"Ġchel":12736,"Ġdeny":12737,"Ġsilence":12738,"wc":12739,"Ġmanages":12740,"indus":12741,"ancouver":12742,"Ġdemonstrating":12743,"enh":12744,"Ġ129":12745,"Ġbrow":12746,"shaped":12747,"Ġfasc":12748,"Ġantonio":12749,"iece":12750,"een":12751,"Ġauditor":12752,"Ġbureaucr":12753,"Ġswab":12754,"Ġphilanthrop":12755,"ï¼Į":12756,"Ġprediction":12757,"Ġ×ľ×":12758,"elli":12759,"itement":12760,"Ġcontagion":12761,"oids":12762,"food":12763,"Ġsomehow":12764,"iento":12765,"Ġwrap":12766,"Ġecu":12767,"Ġsaint":12768,"gnw":12769,"inib":12770,"Ġghana":12771,"Ġpessim":12772,"ĠÙĩ":12773,"Ġ03":12774,"Ġmarkit":12775,"Ġexceptions":12776,"Ġproposition":12777,"Ġunavoidable":12778,"enna":12779,"Ġseventh":12780,"Ġexplosive":12781,"Ġsocietal":12782,"aran":12783,"mile":12784,"Ġsue":12785,"Ġorigins":12786,"Ġignor":12787,"center":12788,"Ġlobby":12789,"Ġnegotiate":12790,"Ġbind":12791,"Ġsek":12792,"Ġsba":12793,"Ġchand":12794,"Ġbrew":12795,"Ġbiodiversity":12796,"Ġbottles":12797,"Ġrefunds":12798,"Ġintegrating":12799,"Ġindiana":12800,"Ġ')":12801,"Ġparameters":12802,"national":12803,"Ġcombating":12804,"profits":12805,"Ġoverhaul":12806,"Ġfahren":12807,"Ġ240":12808,"artner":12809,"loff":12810,"Ġjointly":12811,"rets":12812,"Ġquarantines":12813,"Ġfeder":12814,"ĠØŃ":12815,"Ġepidemiological":12816,"sign":12817,"Ġmour":12818,"truda":12819,"Ġdatal":12820,"Ġantitr":12821,"lig":12822,"Ġbout":12823,"Ġtightened":12824,"building":12825,"Ġtray":12826,"Ġaccusations":12827,"Ġcoordinator":12828,"Ġeua":12829,"Ġobservation":12830,"Ġleveraged":12831,"Ġabrupt":12832,"Ġroyalty":12833,"Ġcotton":12834,"Ġbrill":12835,"Ġcummings":12836,"atherine":12837,"Ġeaster":12838,"repres":12839,"Ġtechrepublic":12840,"Ø«":12841,"Ġwary":12842,"umatic":12843,"Ġstephan":12844,"Ġautomatic":12845,"Ġdorm":12846,"bt":12847,"Ġoutrage":12848,"Ġweapon":12849,"Ġfahrenheit":12850,"Ġfloating":12851,"?âĢĻ":12852,"itives":12853,"Ġnit":12854,"Ġreun":12855,"Ġns":12856,"Ġintim":12857,"Ġconvince":12858,"kl":12859,"Ġhelic":12860,"Ġsurprisingly":12861,"Ġattitudes":12862,"Ġanalytical":12863,"Ġharness":12864,"Ġsynthetic":12865,"Ġobservers":12866,"romb":12867,"Ġmidnight":12868,"Ġmills":12869,"Ġdisplaced":12870,"Ġaspir":12871,"Ġunderground":12872,"Ġperfectly":12873,"Ġkm":12874,"Ġporter":12875,"Ġendorse":12876,"Ġdrastic":12877,"Ġmaintains":12878,"Ġgeographical":12879,"direct":12880,"ĠØ³":12881,"Ġâī¥":12882,"Ġjudicial":12883,"Ġliterature":12884,"owski":12885,"Ġterrorism":12886,"Ġons":12887,"Ġconvalescent":12888,"Ġparad":12889,"type":12890,"Ġreinforce":12891,"Ġhesitancy":12892,"saving":12893,"Ġlicenses":12894,"Ġlvmh":12895,"Ġapplicants":12896,"resa":12897,"Ġnasal":12898,"Ġsponsor":12899,"Ġbez":12900,"Ġslid":12901,"democr":12902,"Ġobstruct":12903,"Ġguides":12904,"Ġdubbed":12905,"ru":12906,"Ġfierce":12907,"Ġ203":12908,"Ġswap":12909,"Ġheroes":12910,"Ġfare":12911,"Ġcomorbid":12912,"losed":12913,"Ġfbi":12914,"sur":12915,"Ġbust":12916,"Ġhealthier":12917,"Ġquebec":12918,"Ġ131":12919,"Ġcambod":12920,"analysis":12921,"Ġnecessity":12922,"dublin":12923,"odo":12924,"ĠÙĪØ§ÙĦ":12925,"eta":12926,"Ġcosta":12927,"Ġorlando":12928,"Ġazure":12929,"Ð°Ð²":12930,"Ġsoap":12931,"Ġnam":12932,"dated":12933,"hd":12934,"Ġinmates":12935,"Ġspurred":12936,"teen":12937,"Ġcurrentvide":12938,"Ġobservational":12939,"Ġlymph":12940,"rad":12941,"Ġsubsidy":12942,"Ġabsentee":12943,"next":12944,"Ġtaxpayers":12945,"Ġantitrust":12946,"Ġproving":12947,"Ġdigits":12948,"Ġintegral":12949,"Ġfought":12950,"Ġroadmap":12951,"Ġoccupied":12952,"Ġmlb":12953,"Ġwi":12954,"Ġelabor":12955,"Ġdust":12956,"Ġrut":12957,"Ġdisse":12958,"iano":12959,"Ġ144":12960,"Ġgrappling":12961,"atos":12962,"Ġbak":12963,"Ġpossibilities":12964,"Ġdiplomacy":12965,"Ġbuzz":12966,"Ġrolls":12967,"Ġepisodes":12968,"angers":12969,"Ġguatemal":12970,"Ġkeytruda":12971,"Ġrewards":12972,"Ġhomeland":12973,"Ġhaul":12974,"Ġuniverse":12975,"Ġcreativity":12976,"white":12977,"enses":12978,"Ġdesigning":12979,"Ġpretax":12980,"Ġelon":12981,"Ġ134":12982,"Ġswimming":12983,"Ġlid":12984,"Ġ136":12985,"©×":12986,"Ġniss":12987,"Ġsupervision":12988,"Ġemory":12989,"Ġappearing":12990,"Ġtaxation":12991,"Â°":12992,"Ġerrors":12993,"Ġdecisive":12994,"ebted":12995,"Ġcampbell":12996,"Ġcopies":12997,"Ġomn":12998,"Ġawaiting":12999,"Ġlunar":13000,"Ġcounterpart":13001,"Ġrenov":13002,"Ġallev":13003,"jud":13004,"Ġeviction":13005,"Ġsurvived":13006,"asi":13007,"eller":13008,"Ġdesc":13009,"glom":13010,"Ġkab":13011,"Ġdoug":13012,"Ġprecisely":13013,"stat":13014,"emerg":13015,"Ġapproached":13016,"ku":13017,"Ġbrun":13018,"missions":13019,"Ġgc":13020,"Ġsib":13021,"Ġhann":13022,"astr":13023,"Ġhans":13024,"Ġpatents":13025,"ĠÑĩ":13026,"Ġbilateral":13027,"Ġmolecules":13028,"Ġwalker":13029,"Ġtrav":13030,"Ġsteam":13031,"Ġorth":13032,"Ġcredentials":13033,"which":13034,"Ġlogistical":13035,"Ġ)%":13036,"Ġmitch":13037,"Ġtransforming":13038,"woven":13039,"ahu":13040,"Ġforeigners":13041,"Ġskip":13042,"Ġverd":13043,"Ġbrutal":13044,"Ġholes":13045,"Ġmaps":13046,"accept":13047,"Ġadvise":13048,"Ġstrategists":13049,"ÑģÑĤÐ²":13050,"Ġnights":13051,"Ġupset":13052,"Ġarsen":13053,"Ġfreeze":13054,"ĠâĢĿ).":13055,"Ġdatalayer":13056,"Ġcav":13057,"Ġtat":13058,"Ġatags":13059,"liant":13060,"Ġconsultants":13061,"Ġ210":13062,"Ġundertaken":13063,"Ġkro":13064,"Ġpassage":13065,"Ġimminent":13066,"Ġdental":13067,"Ġadvent":13068,"Ġinnovate":13069,"Ġniger":13070,"good":13071,"Ġbun":13072,"traded":13073,"Ġbailout":13074,"Ġhamilton":13075,"technavio":13076,"seen":13077,"Ġ02":13078,"Ġconclude":13079,"Ġdisputes":13080,"Ġdisplays":13081,"Ġbearing":13082,"Ġbenj":13083,"Ġutm":13084,"Ġ×Ĳ":13085,"Ġsearching":13086,"Ġtighter":13087,"Ġwen":13088,"Ġmaur":13089,"Ġconvicted":13090,"Ġmortgages":13091,"Ġburned":13092,"Ġcis":13093,"Ġcape":13094,"Ġrefusing":13095,"Ġpizza":13096,"bas":13097,"imated":13098,"request":13099,"tration":13100,"april":13101,"Ġmonitors":13102,"Ġverification":13103,"Ġhomeowners":13104,"Ġdurable":13105,"Ġflour":13106,"children":13107,"Ġfrankly":13108,"Ġeste":13109,"givers":13110,"Ġepidemiologist":13111,"Ġmarathon":13112,"Ġsuppress":13113,"Ġiceland":13114,"ÂĢÂĻ":13115,"Ġreportlinker":13116,"ÑģÑı":13117,"Ġprosecutor":13118,"quarant":13119,"Ġbristol":13120,"Ġstrat":13121,"Ġdecreases":13122,"Ġfault":13123,"Ġbreakfast":13124,"Ġcrossed":13125,"Ġemploys":13126,"Ġbarrons":13127,"Ġnag":13128,"anted":13129,"Ġescap":13130,"Ġderm":13131,"artis":13132,"actively":13133,"Ġneglect":13134,"Ġradi":13135,"Ġdispers":13136,"Ġserb":13137,"Ġsullivan":13138,"Ġexecuted":13139,"Ġbrokerage":13140,"Ġshame":13141,"Ġgrounded":13142,"Ġgol":13143,"Ġworship":13144,"Ġservic":13145,"Ġbras":13146,"Ġbiopharmaceutical":13147,"Ġmultilateral":13148,"Ġdocumentation":13149,"leans":13150,"Ġcyp":13151,"Ġinspiration":13152,"Ġhelicop":13153,"about":13154,"åı":13155,"Ġosaka":13156,"ogenicity":13157,"Ġmyth":13158,"Ġcharitable":13159,"Ġbases":13160,"hill":13161,"oly":13162,"Ġtunis":13163,"Ġmessenger":13164,"rows":13165,"Ð¸Ðµ":13166,"yson":13167,"esy":13168,"hig":13169,"owns":13170,"iasm":13171,"Ġunpredictable":13172,"Ġtiffany":13173,"Ġpersonality":13174,"books":13175,"Ġtragedy":13176,"Ġencourages":13177,"Ġlogic":13178,"Ġturbul":13179,"Ġwool":13180,"uded":13181,"Ġdominate":13182,"ĠÑį":13183,"pton":13184,"Â®,":13185,"Ġsaas":13186,"Ġastronaut":13187,"Ġneighboring":13188,"hics":13189,"Ġoutp":13190,"shares":13191,"acters":13192,"Ġpills":13193,"tery":13194,"heastern":13195,"Ġchills":13196,"newyork":13197,"Ġstroke":13198,"Ġpt":13199,"Ġcharacters":13200,"Ġexams":13201,"Ġorganised":13202,"Ġhbo":13203,"Ġshipment":13204,"Ġvisas":13205,"speed":13206,"Ġcelebrating":13207,"Ġconclusions":13208,"Ġreaches":13209,"amente":13210,"Ġglas":13211,"Ġdepressed":13212,"Ġchecked":13213,"oenix":13214,"Ġsig":13215,"Ġfet":13216,"Ġcoco":13217,"Ġgw":13218,"Ġmutation":13219,"Ġduc":13220,"Ġenthusiasm":13221,"Ġleap":13222,"issa":13223,"Ġkaiser":13224,"Ġsongs":13225,"Ġmedit":13226,"Ġresistant":13227,"Ġ165":13228,"Ġfeeding":13229,"okes":13230,"Ġroger":13231,"Ġcleaner":13232,"Ġconglom":13233,"Ġlang":13234,"Ġgord":13235,"ries":13236,"Ġindebted":13237,"Ġcream":13238,"uv":13239,"Ġdefending":13240,"Ġvod":13241,"oriented":13242,"ctic":13243,"Ġverizon":13244,"small":13245,"Ġmuslims":13246,"Ġmultin":13247,"Ġstating":13248,"science":13249,"secured":13250,"Ġcardiac":13251,"Ġpaths":13252,"Ġjacob":13253,"Ġpolicing":13254,"Ġunderest":13255,"Ġmenu":13256,"Ġnih":13257,"Ġautonomy":13258,"industry":13259,"Ġlets":13260,"Ġorleans":13261,"Ġworn":13262,"Ġrushed":13263,"Ġinspection":13264,"Ġnr":13265,"Ġshields":13266,"Ġunderstands":13267,"mind":13268,"Ġnash":13269,"Ġcox":13270,"Ġcompulsory":13271,"Ġtak":13272,"changing":13273,"phys":13274,"Ġjeopard":13275,"Ġresigned":13276,"Ġpanels":13277,"Ġdraws":13278,"loat":13279,"ĠĠĠĠĠĠĠĠĠĠ":13280,"Ġmurray":13281,"Ġcaregivers":13282,"veland":13283,"Ġguang":13284,"Ġoutreach":13285,"Ġupstream":13286,"Ġcomeback":13287,"Ġhut":13288,"Ġhedging":13289,"Ġavec":13290,"newyorker":13291,"Ġpatel":13292,"compan":13293,"Ġpassports":13294,"Ġnh":13295,"Ġissuers":13296,"Ġcharlotte":13297,"Ġadvising":13298,"Ġrecoveries":13299,"Ġabo":13300,"duce":13301,"Ġtighten":13302,"ement":13303,"Ġautomate":13304,"Ġlanded":13305,"gence":13306,"Ġdesert":13307,"Ġopenings":13308,"Ġmarcus":13309,"Ġhepat":13310,"Ġounces":13311,"Ġmate":13312,"Ġ').":13313,"Ġperpet":13314,"Ġlowering":13315,"Ġbabies":13316,"Ġconcludes":13317,"cule":13318,"à¸":13319,"Ġ1000":13320,"Ġunic":13321,"Ġanna":13322,"Ġcredible":13323,"Ġutilizing":13324,"Ġconced":13325,"Ġreadiness":13326,"Ġcountless":13327,"strom":13328,"Ġ155":13329,"Ġ138":13330,"belt":13331,"Ġmatched":13332,"Ġthereof":13333,"169":13334,"Ġreins":13335,"Ġspur":13336,"Ġtheft":13337,"Ġhend":13338,"Ġfing":13339,"Ġconform":13340,"Ġregards":13341,"Ġslumped":13342,"Ġloos":13343,"Ġredd":13344,"Ġreson":13345,"%;":13346,"Ġidentifies":13347,"Ġterrorist":13348,"Ġ===":13349,"prot":13350,"Ġeia":13351,"Ġsmar":13352,"Ġpopulous":13353,"Ġkle":13354,"cked":13355,"Ġfreely":13356,"Ġbos":13357,"Ġlibya":13358,"Ġloud":13359,"Ġzur":13360,"itte":13361,"Ġbenefiting":13362,"south":13363,"Ġhilton":13364,"illo":13365,"yard":13366,"Ġimproves":13367,"Ġadditions":13368,"Ġbenchmarks":13369,"Ġprudent":13370,"clusive":13371,"Ġbiomedical":13372,"Ġbenjamin":13373,"Ġecommerce":13374,"Ġcomedy":13375,"Ġjerem":13376,"Ġdevelops":13377,"Ġeliminated":13378,"Ġchf":13379,"Ġreadily":13380,"Ġbonuses":13381,"Ġlengthy":13382,"Ġ401":13383,"Ġhob":13384,"Ġdiligence":13385,"Ġpolish":13386,"Ġmillennials":13387,"jay":13388,"Ġtorn":13389,"Ġcredo":13390,"Ġrestraints":13391,"Ġseized":13392,"Ġapac":13393,"Ġdoubts":13394,"Ġobserve":13395,"Ġexceeding":13396,"Ġredistr":13397,"Ġagrees":13398,"Ġeagle":13399,"fg":13400,"grow":13401,"Ġseparated":13402,"unes":13403,"Ġeurop":13404,"Ġepidemics":13405,"Ġ1996":13406,"Ġauf":13407,"Ġana":13408,"lived":13409,"Ġretrieved":13410,"Ġkumar":13411,"Ġecuador":13412,"Ġwheat":13413,"Ġspo":13414,"Ġobservations":13415,"Ġanalyzing":13416,"Ġcorrelation":13417,"Ġworkouts":13418,"Ġactress":13419,"tar":13420,"Ġkath":13421,"Ġpredominantly":13422,"Ġbranded":13423,"Ġsuspending":13424,"Ġbroadcaster":13425,"Ġfinger":13426,"Ġrobotic":13427,"Ġlav":13428,"Ð¸Ð¸":13429,"Ġcommissioned":13430,"Ġgetty":13431,"Ġ×ŀ×":13432,"Ġbalancing":13433,"Ġhurdles":13434,"Ġundergoing":13435,"rogen":13436,"incol":13437,"uating":13438,"eliness":13439,"Ġbeaten":13440,"Ã±os":13441,"Ġattitude":13442,"Ġpeg":13443,"Ġmice":13444,"Ġoutlet":13445,"Ġsalt":13446,"holm":13447,"india":13448,"Ġprevalent":13449,"Ġmud":13450,"Ġnoses":13451,"amped":13452,"Ġcatal":13453,"js":13454,"Ġlop":13455,"imic":13456,"Ġcybercr":13457,"Ġmuseums":13458,"Ġpayout":13459,"Ġuncomfort":13460,"Ġfreel":13461,"Ġnamely":13462,"Ġshelters":13463,"Ġescalating":13464,"izers":13465,"Ġlandmark":13466,"efficient":13467,"Ġtide":13468,"Ġsoda":13469,"Ġchampionships":13470,"stit":13471,"Ġqualitative":13472,"Ġcommittees":13473,"Ġeleph":13474,"Ġalz":13475,"ede":13476,"Ġcivilians":13477,"iko":13478,"Ġmiscon":13479,"Ġseng":13480,"Ġpersonas":13481,"Ð¸Ð½":13482,"Ġunwa":13483,"Ġdelic":13484,"Ø§Ø¹":13485,"Ġspon":13486,"cycle":13487,"ijuana":13488,"Ã©t":13489,"Ġllp":13490,"isis":13491,"umat":13492,"stract":13493,"Ġembraced":13494,"Ġcontempor":13495,"Ġcongr":13496,"Ġdrastically":13497,"Ġlone":13498,"Ġrick":13499,"Ġrunny":13500,"Ð°ÑĢ":13501,"Ġcrops":13502,"pcr":13503,"ington":13504,"track":13505,"ucking":13506,"Ġpockets":13507,"Ġinevitably":13508,"Ġmultinational":13509,"Ġcommonwealth":13510,"asa":13511,"Ġrecognizing":13512,"Ġbrink":13513,"Ġunwavering":13514,"Ġfirmly":13515,"Ġmakeup":13516,"Ġcomprising":13517,"Ġoutwe":13518,"Ġstrictly":13519,"Ġethiopia":13520,"Ġorganizing":13521,"Ġtobacco":13522,"bm":13523,"oli":13524,"Ġscarce":13525,"len":13526,"zi":13527,"Ġearthqu":13528,"Ġtouted":13529,"Ġdisappoint":13530,"Ġcens":13531,"Ġafloat":13532,"Ġeditors":13533,"Ġfails":13534,"Ġsoul":13535,"Ġtodd":13536,"Ġphoenix":13537,"Ġforma":13538,"Ġcorrid":13539,"Ġinterference":13540,"Ġforgot":13541,"Ġreferences":13542,"balance":13543,"Ġspiked":13544,"ishes":13545,"Ġnavigating":13546,"Ġsnapshot":13547,"Ġancient":13548,"Ġpact":13549,"ulu":13550,"Ġcompris":13551,"Ġdefinitions":13552,"Ġstretched":13553,"Ġrevel":13554,"Ġunsecured":13555,"Ġstric":13556,"Ġverify":13557,"frame":13558,"Ġextract":13559,"Ġscrambling":13560,"Ġvillages":13561,"nn":13562,"otype":13563,"Ġdangers":13564,"Ġpuzz":13565,"Ġuc":13566,"Ġcivilian":13567,"Ġpostponement":13568,"xp":13569,"Ġquicker":13570,"Ġplummeted":13571,"Ġgartner":13572,"Ġpropose":13573,"aho":13574,"Ġcelebrity":13575,"wid":13576,"Ġdeterioration":13577,"lements":13578,"750":13579,"financial":13580,"ducing":13581,"Ġclark":13582,"arat":13583,"chip":13584,"Ġhhs":13585,"Ġstreak":13586,"ashi":13587,"Ð°Ð¼":13588,"Ġdrugmaker":13589,"Ġstricter":13590,"Ġaaron":13591,"Ġlabels":13592,"Ġresponders":13593,"Ġbluet":13594,"Ġoptical":13595,"Ġmelt":13596,"immune":13597,"ioned":13598,"Ġ148":13599,"Ġinputs":13600,"Ġguine":13601,"inction":13602,"Ġdocumentary":13603,"screen":13604,"Ġpilgr":13605,"Ġhunting":13606,"Ġauthentication":13607,"Ġstaggering":13608,"Ġcredibility":13609,"article":13610,"employed":13611,"Ġburst":13612,"Ġkan":13613,"Ġoutflow":13614,"Ġcourtesy":13615,"ipts":13616,"ads":13617,"Ġsubmission":13618,"Ġsoci":13619,"ienced":13620,"Ġdistant":13621,"Ġpeaked":13622,"Ġmilestones":13623,"Ġelimination":13624,"Ġadvancements":13625,"Ġpayrolls":13626,"Ġkin":13627,"Ġ172":13628,"Ġselloff":13629,"Ġenthusi":13630,"Ġunh":13631,"Ġspeeds":13632,"Ġnos":13633,"respons":13634,"Ġrestrictive":13635,"washington":13636,"Ġchi":13637,"Ð°Ð·":13638,"ÐµÐ¹":13639,"Ġuv":13640,"urrent":13641,"Ġproblematic":13642,"Ġweaknesses":13643,"Ġdick":13644,"Ġrecycled":13645,"wearing":13646,"Ġdistributing":13647,".:":13648,"chief":13649,"Ġboundaries":13650,"Ġleagues":13651,"Ġpathways":13652,"ãĢĤ":13653,"Ġdemonstration":13654,"Ġgary":13655,"needed":13656,"Ġconfinement":13657,"function":13658,"Ġshout":13659,"Ġpremises":13660,"Ġcatastrophe":13661,"Ġbluetooth":13662,"urge":13663,"Ġairborne":13664,"Ġmindful":13665,"opinner":13666,"ÙĪØ±":13667,"omi":13668,"Ġvou":13669,"Ġlaying":13670,"Ġincumbent":13671,"pf":13672,"Ġtb":13673,"Ġcrews":13674,"Ġandrews":13675,"Ġ141":13676,"Ġ142":13677,"Ġtestimony":13678,"Ġgaza":13679,"assets":13680,"raft":13681,"Ġroc":13682,"Ġconcepts":13683,"Ġtian":13684,"Ġreliant":13685,"aults":13686,"Ġlining":13687,"Ġbruce":13688,"Ġgib":13689,"Ġvancouver":13690,"Ġoracle":13691,"Ġrunway":13692,"Ġdement":13693,"Ġwarner":13694,"Ġsuits":13695,"Ġdamages":13696,"Ġreimbursement":13697,"Ġshelf":13698,"Ġroutinely":13699,"atal":13700,"Ġsoar":13701,"executive":13702,"Ġcisco":13703,"Ġunaccept":13704,"Ġsupplementary":13705,"Ġsatisfy":13706,"Ġorbit":13707,"Ġtreaty":13708,"Ġappealing":13709,"Ġbuckle":13710,"uably":13711,"ceptive":13712,"Ġrehabilit":13713,"Ġinsist":13714,"Ġpresentations":13715,"izar":13716,"Ġtrag":13717,"chestr":13718,"Ġexporting":13719,"arest":13720,"Ġcapitalization":13721,"Ġbt":13722,"Ġregulate":13723,"Ġjumping":13724,"Ġhonored":13725,"Ġcatholic":13726,"distancing":13727,"Ġsul":13728,"stud":13729,"Ġqr":13730,"russ":13731,"big":13732,"Ġlion":13733,"Ġjustify":13734,"Ġ143":13735,"Ġchevron":13736,"urate":13737,"Ġviewing":13738,"Ġ146":13739,"Ġlawrence":13740,"Ġrecruiting":13741,"Ġnormalcy":13742,"Ġechoed":13743,"erald":13744,"Ġdecreasing":13745,"Ġ139":13746,"Ð¾Ð±":13747,"Ġspacex":13748,"Ġnovartis":13749,"Ġreimag":13750,"Ġsuburbs":13751,"Ġdowngraded":13752,"Ġcarlos":13753,"Ġindefinitely":13754,"Ġ05":13755,"Ġses":13756,"Ġprc":13757,"Ġupload":13758,"Ġsprint":13759,"Ġlem":13760,"remlin":13761,"Ġbeneficiaries":13762,"Ġparagraph":13763,"Ġspa":13764,"Ġshowcase":13765,"Ġauthoritarian":13766,"Ġdelighted":13767,"Ġexercising":13768,"Ġreign":13769,"Ġreader":13770,"Ġattachment":13771,"Ġjewel":13772,"Ġpulse":13773,"Ġfract":13774,
[...]
