#version: 0.2
Ġ t
Ġ a
i n
h e
r e
Ġ s
o n
Ġt he
Ġ c
e r
Ġ o
a t
Ġ w
e n
Ġ p
e s
o r
a n
i t
Ġ f
Ġ b
Ġ in
Ġ m
in g
e d
a l
Ġa n
i s
a r
Ġt o
Ġ d
Ġo f
Ġan d
i c
i on
r o
Ġ h
a s
Ġ re
Ġ l
o u
Ġt h
en t
Ġ e
Ġ n
i l
â Ģ
o m
i d
u s
Ġ g
v e
c t
l e
Ġ -
e t
l y
u r
u t
Ġ- -
Ġf or
Ġs t
u n
Ġb e
s t
Ġ on
Ġ âĢ
i r
at ion
c e
i m
a y
o l
v er
i g
o w
Ġw e
Ġ is
Ġth at
a d
o t
Ġ 2
c h
Ġd e
Ġa s
Ġ it
m ent
il l
Ġp ro
Ġc on
Ġ y
Ġc om
Ġ v
er s
Ġ he
s e
Ġ r
it h
âĢ Ļ
Ġ 1
Ġw ith
a c
Ġw h
es t
Ġa l
at e
u l
t er
a m
or t
Ġs e
an d
Ġe x
Ġn e
i es
u p
Ġm o
l d
t h
l o
Ġa re
Ġ2 0
Ġa t
i f
Ġ j
es s
g e
Ġ (
Ġc h
re s
q u
a ve
he r
a in
e ct
it y
Ġc o
a b
Ġ un
Ġt r
Ġb y
Ġs a
i ve
k e
i al
Ġs h
e m
t r
u m
ro m
o s
Ġo r
o c
Ġcom p
o p
Ġf rom
i v
ĠâĢ ľ
a p
ou n
Ġh ave
Ġ '
t s
p ort
ĠâĢ Ŀ
ig h
Ġin c
v id
Ġh as
Ġth is
Ġsa id
e ar
en d
e l
Ġw or
Ġm ar
Ġa d
ou r
Ġw as
u d
re d
Ġn ot
ar t
Ġa c
0 0
ion s
a ct
Ġ us
an t
Ġw ill
Ġg o
ou ld
' s
re n
Ġre s
Ġl e
om e
Ġex p
Ġa b
Ġ20 2
us t
1 9
i e
u b
Ġs p
in e
Ġmo re
Ġp l
as t
o d
Ġ im
Ġ i
Ġ k
u re
is t
a v
Ġne w
Ġ $
al l
k s
Ġ' '
at ed
Ġ 3
i b
an y
t her
i p
Ġb ut
` `
Ġ ``
i a
a k
k et
Ġo ur
an s
ou t
ar d
Ġc an
f f
Ġp r
Ġo p
Ġa p
u g
Ġ en
u e
Ġy ou
Ġy ear
Ġo ut
Ġp er
Ġit s
a re
a ge
Ġthe ir
ic h
Ġthe y
Ġco vid
Ġcon t
Ġ qu
i z
ation s
a g
on g
Ġd is
d u
ill ion
Ġin t
Ġa m
ic al
Ġm e
as e
Ġw he
Ġal l
c on
Ġmar ket
Ġ up
Ġp e
ab le
an ce
Ġin d
or m
Ġt e
Ġ Ġ
ir us
d er
Ġg ro
igh t
ac k
un d
Ġc or
o re
Ġa g
o g
l l
Ġof f
Ġre c
b er
Ġwh ich
ic e
s o
a il
Ġm on
Ġac c
or s
Ġin f
Ġwor k
an c
Ġf in
Ġbe en
Ġo ther
Ġap p
o k
op le
Ġwh o
Ġpe ople
Ġd o
Ġe m
Ġth an
Ġa f
ou s
Ġs o
Ġal so
id e
Ġc l
Ġo ver
ow n
ment s
Ġ ro
Ġin v
Ġab out
. .
Ġwe re
Ġl i
Ġ 5
d ay
Ġp art
im e
ar y
ig n
ent s
al th
Ġ 4
a ce
at es
Ġcom m
Ġre port
i re
it ies
Ġs up
ver y
ay s
or d
Ġp re
v en
Ġ202 0
em ic
Ġim p
Ġs c
Ġthe re
l ic
il e
l ud
Ġcomp any
Ġhe alth
Ġf ir
Ġst r
a ke
Ġc oun
Ġc r
Ġp res
u ch
Ġm illion
it al
p t
and emic
Ġb us
ing s
al ly
in ess
Ġon e
it ion
Ġl o
Ġ u
Ġ if
Ġn o
Ġb r
e c
Ġp andemic
Ġs er
on av
du ct
Ġs ome
ul t
Ġh ad
onav irus
Ġcon s
ac c
re e
en ce
Ġbus iness
Ġm an
Ġinc lud
Ġli ke
Ġh ow
Ġd r
Ġcor onavirus
Ġinv est
Ġaf ter
Ġm ay
Ġf e
en s
l ow
Ġa r
Ġw ould
tr y
Ġa ct
Ġde c
Ġre g
ol d
l i
Ġv acc
Ġp o
ug h
Ġas s
Ġad d
Ġp ol
Ġst ate
it e
as ed
ur ing
ver n
Ġfir st
Ġt ime
con om
ren t
f e
on e
e p
Ġr is
at ing
Ġin ter
Ġh is
Ġf r
Ġt w
Ġgo vern
Ġbe c
Ġwhe n
Ġc as
Ġe conom
a us
ic es
Ġj o
Ġ 6
am e
Ġp ub
i an
as s
= =
ver s
t e
Ġwh at
Ġc ould
u c
er t
id ent
en c
Ġun der
Ġwe e
Ġs y
o se
oc k
Ġthe se
le ct
a ch
ation al
lo b
Ġn ow
Ġne ed
Ġe ar
Ġwor ld
il ity
al y
Ġpro duct
ro p
in es
f orm
Ġan y
Ġre m
an g
Ġs he
Ġy our
Ġinc re
re at
Ġg lob
res s
Ġmon th
u al
Ġd at
Ġres p
Ġg et
r ic
Ġp os
Ġ 7
Ġc ap
ad e
u res
ro ugh
or y
Ġe ff
Ġl a
Ġb o
Ġde m
he d
ol og
Ġ end
Ġop er
Ġser v
il d
Ġint o
Ġmo st
u es
ect ed
Ġp h
it ed
ĠâĢ Ķ
g h
Ġ ke
i ous
Ġdat a
Ġ &
t ing
el l
Ġgro w
in k
Ġm ed
Ġte ch
Ġb et
c om
Ġre p
n ing
Ġre t
Ġwh ile
c ed
re ad
Ġfin anc
Ġre l
Ġtr ans
if ic
Ġqu ar
Ġm in
Ġl ast
Ġj ust
Ġpro vid
Ġd es
Ġt est
er m
Ġcont in
Ġthe m
s s
lo y
00 0
Ġm any
Ġ 8
l p
Ġglob al
c ess
Ġc ur
is s
Ġd uring
ou gh
Ġp at
Ġgovern ment
aus e
am p
Ġan aly
Ġtw o
Ġs ur
Ġle ad
Ġth rough
Ġhe lp
g r
Ġe u
in a
lo p
n e
Ġse e
p loy
Ġ202 1
er g
Ġ20 1
Ġst ud
w e
Ġth ose
Ġh igh
se ar
at ive
Ġb u
Ġ1 0
Ġgro up
Ġs al
ic k
ve lop
t ed
Ġan n
Ġs ub
Ġc ol
w ard
an ge
Ġb ack
Ġ 9
Ġfinanc ial
Ġ 0
Ġre sear
g an
Ġa ut
ar g
Ġwe ll
Ġde velop
ur n
Ġse c
Ġs uch
i ed
er ic
Ġb an
Ġe v
Ġinclud ing
2 0
ic s
Ġd own
is h
is e
Ġind us
oun d
Ġwee k
Ġg en
ie w
Ġre st
i o
Ġd if
Ġn et
Ġquar ter
on d
Ġtech n
Ġn um
Ġpub lic
f ore
in ce
Ġc ent
Ġs ign
Ġag ain
Ġe ven
ib le
Ġl ong
um p
Ġon ly
l es
at er
Ġyear s
Ġsup port
l ine
Ġin st
in d
Ġpro t
Ġcomp an
c o
it s
Ġf und
Ġam eric
Ġsh are
Ġcompan ies
w n
Ġc lo
Ġg r
ire ct
o st
Ġhe r
x t
Ġs ch
a red
Ġbec ause
ĠâĢ ĵ
ro ss
Ġwhe re
Ġacc ord
a x
c r
Ġl ow
on s
Ġ ent
ve l
Ġs m
Ġs oc
v ed
Ġs ince
ro und
Ġc all
Ġ est
Ġcas es
Ġimp act
Ġ z
j ect
Ġk n
st em
Ġsup p
er al
Ġd irect
Ġe very
ak ing
Ġ ]
Ġ [
Ġc ar
Ġbe fore
Ġinf orm
Ġch ina
Ġre qu
Ġv irus
Ġpro f
Ġde p
o od
b s
i ent
Ġsh ould
Ġb illion
Ġresear ch
Ġd on
in t
Ġvacc ine
ent ial
iv es
Ġg u
) ,
Ġoff ic
i or
Ġad v
Ġco st
f t
Ġa ir
Ġus e
c ent
Ġnew s
Ġp ay
Ġm ake
Ġst art
Ġaccord ing
Ġv al
i vers
Ġpres ident
Ġa v
Ġsh ow
Ġ ed
and s
at h
Ġin s
Ġpl an
Ġ20 19
Ġc ust
Ġf l
Ġint e
Ġbe ing
Ġsy stem
Ġtechn olog
Ġst ill
n s
.. ..
u ct
Ġcoun try
Ġf ol
Ġcur rent
Ġpre v
or k
Ġexp er
Ġ1 9
i ents
Ġp ers
Ġcust om
Ġm y
Ġb ot
Ġp ar
Ġgrow th
tr ies
ul ts
f ul
Ġem ploy
re st
ul ar
Ġh ome
Ġs ays
ic t
Ġsal es
a ir
m ed
Ġf ore
con d
igh ts
Ġl os
Ġmonth s
Ġat t
Ġcomm un
Ġc are
l ed
ie f
' t
Ġe qu
Ġis s
i x
h ing
ap p
c es
il y
al s
Ġlo ok
ut ion
c er
Ġris k
a z
Ġd ay
Ġfol low
Ġinter n
Ġinform ation
Ġs et
Ġapp ro
Ġse cond
Ġa round
Ġt ake
Ġme as
) .
Ġst ock
Ġth ink
rop e
Ġth ree
Ġm a
ert ain
Ġf ul
Ġd et
Ġf ut
Ġnum ber
un e
Ġf act
== ==
d own
Ġeff ect
Ġindus try
c k
Ġm uch
enc y
Ġcon tr
Ġeu rope
Ġb en
Ġb l
Ġst ates
Ġcon f
i od
Ġor gan
ate g
os p
Ġfor m
Ġrec ent
h ip
t y
Ġdem and
Ġ3 0
we en
Ġgo ing
b r
Ġan t
Ġre f
o ol
an ts
Ġbet ween
Ġ very
Ġac ross
Ġinf ect
Ġd ue
et s
Ġserv ices
Ġacc ess
Ġs ay
Ġmar ch
Ġv ar
Ġh ig
Ġeconom ic
is ion
Ġtr ump
Ġper iod
Ġd ig
Ġban k
Ġb ig
Ġn on
Ġte am
Ġann oun
Ġman age
Ġre ven
Ġsoc ial
Ġo wn
Ġagain st
Ġs ol
Ġ1 2
Ġde f
en g
Ġres ults
Ġrem ain
t al
Ġ ve
Ġpl ay
le ase
ial s
i ence
Ġne xt
Ġl oc
it ive
Ġf ac
Ġto p
Ġle vel
Ġw ay
Ġre ad
m an
ur s
Ġper cent
re ak
im ate
Ġdif fe
Ġpol ic
ot her
Ġpart ic
Ġsec ur
l ing
Ġd id
Ġw ar
Ġim port
v iew
Ġbot h
Ġcoun tries
Ġre al
us s
Ġgo od
Ġexp ect
m in
Ġe lect
er ing
b ers
osp ital
Ã ©
ver age
ou se
is ts
Ġm ade
Ġc re
t he
p or
gr am
Ġfut ure
Ġre ce
Ġs en
Ġ1 5
e red
Ġde l
Ġreport ed
Ġpro p
y ing
iz ed
e f
Ġh ospital
Ġn ational
Ġb ro
se l
y p
Ġch ild
Ġs im
l and
Ġdig ital
iz ation
Ġc he
ar ge
Ġkn ow
ut e
is ed
iv en
v es
Ġ1 1
Ġm em
t ions
Ġtr ave
Ġdis c
s is
Ġadd ition
oun t
Ġcr is
Ġt erm
Ġsp ec
Ġbe l
Ġinte rest
a res
Ġhe re
Ġpo st
Ġsch ool
Ġthe n
Ġl if
p s
Ġp ot
Ġcap ital
Ġa ff
Ġt im
Ġpro gram
Ġe l
n er
g in
in ed
Ġto tal
Ġaut h
Ġop en
Ġpat ients
Ġd ays
Ġc le
ical ly
t ion
Ġpers on
Ġprot ect
ĠĠ ĠĠ
Ġcons um
Ġf ur
Ġf ar
et y
Ġf ed
iv id
Ġtechnolog y
Ġw ant
Ġf ound
Ġh um
Ġstr ateg
Ġma j
Ġf am
o v
Ġm as
m ber
w w
ar s
t t
it ions
n ed
Ġen g
g est
Ġm ain
a ff
Ġmanage ment
st r
Ġc e
Ġl im
a w
Ġs ame
e ver
p l
Ġ /
u ary
Ġto ld
b le
Ġincre ase
Ġwork ers
Ġp op
iss ion
e x
Ġlos s
Ġcris is
u ed
Ġinc ome
Ġf our
Ġmaj or
iz e
Ġo b
Ġcas h
Ġl ess
Ø §
Ġm et
m s
ot e
Ġall ow
Ġtr ad
read y
Ġch ang
as on
ial ly
it ing
d s
Ġdis e
Ġme et
Ġun ited
Ġne ar
Ġla w
Ġse ct
Ġanaly sis
Ġeconom y
Ġpot ential
Ġmo d
Ġal ready
Ġf ace
Ġrec ord
Ġcont ro
Ġ es
oc us
Ġsp read
Ġexp ected
Ġde ath
Ġpres s
Ġcontin ue
Ġwork ing
Ġ1 3
Ġp a
Ġch ange
Ġs it
Ġr ight
at her
iv ing
Ġfor ward
ab ility
r on
Ġact iv
Ġam ong
Ġ1 4
y s
end ing
Ġt ax
Ġm at
Ġs ou
ent ion
Ġj une
Ġdo es
Ġp ow
Ġke ep
Ġpro cess
ivers ity
n al
Ġemploy e
Ġsh ort
Ġu k
Ġex t
Ġc our
Ġclo s
Ġmarket s
ag es
Ġrec o
Ġmeas ures
Ġl ock
Ġsupp ly
Ġret urn
b o
Ġfur ther
Ġpro ject
Ġ Â
Ġus ed
Ġauth or
Ġan other
Ġhow ever
Ġtrave l
Ġstud y
it ical
Ġav ail
Ġh ouse
Ġinvest ors
in ation
d a
Ġper form
Ġch all
Ġsign ific
Ġex ec
Ġdiffe rent
Ġben ef
ort h
Ġintern ational
Ġv is
Ġreven ue
Ġke y
Ġem erg
Ġb as
is m
Ġp ass
Ġlike ly
t en
Ġstr ong
Ġb lo
Ġp ut
Ġr ate
y ear
Ġf ocus
i red
Ġde b
is hed
Ġres ult
Ġhe ad
e y
Ġhig her
Ġful l
r i
is tr
Ġh al
Ġcomp le
Ġproduct s
Ġcon d
Ġbusiness es
Ġg reat
u ally
Ġ3 1
Ġinvest ment
g et
Ġl arge
r il
Ġsm all
Â ·
k ed
Ġfe w
t le
Ġhum an
Ġsignific ant
t o
Ġsh ares
Ġh old
Ġl ab
Ġdevelop ment
n ess
il ities
Ġear ly
Ġpl ace
p er
ac y
Ġl at
Ġimport ant
Ġcon cer
is ter
Ġc ity
p h
ut ions
Ġcustom ers
Ġstate ments
Ġon line
ren ce
Ġb ar
Ġout b
Ġpos s
lo ok
p r
Ġto day
Ġt yp
r y
Ġo il
Ġp ort
Ġval ue
Ġt able
he s
Ġwith out
Ġe ach
Ġimp ro
oc ks
Ġbu ild
n es
m e
j ust
h old
Ġb id
ain ed
Ġc al
Ġap ril
us tr
Ġb est
Ġf ood
Ġpr iv
m ar
Ġde li
ain s
w ay
Ġfin d
Ġ1 8
v ing
as es
Ġp ast
Ġbet ter
Ġpr ice
Ġqu est
erg y
a h
Ġpolic y
Ġdis tr
r ap
Ġm r
Ġre du
al e
Ġs l
Ġlock down
ro w
av ing
Ġs w
Ġexec ut
ce pt
al ity
Ġad min
n ings
Ġh ist
Ġth ough
Ġserv ice
Ġh ard
as ing
ir d
Ġs u
Ġmed ical
Ġcomm it
c ast
port un
Ġrest ric
Ġ1 6
c l
Ġavail able
Ġchild ren
k ing
Ġp ur
Ġcomp ared
Ġinf l
Ġ1 00
g ress
Ġop portun
Ġme an
Ġst re
id ay
er c
oc i
Ġw r
ir on
ie ld
Ġv ol
u ly
Ġproduct ion
Ġh op
Ġannoun ced
âĢ Ķ
Ġprovid e
Ġim m
Ġcom e
if ied
Ġ2 5
m pt
Ġ/ /
Ġf ree
. ,
Ġr un
Ġbel ie
at ory
Ġle g
' re
Ġsub s
u f
ion al
Ġst ocks
el s
Ġf il
Ġar t
Ù Ħ
Ġmo ve
Ġwee ks
Ġm id
Ġch ief
Ġoper ating
om et
Ġgen er
Ġreg ul
Ġdise ase
cr ib
Ġen v
Ġpr ices
Ġb i
n ers
Ġb ased
Ġtim es
Ġcontro l
Ġab le
Ġadd ed
i er
r a
Ġass oci
Ġ1 7
g o
Ġemploye es
Ġen ergy
Ġc red
Ġin it
Ġr a
Ġde al
Ġloc al
n a
Ġsou th
Ġpos itive
Ġoper ations
at ch
in s
Ġt al
Ġsecur ity
Ġad just
iv ed
st and
Ġw om
Ġl ear
od y
l ess
id er
en ing
Ġcost s
b ased
Ġh and
Ġpl at
Ġh app
Ġincre ased
Ġd ist
as h
ur al
Ġse ver
is ing
Ġclo se
end ed
Ġwhe ther
Ġag ree
Ġle ast
Ġpr ior
Ġest im
t on
Ġt reat
Ġsp e
Ġprev ious
Ġl it
ar m
at or
Ġm ight
Ġpow er
p ect
Ġun iversity
Ġre ally
Ġ Ð
Ġf all
Ġs uc
Ġj an
Ġv ir
Ġcomp et
Ġus ing
Ġh im
Ġwith in
Ġear nings
Ġt arg
Ġman ag
Ġc amp
Ġy ork
Ġn at
Ġs our
om s
Ġret ail
Ġlead ers
at ic
Ġenv iron
r al
Ġ5 0
Ġst and
li er
ak es
Ġj our
Ġst aff
Ġup d
a i
Ġa verage
Ġr ights
Ġw ed
Ġadmin istr
Ġlif e
Ġjo h
Ġbid en
Ġr ates
Ġl ot
Ġth ird
Ġvar i
Ġcor por
on se
Ġc ase
Ġanaly st
Ġe t
Ġto o
os ed
Ġtest ing
Ġplat form
oc r
Ġl ist
Ġv iew
em ber
Ġoutb reak
g ed
Ġde ce
w ork
ar ing
Ġfollow ing
it or
Ġh tt
uf act
Ġeff ort
at ors
Ġ20 0
Ġun t
Ġrep res
Ġmon day
l ished
Ġfed eral
Ġpl ans
b e
Ġdes ign
Ġg re
.... ....
Ġa ustr
Ġs ing
Ġresp onse
Ġrel ated
Ġse en
Ġdif f
Ġc y
Ġ q
Ġman ufact
Ġsa f
ne w
ib ut
f or
Ġdirect or
Ġf ive
in ated
Ġst ep
Ġhal f
Ġun c
Ġinst it
Ġ ident
u ation
Ġlow er
r up
Ġapp lic
c are
Ġc ut
Ġbe h
Ġmed ia
Ġm ult
s ide
Ġdece mber
um m
Ġm aking
Ġm ater
Ġchall eng
p ed
Ġmon ey
i um
a im
1 0
end s
Ġj uly
Ġstate ment
Ġp lease
Ġm or
c c
Ġvacc ines
Ġinclud e
Ġv i
Ġst ay
Ġh it
Ġresp ons
Ġdep art
==== ====
ter m
Ġg e
in c
Ġs k
Ġenviron ment
Ġcont act
Ġgen eral
ul ation
Ġcl in
en se
Ġl arg
Ġind ivid
Ġsever al
l er
Ġdr ug
ac ks
Ġs ix
Ġs ug
Ġy et
Ġameric an
Ġunt il
Ġl et
Ġexecut ive
Ġpo in
ues day
Ġbu y
Ġt uesday
Ġperform ance
at s
5 0
Ġaustr al
Ġc ertain
Ġcontr act
ive ly
Ġdem ocr
Ġb or
Ġrestric tions
Ġother s
Ġgu id
Ġsuc cess
Ġt ren
Ġcan ad
Ġameric a
ain ing
Ġcle ar
Ġbec ome
Ġev ents
Ġg iven
nes day
amp le
Ġindivid ual
Ġwed nesday
Ġpro du
Ġend ed
Ġpo int
Ġoffic ials
Ġaf ric
ĠâĢ ĺ
Ġtr ade
Ġaddition al
Ð ¾
Ġth ings
Ġfr iday
he ad
Ġor der
Ġse g
Ġne g
Ġg as
Ġ2 4
Ġse pt
Ġcont ent
Ġw in
Ġhtt ps
Ġm ust
urs day
3 0
Ġear lier
Ġem ail
g er
Ġposs ible
Ġth ursday
Ġprof ess
Ġe as
Ġpart ners
Ġs omet
Ġoff ice
Ġreco very
Ġass ets
i enc
Ġpartic ular
le ment
Ġterm s
% ,
Ġt urn
Ġen s
am es
Ġa ug
Ġcommun ity
ap an
w are
Ġpro ble
Ġbo ard
Ġwom en
Ġcred it
Ġac qu
ail y
% .
Ġde v
Ġst e
Ġpres ent
Ġn orm
fe rence
re l
Ġsa fe
Ġm il
Ġpro m
er v
Ġre le
Ġiss ues
Ġprof it
Ġeurope an
Ġd om
Ġv ide
Ġmem bers
Ġdes p
s h
o ot
Ġ2 1
ate ly
Ġcom b
Ġchang es
Ġsaf ety
Ġjour nal
ĠĠ Ġ
c al
Ġce o
Ġla un
Ġmin ister
Ġ ur
Ġd rop
Ġh aving
Ġt em
Ġlat est
Ġre view
Ġsect or
Ġsystem s
Ġlevel s
sel f
er r
p ing
her s
ur y
Ġdec l
Ġdeb t
Ġc n
Ġl ive
ol l
Ġh our
Ġj apan
og le
Ġfam ily
Ġcon n
Ġtarg et
Ġnear ly
Ġlim ited
Ġris ks
p ec
Ġann ual
Ġev ent
om m
ac es
ab ly
Ġlook ing
ines e
Ġd aily
Ġunc ertain
Ġjo b
Ġbro ad
i k
ib ility
Ġ +
Ġsug gest
Ġexper ience
Ġsur ve
Ġconf ir
Ġpr act
Ġr uss
il ar
Ġf ig
Ġcond itions
Ġqu ick
Ġrepres ent
anc es
h ic
Ġdesp ite
Ġpre p
Ġdec ision
Ġsy mpt
Ġch inese
Ġdeath s
Ġadd ress
en ed
Ġbl ack
Ġse ll
Ġc aus
Ġre lease
o ve
Ġb al
Ġwh ite
ot s
Ġbe gin
Ġb ill
if y
Ġs an
Ġed uc
Ġrequ ire
Ġadministr ation
Ġn orth
u red
Ġ2 2
n ov
Ġg erm
Ġlead ing
.. .
Ġcol l
Ġoff er
Ġcl aim
if t
c y
Ð µ
or ies
look ing
m ost
Ġse ason
Ġwh y
Ġ202 2
Ġs ust
Ġw on
Ġmas ks
port s
Ġreport ing
Ġreg ion
Ġsim ilar
Ġcomm on
Ù Ĭ
Ġcom ing
Ġl ine
ic ult
Ġdepart ment
2 1
Ġt re
Ġ4 0
Ġjan uary
Ġpartic ip
Ġfore cast
Ġfe el
Ġfund s
c ing
Ġincre asing
Ġw al
Ġ )
Ġcl ass
on es
Ġt aking
Ġpriv ate
Ġpub lished
Ġre op
Ġdiff icult
Ġs low
Ġunder stand
Ġcurrent ly
Ġpr im
Ġv ot
an k
Ġimpro ve
Ġ201 8
Ġa head
Ġneed s
Ġmeet ing
Ġl ater
Ġjo bs
ub lic
Ġsept ember
Ġcall ed
c hed
ne y
Ġl ink
Ġres our
Ġcol lect
iv al
Ġlit tle
Ġs umm
Ġbr it
Ġform er
th ing
Ġdisc uss
w h
Ġm ic
or n
Ġpos ition
anc ing
Ġ ir
uct ure
Ġ *
Ġexp l
Ġf is
Ġ @
i ans
d e
Ġd i
Ġ2 3
Ġm us
ol s
Ġth ous
Ġreport s
ag ing
Ġw est
w ays
Ġr ul
Ġ ide
Ġ5 00
ak en
Ð °
Ġpol ice
t a
Ġf re
Ġd ou
Ġmo der
Ġadjust ed
Ġaut om
Ġe p
Ġg ot
em s
Ġ2 8
on t
Ġp red
Ġin nov
g n
c he
Ġpoin ts
Ġn ation
Ġab ility
Ġs us
Ġpol itical
p os
Ġind ia
i ke
Ġm ill
Ġinfect ion
Ġco p
Ġhealth care
Ġal ong
Ġex ample
Ġequ ity
Ġ Ø
Ġw atch
Ġch ain
Ġcent ral
Ġspec ial
Ġst at
w ide
Ġy oun
br uary
Ġth reat
Ġbelie ve
Ġon ce
Ġp ack
Ġfact ors
uc k
Ġor d
Ġcustom er
Ġsh op
b it
o res
Ġget ting
Ġ ill
Ġte le
Ġm ass
Ġacc ount
Ġre v
Ġstud ents
Ġexp ens
Ġl ives
Ġclin ical
o id
Ġh ar
Ġch ar
act ion
an n
Ġto get
Ġar r
Ġtoget her
Ġsol utions
Ġm om
a f
Ġind ic
Ġsympt oms
Ġbo ost
re t
Ġfe bruary
Ð ¸
Ġd ate
Ġtreat ment
Ġf ail
Ġr ap
Ġbr ing
Ġf low
Ġb re
l ish
Ġdeli ver
Ġes pec
Ġ2 7
Ġof ten
hold ers
Ġresp ect
% )
l f
Ġacc oun
Ġ x
m ic
Ġcom es
o f
Ġemerg ency
Ġo ld
Ġare as
Ġinfect ions
Ġst op
Ġor ig
Ġconsum er
Ġresp ond
u el
Ġcap ac
Ġstrateg y
ve re
Ġhist or
Ġsen ior
m it
Ġpur ch
Ġme ans
Ġris e
Ġal most
Ġl ate
Ġo cc
Ġne ver
Ġdo ing
p ro
Ġespec ially
ar ily
Ġlarg est
Ġcons ider
f ol
a ign
Ġsc ient
Ġg old
Ġex ch
2 7
Ġchalleng es
Ġdet ail
Ġh om
p le
he st
Ġind ex
Ġameric ans
Ġe ver
Ġag o
Ġd oll
Ġvis it
Ġrequ ired
Ġgrow ing
Ġcamp aign
Ġcl imate
qu e
r is
b y
Ġg ive
Ġex c
in ing
Ġtrad ing
Ġgo ogle
Ġbenef its
le t
Ġrep ublic
Ġvide o
ard s
Ġtest ed
Ġrecent ly
Ġpop ulation
Ġjoh ns
Ġp us
ter n
ab ilities
Ġquest ion
Ġsomet hing
Ġs ent
Ġh ot
Ġeffort s
Ġperson al
Ġl ed
Ġf un
Ġsust ain
Ġas ia
Ġact ion
Ġqu e
Ġorgan iz
Ġpro v
Ġhour s
Ġs at
Ġph ys
Ġsp ace
Ġh ol
Ġre d
Ġb reak
w he
Ġtr ack
Ġto ward
b c
s c
Ġinter view
Ġcontin ued
Ġlab or
Ġ2 6
Ġcom ment
ess ential
âĢ ĵ
Ġhe d
Ġinv ol
Ġen ough
p ar
u ge
le y
g en
t ime
Ġcapac ity
Ġc ame
Ġex ist
Ġrec omm
Ġcent er
Ġrel ations
Ġens ure
Ġequ ip
in al
Ø§ ÙĦ
Ġprot est
Ġtyp e
Ġsit uation
Ġd a
Ġ â
Ġres er
Ġmod el
Ġsh ut
id es
it ter
Ġref lect
Ġat tr
Ġsecur ities
Ġwe bs
Ġt aken
Ġtr ial
co v
a ap
i ation
Ġvir t
Ġfore ign
Ġen c
Ġnot e
Ġaug ust
Ġorgan ization
Ñ Ĥ
imate ly
Ġsh ip
ww w
Ġso ft
Ġart ic
Ġbe low
Ġseg ment
2 5
Ġbig gest
Ġconn ect
Ġeffect ive
Ġneed ed
Ġbas is
Ġrece ived
th ough
Ù ħ
1 1
Ġa way
at ives
Ġag ency
Ġle ft
Ġprop ert
Ġnorm al
Ġfis cal
Ġa ch
Ġappro ach
Ġeff ic
Ġcr it
Ġo ct
Ġrem ote
Ġpart y
Ġv ent
a ur
p ers
Ġto ur
Ġport fol
og n
Ġ201 2
Ġcon ference
Ġre ach
m on
Ġam id
Ġsour ce
ep end
em ploy
Ġaustral ia
Ġfam il
Ġ ver
Ġnum bers
lo s
Ġvari ant
Ġclos ed
Ġmed ic
Ġprev ent
Ġro b
Ġnet work
Ġab ove
Ġmo b
Ġresour ces
Ġout side
Ġfe at
Ġsp ending
Ġcol le
Ġal though
Ġmar gin
ak ers
Ġso on
ou d
Ġmain t
Ġfir m
Ġoffic er
Ġhop e
v al
Ġconcer ns
Ġto ok
ag ed
Ġro se
Ġs ars
Ġestim ates
Ġstart ed
Ġexch ange
Ġc ell
Ġafric a
ad es
Ġopportun ities
um e
Ġban ks
Ġ vers
Ġc a
Ġn ame
Ġf ell
Ġd ivid
is ions
Ġach ie
Ġcanad a
ig r
ug g
Ġinte gr
Ġhe ld
r as
Ġcour t
Ġconsum ers
u ment
Ġcre ate
Ġch o
Ġprovid es
Ġexper ts
Ġn as
Ġop t
Ġbo ok
r s
ud e
Ġexp and
Ġauthor ities
m ission
le x
Ġdec re
er n
Ġschool s
Ġcomm erc
Ġrap id
Ġtest s
med i
Ġrec ogn
Ġelect ion
Ġche ck
Ġs ure
Ġcommun ic
Ġd one
1 6
ver se
ib ution
Ġactiv ities
Ġadv is
Ġprovid ed
Ġfin ance
olog y
ir c
Ġl og
Ġgroup s
Ġsurve y
Ġ ut
Ġa ud
Ġent er
Ġstre et
s w
Ġro le
for ce
ĠâĢĿ .
Ġmanufact uring
Ġexper ienc
Ġquick ly
Ġass ess
Ġk ind
Ġcomm ission
Ġ2 9
Ġmic ro
Ġm ess
Ð ½
Ġvacc ination
Ġdis rup
Ġimp lement
Ġreg ard
ig ation
un g
Ġapp ear
Ġal ways
Ġbe gan
Ġ6 0
Ġs und
ic ip
Ġremain s
Ġre n
ap s
Ġlong er
Ġw ind
Ġind epend
Ġover all
Ġresear c
Ġcour se
Ġcorpor ate
Ġactiv ity
Ġinclud es
ap er
Ġd oc
Ġrest aur
bo ok
ce ed
Ġsay ing
Ġlo st
Ġeduc ation
Ġcr itical
Ġsch ol
p o
Ġse vere
Ġmom ent
Ġph ot
Ġvi ol
Ġopportun ity
Ġtr ust
1 2
Ġplay ers
Ġkn own
ip le
o ff
Ġpre m
Ġhed ge
Ġjohns on
Ġf ast
id ents
Ġpro gress
og rap
Ġp et
Ġequip ment
Ġm iss
Ġcommerc ial
Ġne cess
Ġar g
l ines
Ġexpens es
Ġrece ive
Ġparticular ly
Ġinclud ed
s et
ur ance
Ġun employ
Ġw a
Ġevery one
ak er
ĠÂ £
Ġas ked
1 5
Ġno ve
Ġiss ue
m b
Ġ essential
Ġcomple te
os es
Ġd iv
Ġredu ce
Ġre ason
Ġnat ural
Ã ³
Ġneg ative
h an
Ġam ount
Ġsund ay
Ġgre en
Ġ %
Ġf ear
Ġl l
Ġa ge
Ġsu ff
Ġsing le
Ġr ange
Ġconfir med
Ġnove mber
sel ves
t ers
Ù Ĩ
Ġinit i
Ġr at
Ġac ce
Ġch air
Ġfr i
Ġtren ds
Ġf ight
Ġportfol io
Ġrequ est
Ġde ep
Ġwebs ite
Ġc it
Ġquar ant
ras tr
Ġ19 9
Ġc irc
uct ion
Ġcon str
Ġrul es
Ġe vid
te ch
Ġinf rastr
Ġw ays
Ġshow ed
Ġh y
1 7
r ing
it her
cr ip
Ġa im
1 8
ve red
Ġant ib
4 0
Ġb it
Ġfund ing
Ġacqu is
Ġprotect ion
Ù Ī
Ġtrans port
ut ers
Ġbuild ing
Ġcan ce
Ġb at
c il
Ġse lf
Ġam az
Ġb ond
Ġcommit te
Ġinfl ation
ond on
Ġcommun ities
Ġyoun g
Ġaff ect
anc ed
Ġcal if
Ġdist ancing
d le
ap e
Ġcontin u
Ġexp ress
go ing
Ġg l
iz ing
Ġacce ler
Ġdid n
al d
o b
Ñ ģ
Ġagree ment
Ġhig hest
o ber
p a
Ġsa w
Ġwas hing
Ġm akes
Ġpr ime
2 6
or g
Ġ Ø§ÙĦ
Ġare a
Ġguid ance
Ġinfrastr ucture
Ġthous ands
us e
e ad
Ġvacc inated
Ġfr ance
Ġr ather
Ġtechnolog ies
Ġph arm
Ġshow s
ab or
Ġv s
tr a
Ġinvest ments
Ġris ing
Ġanalyst s
m er
ly ing
ct ion
Ġoffic ial
he n
i j
p e
Ġthe rap
Ġt ur
ar k
Ġass ist
ic o
Ġf air
Ġloss es
Ġschol ar
am s
Ġquest ions
Ġr ac
Ġav oid
Ġimm un
ent ly
Ġw ater
Ġruss ia
i res
2 4
Ġgovern ments
Ġpro b
Ġassoci ated
is es
Ġoct ober
d en
j o
Ġcl oud
Ġbe y
i ety
l a
Ġdoes n
Ġful ly
Ġf oot
Ġcn n
Ġhist ory
Ġinfl u
Ġfin al
Ġexpect ations
1 4
Ġbr and
ro te
ren cy
1 3
Ġ er
Ġst ores
Ġpay ments
ber g
Ġfour th
Ġinst ead
Ġeu ro
Ġm and
l s
Ġbr ands
Ġlo ans
an e
Ġlear ning
Ġh ost
Ġl ondon
Ġtr ying
Ġfr ont
Ġsubs crib
Ġc and
Ñ Ģ
Ġstr ugg
ist ics
Ġresearc hers
r ist
Ġpress ure
Ġk ong
Ġd en
Ġt ell
Ġcommitte e
Ġpolic ies
Ġbey ond
iz er
ĠĠĠĠ ĠĠĠĠ
Ġph ase
Ġsc ience
Ġth ing
Ġad op
ol id
Ġdeli very
Ġa i
Ã Ń
p m
Ġbenef it
Ġt en
mic ron
Ġv ict
Ġunemploy ment
Ġdec line
is on
Ġo micron
Ġorganiz ations
Ġvirt ual
Ġw rote
Ġl and
ent al
Ġcalif orn
Ġdet erm
ell ig
Ġj e
Ġcon st
Ġser ies
Ġve hic
Ġro ll
ab les
Ġdo ct
i os
Ġteam s
Ġprevious ly
Ġbeh ind
Ġh ong
Ġk ill
Ã ¡
Ġsc en
Ġs ide
Ġcont ain
m ing
Ġproble m
a u
Ġindus tr
as ter
Ġ202 7
Ġannoun ce
Ġim medi
k n
y n
Ġoff ering
Ġl ack
o ver
Ġcaus ed
Ġm ot
Ġcon duct
ibut ed
Ġmas k
Ð¾ Ð
Ġent ire
ren g
Ġdom est
Ġpro s
ess ion
Ġcontin ues
in ary
re c
Ġsoft ware
Ġcaliforn ia
Ġsus p
ver t
Ġhospital s
Ġw ide
d r
8 0
Ġc ult
Ġe bit
Ġex ter
Ġl ight
Ġsc he
Ġsec ret
duct ion
Ġint ellig
Ġpat ient
Ġm is
Ġreven ues
........ ........
Ġgerm any
Ġf av
Ġst reng
Ġc ause
rel ated
Ġevid ence
Ġeffect s
re me
Ø§ Ø
t ies
Ġpa id
Ġlead er
Ġm en
o ks
Ġab s
Ġre b
g ing
ful ly
Ġqu ality
Ġopt im
se qu
Ġmar k
Ġb ul
Ġb ud
Ġstud ies
Ġbal ance
Ġartic le
Ġmeas ure
Ġact ually
Ġcoll abor
ro ll
Ġf el
Ġmill ions
Ġsub ject
Ġmid dle
Ġindividual s
ut es
p re
Ġint ro
Ġinf ected
b ack
Ġp s
Ġenc our
======== ========
mar ket
6 0
Ġb ur
d o
ot t
Ġsur ge
Ġcons olid
k y
Ġser ious
Ġcand id
Ġdes crib
Ġsc op
Ġhigh l
Ġapplic ation
c ome
Ġ #
m a
Ġproject s
Ġexter nal
Ġindustr ial
er o
Ġgreat er
Ġpercent age
Ġv ia
Ġtrans form
Ġc ou
2 2
Ġm it
ag ue
Ġ3 5
iss ions
Ġlo an
Ġun ion
Ġm al
Ġrespons ible
Ġappro x
Ġant icip
Ġro ad
Ġd ia
Ġdomest ic
h ol
Ġexist ing
Ġf a
m p
is ation
Ġmult iple
Ġli qu
Ġpop ular
Ġst im
on y
Ġleg al
Ġfamil ies
Ġr ace
f er
Ġpol it
as ts
Ġc d
3 5
7 0
Ġfac ilities
Ġamaz on
Ġest ab
id s
Ġs ite
Ġass et
h s
Ġcle an
Ġtw itter
Ġevery thing
ist ic
Ġg ame
Ġface book
Ĥ ¬
Ġwashing ton
Ġrel ative
l im
Ġdistr ibution
lo ad
Ġst ar
Ġco ver
Ġb ase
Ġw all
ac hed
f ect
Ġsumm er
Ġle ave
Ġsp ok
Ġmem ber
Ġallow ed
Ġt err
Ġdevelop ed
Ġrele ased
Ġg ames
Ġo bs
Ġd oses
Ġp an
ar ies
Ġins urance
Ġn ight
Ġout look
Ġk ore
Ġstim ul
Ġvar ious
Ġprovid ing
h od
Ġp en
Ġn y
Ġm ort
Ġ ×
Ġus ers
Ġestim ated
li ke
Ġon going
Ġ7 0
id a
Ġw ent
Ġdr ive
Ġ8 0
Ġeng land
Ġspec ific
Ġse ven
he ns
ĠÂ ©
Ġs ize
Ġshare holders
pt ion
Ġcon gress
3 3
Ġv ul
o red
Ġd am
Ġhom es
Ġpropert y
Ġ201 7
Ġis n
Ġf lo
Ġapprox imately
Ġindepend ent
w or
Ġmon itor
da q
ac ed
Ġthem selves
ip s
Ġcomp ar
Ġupd ate
Ġsee ing
Ġc ities
iv ity
Ġinvest or
cl us
whe re
Ġmor ning
Ġaff ected
Ġres idents
Ġl iving
Ġre uters
Ġy ield
Ġex cept
Ġvul ner
f ort
act ions
Ġnas daq
re g
Ġfor ce
Ġde ad
Ġadd ing
7 5
Ġst ore
se c
Ġch rist
Ġapp e
Ġsm art
Ġch arg
Ġinstit ute
a ks
ific ation
Ġwr it
Ġquarant ine
um b
Ġ |
Ġsc re
Ġregul atory
Ġsub st
Ġwe b
Ġtrad ition
Ġp f
Ġm ich
b on
Ġmater ial
Ġrep l
Ġclaim s
Ġmat ter
Ġâ Ĥ¬
Ġtr ials
4 4
Ġbr az
Ġe ither
r ight
a ud
Ġb ad
Ġmajor ity
Ġcon vers
e e
Ġsat ur
Ġdem on
Ġcl ients
Ġp ick
Ġlim it
a ft
ent ed
Ġs old
Ġco verage
Ġlear n
am a
Ġsit es
Ġs n
om ing
Ġfig ure
Ġe ast
Ġm c
n et
p ly
8 8
Ġl ib
Ġcon v
i que
a ut
Ġdia gn
Ġel se
2 9
Ġw ave
Ġh uge
2 3
Ġse lect
Ġrelations hip
Ġiss ued
Ġproble ms
Ġst ory
Ġlaun ch
Ġto ols
Ġpartners hip
Ġg m
Ġintellig ence
Ġ ,
id ence
er ation
Ġtem por
Ġdemon str
end er
Ġcons ult
Ġant i
Ġfocus ed
r ied
p ut
Ġsy n
it ary
c hes
en ge
Ġprogram s
x y
Ġ9 0
Ġebit da
ren ts
pers on
Ġ3 6
Ġeng ine
e qu
Ġuncertain ty
wh ile
ir ing
c ul
Ġgro und
Ġg ain
Ġm ag
Ġair lines
u x
Ġelect ric
ub s
Ġsatur day
Ġblo ck
âĢ ¦
Ġstart ing
Ġp ul
at ure
u k
Ġd er
Ġsen se
Ġwho le
Ġf uel
Ġsh ift
c a
Ġg ains
Ġmet hod
Ġbrit ish
Ġindus tries
Ġfir ms
el ine
ĠâĢĿ ,
Ġro und
Ġop tions
Ġ .
Ġexp ense
Ġins ights
am ed
4 5
Ġit aly
Ġexp ert
Ġep id
re hens
Ġtrans mission
Ġass um
Ġthrough out
Ġw orth
Ġs il
Ġliqu id
Ġworld wide
Ġbraz il
Ġide a
Ġte x
Ġchall enge
Ġtr y
g aap
Ġc am
Ġh ous
Ġupd ated
Ġcop y
Ġspok es
Ġm ac
Ġdoll ar
Ġstrateg ic
l ies
os s
Ġun d
Ġm er
9 9
Ġac cept
Ġj ud
Ġtren d
b an
Ġmob ile
Ġtr aining
Ġe c
Ġexp lo
Ġse par
ag r
Ġcent ers
Ġpass eng
a ment
Ġlaw s
Ġaf p
Ġmean ing
Ġbegin ning
Ġpf izer
Ġch ann
Ġredu ced
rough t
Ġpat h
Ġv ote
Ġpros pect
Ġord ers
Ġpr inc
ac ing
Ġnot ed
Ġwor ks
am ing
Ġgro ss
Ġit ems
b or
Ġre li
Ġstimul us
Ġa id
im es
h a
Ġinst r
Ġcomp rehens
ad o
Ġdel ay
r ain
Ġ201 6
u it
Ġwe ar
is try
ens ion
Ġhigh ly
Ġd ied
Ġl t
Ġcre ated
Ġpar ts
Ġmanufact ure
pr ise
Ġfor ced
Ġse em
Ġfac ility
Ġsc ale
Ġnot es
Ġev al
Ġc iv
Ġpl ant
Ġsecret ary
ac ific
l in
Ġco re
h ib
Ġsignificant ly
h ood
Ġexc lud
Ġexpect s
v ant
ut ed
Ġrel ief
Ġp ain
Ġinit ial
Ġj ump
en e
ill s
Ġmarket ing
2 8
Ġbeh av
g es
h y
Ġv ice
Ġdoc ument
Ġc ross
Ġpart ner
lo c
Ġs ens
Ġpay ment
Ġf ield
Ġdetail s
Ġcomprehens ive
Ġdou b
Ġsup er
Ġ ic
Ġreg ular
Ġrun ning
Ġhelp ed
Ġparticip ants
Ġregard ing
Ġdec isions
Ġexp os
Ø ±
Ġachie ve
Ġex tra
Ġdirect ly
Ġinnov ation
Ġcit iz
Ġassoci ation
re w
Ġph il
es e
Ġme x
Ġmo ving
Ġwho se
Ġch ance
Ġnecess ary
Ġphys ical
Ġsubs id
b n
ens ive
is l
Ġdevelop ing
Ġenvironment al
Ġprob ably
Ġi i
Ġacquis ition
Ġc ard
Ġis ol
Ġthough t
Ġreg ional
Ġm ax
Ġs ports
il t
Ġplan ning
Ġmin im
Ġhouse hold
Ġinvest ig
con t
Ġd est
Ġprofess or
Ġdemocr atic
Ġcall s
Ġpa rents
Ġpred ict
Ġcorpor ation
Ġscen ar
od ies
Ġst ress
b all
Ġhistor ic
mar k
Ġcon c
ide red
Ġrestaur ants
Ġsur v
c asts
Ġed iting
c le
Ġmean while
Ġn av
Ġb ody
Ġs ick
ren ch
Ġcons idered
Ġ4 5
Ġm ach
Ġst age
Ġfl u
Ġe y
Ġsh ar
el ines
le g
Ġa ward
3 7
Ġrecomm end
Ġhe av
Ġoff ers
Ġpotential ly
Ġconsolid ated
Ġtre as
Ġsol ution
Ġscient ists
Ġ Ã
Ġc at
Ġp aper
Ġhelp ing
id ed
em pt
Ġapp le
anc y
pl ace
Ġsour ces
Ġan sw
) ;
Ġra ised
Ġstrateg ies
Ġbr ief
Ġre ve
Ġprim ary
Ġemerg ing
Ġsoc iety
b ody
m akers
3 6
Ġm s
Ġcrit ic
Ġ'' ,
us ed
Ġf da
Ġte xt
Ġchair man
Ġdesign ed
Ġse at
Ġc ateg
9 0
Ġlaun ched
Ġtex as
Ġe th
Ġcons ist
z e
Ġno vel
9 5
Ġdon ald
Ġbec ame
Ġb rought
ren ces
Ġrecord ed
Ġappro ved
Ġwor st
Ġt ro
Ġwind ow
b ed
und red
mit ted
Ġwar ned
Ġh ur
if e
Ġmil itary
Ġatt ack
Ġfig ures
Ġph one
Ġleg isl
Ġpriv acy
Ġjoh n
am m
Ġmanag er
Ġocc ur
Ġn ations
Ġsustain able
Ġintern et
w a
u ments
Ġr ad
ij ing
Ġcompet itive
ol ution
Ġv o
Ġconstr uction
Ġrequire ments
Ġconcer n
Ġciv il
new s
Ġop in
Ġtoward s
Ġd il
Ġeas y
Ġact ual
ist ered
led ge
an i
Ġf ire
Ġsp ot
Ġcor p
Ġn or
Ġdise ases
du ced
Ġimm une
in o
qu ar
Ġdirect ors
Ġact ions
Ġk ing
Ġaccoun ts
Ġsc hed
u le
Ġsched ul
Ġsal e
Ġown ers
as k
Ġstand ard
er y
4 6
Ġh undred
Ġar ch
Ġdiv ision
Ġorig in
Ġh ands
Ġext reme
Ġdr iven
Ġdo se
ke y
7 7
as ons
Ġwe l
h ome
Ġapplic ations
enc ies
Ġgo al
Ġappro val
Ġlarge ly
Ġg i
Ġar m
Ġwork ed
j ected
u ff
al ed
Ġcr ude
Ġdivid end
Ġal tern
Ġcoun cil
Ġan im
Ġprim arily
Ġspe ed
Ġblo od
Ġhapp en
Ġs qu
Ġnat ure
Ġbud get
Ġhe art
Ġg ather
Ġjo e
3 8
so ft
Ġleaders hip
Ġex erc
Ġdev ices
Ġpro te
w ise
li ed
if f
Ġdemocr ats
h i
Ġkore a
Ġcd c
Ġbe ijing
Ġs un
Ġ3 8
Ġe ight
Ġm ental
Ġt it
ra el
Ġreop en
Ġgood s
Ġcoun ty
Ġob l
20 20
Ġinfect ious
Ġf rench
ac hes
ough t
Ġ >
ar ch
Ġmater ials
Ġcan cer
Ġreop ening
Ġreser ve
Ġmaint ain
Ġstep s
Ġchang ed
Ġit self
enc es
im ent
Ġreco ver
20 19
Ġda vid
oun der
3 4
Ġgr ad
in ks
Ġident ify
Ġ3 4
co vid
Ġadv ice
Ġle ague
Ġed itor
Ġtradition al
a el
Ġf it
Ġsect ors
Ġread y
ut ical
Ġro om
Ġm ix
f ord
Ġinv ent
Ġwe ak
y al
Ġl ic
Ġlo ve
Ġfac ing
Ġlt d
Ġident ified
it es
Ġdel ta
ĠâĢ ¢
Ġannounce ment
ar a
Ġp ict
Ġpract ices
Ġprinc ip
Ġpos itions
Ġact ive
er ous
Ġgr ant
ace utical
Ġcomple x
Ġplan ned
Ġprop os
Ġf lex
Ġfl or
act er
Ġdef in
Ġbrit ain
Ġsp end
Ġpol l
Ġdis co
Ġadv ant
Ġvol ume
Ġre new
Ġn ine
Ġmin istry
Ġ3 9
e k
. )
Ġsome one
Ġeng age
Ġde ploy
ap t
ic ians
Ġm igr
Ġr an
Ġsh own
Ġqu al
Ġlockdown s
Ġun s
Ø ©
Ġen h
Ġre ached
z a
Ġcomp ut
Ġany thing
Ġold er
Ġresp ir
Ġpl aces
Ġun pre
Ġrepublic an
all ed
Ġbor der
Ġcopy right
Ġmod els
Ġfollow ed
Ġsen ate
Ġr ich
Ġ3 7
ive red
Ġsc r
Ġdecre ase
Ġbor row
Ġis rael
Ġcitiz ens
Ġe le
Ġsur f
c ape
an a
Ġmin d
Ġen jo
Ġcur rency
Ġair port
per form
Ġem p
Ġfav or
Ġtr aff
Ġvulner able
Ġc row
Ġhold ings
Ġcolle ge
Ġtax es
Ġdecl ined
Ġno v
Ġcom ments
crip tion
3 9
Ġthan ks
Ġtem per
Ġblo om
Ġinvol ved
un t
Ġcond ition
Ġam oun
Ġdec ades
w s
Ġl ines
Ġag re
Ġne igh
ĠØ§ÙĦ Ø
Ġm ut
Ġse ems
Ġfore casts
o x
Ġdel ivered
Ġt akes
Ġf ix
Ġm ission
Ġpurch ase
6 5
Ġce le
Ġest imate
Ġp al
y l
Ġgm t
st er
Ġtrans ition
Ġcons id
Ġn ort
ic ing
2 00
Ġun like
Ġl es
Ġbank ing
Ġpack age
Ġprep ared
Ġjo in
Ð »
Ġcell s
Ġincreasing ly
Ġtr illion
Ġprom ot
Ġy es
Ġcompet ition
ced ented
Ġpro ceed
op h
Ġfri ends
Ġmicro soft
Ġli abilities
Ġadv anced
mon th
Ġdescrib ed
im in
Ġcar bon
Ġattr act
Ġcontinu ing
Ġunpre cedented
ash ion
Ġw ww
Ġto uch
olog ical
Ġafric an
Ġop tion
Ġstand ards
Ġad vert
Ġwant ed
Ġcele br
Ġreg ions
d f
Ġprovid ers
Ġatt ention
pl ay
Ġjo int
Ġun it
Ġst ake
Ġ7 5
ap ore
g i
Ġqu ite
Ġcal cul
Ġtr ue
Ġtal k
Ġpre t
i et
le ar
Ġup on
Ġ {
Ġb all
8 5
Ġdou ble
Ġgener ally
Ġto ll
Ġinstit utions
Ġd ie
Ġcomp ens
Ġsh ot
Ġ }
Ġl ands
Ġplatform s
Ġprev ention
ian ts
p ose
et ary
Ġre con
Ġz ero
wor ks
Ġd ow
Ġz o
Ġpus h
Ġem issions
Ġfeat ures
Ġbelie ves
Ġare n
Ġfinanc ing
Ġal one
Ġad ults
Ġh on
Ġexp ans
Ġill ness
re am
Ġro ugh
Ġres il
Ġliquid ity
Ġfe ed
Ġincre ases
Ġhous ing
Ġd iversity
c or
Ġ201 5
Ġjust ice
Ġlink ed
Ġmex ico
Ġuncertain ties
h ouse
Ġsp ent
Ġbu ilt
Ġdet ect
ur ity
Ġsuccess ful
Ġob ject
Ġfil ed
Ġflor ida
Ġthan k
Ġfound ation
quar ter
Ġweek end
Ġre duction
Ġfor ces
Ã³ n
Ġany one
Ġsh ared
Ġcn bc
Ġcl ick
Ġ3 3
Ġp ip
Ġpub med
Ġf at
f l
Ġpar k
Ġwe alth
Ġsupp lies
Ġbot t
Ġexpos ure
rop ri
Ġas k
Ġco al
av en
n g
Ġscop us
Ġatt end
ly mp
Ġap art
Ġvers ion
Ġdoll ars
Ġmedic ine
Ġdrop ped
Ġ =
Ġl as
Ġhold ing
Ġdr iving
4 7
o ke
Ġcent re
b a
Ġeval u
Ġanaly t
Ġemploye e
i ver
Ġviol ence
Ġan ge
Ġn om
Ġkeep ing
Ġg iving
Ġmove ment
Ġconf idence
Ġ il
stand ing
Ġse x
Ġtw e
in ations
Ġd ang
Ġpart ies
Ġd ip
Ġimpact ed
Ġpl us
Ġ ult
4 8
Ġrespect ively
Ġ3 2
Ġbloom berg
p on
Ġtreas ury
Ġsign s
Ġo lymp
4 9
Ġde g
Ġf ashion
Ġsell ing
res h
Ġprotest s
Ġcanad ian
ill ing
Ġun ivers
Ġl ay
Ġsing apore
Ġstat us
ag s
Ġlet ter
Ġguid elines
Ġto m
Ġbu ying
Ġphot os
Ġhot el
Ġst ories
ber t
Ġre asons
Ġex clus
Ġsubst ant
re f
ot i
Ġnot hing
Ġsec ure
Ġsee k
Ġcommit ted
Ġatt acks
Ġdr ivers
Ġimmedi ately
st on
Ġcomp on
Ġb st
Ġmess age
Ġch amp
Ġcons erv
b i
Ġre form
Ġhundred s
ib ly
Ġapp o
Ġruss ian
Ġdoct ors
lo g
Ġglob ally
Ġquarter ly
Ġsmall er
Ġtyp ically
e v
Ġinvest ing
it ch
te red
Ġlarg er
Ġb ir
ron ic
Ġdisc los
Ġaustral ian
d p
Ġunderstand ing
Ġar ab
3 1
ight ed
Ġ6 5
Ġretail ers
Ġpe ak
Ġ4 8
Ġcl im
Ġmass ive
Ġgener ation
y a
Ġn urs
Ġwe aring
Ġsubscrib e
Ġcre ating
Ġmich ael
Ġest ate
Ġpract ice
Ġadv ance
Ġp urs
Ġ5 5
Ġagre ed
Ġon es
id ge
at t
Ġfun ction
Ġchang ing
Ġny se
Ġrele vant
Ġeconom ies
Ġclos ing
Ġsa v
z er
ous ly
6 6
Ġto wn
Ġdec ided
0 5
Ġaff ord
Ġreg ister
Ġ id
Ġge ograp
Ġh a
Ġprem ium
Ġvol at
Ġins ide
Ġopen ing
Ġrapid ly
Ġcon sequ
y le
Ġthere fore
Ġprop osed
Ġc ents
com mer
Ġmo ved
Ġgr and
commer ce
Ġra ise
ar ant
Ġoff ered
Ġs on
Ġmoder na
Ġ <
Ġacc ur
ens us
ound s
Ġvehic les
Ġpharm aceutical
Ġfel t
us ion
if ying
Ġhol iday
Ġle aving
ig ate
s on
Ġhealth y
kn ow
Ġbar rel
Ġsh if
Ġorig inal
Ġmonitor ing
Ġfut ures
Ġfe es
or ing
Ġf al
Ġdec ade
Ġh o
Ġthink ing
Ġc reat
Ġshow ing
Ġus er
Ġsp ain
Ġuk rain
Ġm ention
Ġpo or
Ġte ac
Ġcomb ination
Ġaccoun ting
Ġregul ations
Ġrespir atory
Ġprofess ion
ll ed
Ġrep e
Ġp le
ex p
Ġsim ply
Ġun its
Ġcou ple
on a
Ġun ique
ph one
Ġimpact s
Ġprofess ional
Ġs ort
Ġweek ly
Ġwor ds
Ġtraff ic
Ġlo oks
Ġcult ure
Ġob t
Ġsect ion
Ġmoder n
ag o
Ġoper ational
Ġprodu ce
Ġsuggest s
it ors
Ġop pos
v ious
Ġk ids
Ġgovern or
Ġexpans ion
Ġch ains
iven ess
av es
ang u
Ġp od
Ġmanag ing
Ġbas ic
Ġo k
Ġfl ights
Ġsol id
Ġcut s
re p
Ġfin ally
Ġco ok
Ġdiffe rence
Ġgo als
Ġreal ity
Ġd ur
n o
Ù ģ
Ġpop ul
Ġas ian
Ġsl ight
Ġexperienc ed
Ġwork force
Ġp ace
Ġemploy ment
h am
pect ive
com es
Ġrat io
Ġcomb ined
Ġob vious
Ġreturn s
us h
Ġinc l
Ø ª
Ġm ur
b ur
Ġprocess es
Ġwest ern
Ġprovid er
ab et
t ic
Ġam b
y pt
Ġrelative ly
he alth
d om
Ġcoun ter
Ġcap t
i ency
Ġmay be
h aps
Ġb reat
er red
Ġschedul ed
Ġche m
Ġsp ike
p read
Ġf aster
Ġ9 5
Ġre in
n y
Ġset t
Ġother wise
Ġ4 4
Ġshop ping
Ġbec oming
ic ient
Ġc ro
Ġreturn ed
re ct
Ġcollabor ation
art ers
Ġd ed
v ent
Ġext ended
Ġvot ers
Ġdep end
Ġfil m
Ġvent il
w ord
Ġadvant age
Ġh or
Ġrequ ires
Ġallow s
Ġcr u
Ġturn ed
Ġconst it
Ġrough ly
ky o
ib ute
Ġfear s
Ġapp ropri
Ġrec ession
Ġcirc um
Ġwor se
Ġd yn
Ġpre c
Ġper haps
Ġus ually
6 7
Ġcy ber
Ġpred ic
g u
Ġwe ather
Ġgu arant
Ġwr iting
Ġgu ard
Ġfre qu
Ġac know
ast ic
ad a
Ġemploy ers
Ġw ants
5 00
Ġad verse
Ġscient ific
Ġd ut
Ġg aap
Ġex act
amp les
m es
Ġmus ic
Ġto kyo
Ġtal ks
Ġoff set
Ġac ad
om atic
Ġmin utes
Ġf resh
Ġ3 00
Ġw ild
Ġt ight
Ġm other
Ġstud ent
Ġfor t
Ġappear s
l ia
Ġme ant
Ġb ed
Ġdevelop ments
er a
Ġantib ody
Ġdrug s
Ġepid emic
Ġvot ing
Ġcharg es
Ġn ar
Ġsee king
let ter
Ġcap tion
Ġmanag ers
Ġgo es
Ġtrans action
Ġtransport ation
Ġind ian
Ġfr ame
s es
Ġstreng th
× Ļ
Ġj ones
Ġiniti atives
Ġequ ival
i Ã³n
Ġimpro ved
Ġremain ed
Ġco vered
i am
Ġf ans
p art
il es
Ġtempor ary
Ġexerc ise
Ġcompens ation
l or
Ġatt empt
li ers
Ġconsid ering
Ġr ule
up s
Ġs end
Ġr are
Ġz acks
Ġintern al
Ġser ve
Ġneg oti
um es
Ġw u
Ġgerm an
Ġfr anc
Ġconduct ed
Ġrepresent ing
Ġh yp
Ġdr aw
Ġobs er
iz es
Ġpost ed
b l
Ġtyp es
li ance
Ġs ave
Ġg one
Ġsp ring
c ks
en ec
c ross
Ġtour ism
8 7
Ġp age
om es
Ġrepublic ans
8 9
Ġt v
Ġbe at
Ġm el
in form
Ġchann el
6 9
Ġpro mpt
Ġb er
Ġout comes
Ġv end
Ġcap abilities
Ġr ally
Ġex am
Ġanalyt ics
Ġreb ound
b re
Ġt on
5 5
ill ed
pro f
Ġc ert
Ġsa ud
Ġt ens
Ġorigin ally
Ġpar is
Ġantib odies
Ġa str
Ġz e
Ġpresent ed
b our
Ġben ch
Ġnews letter
ce ll
Ġfew er
Ġprot oc
Ġwin ter
Ġdam age
Ġus es
Ġallow ing
k er
Ġqu ant
i at
m as
Ġw at
Ġcircum st
Ġdyn am
Ġfri end
Ġfre ed
Ġsubsid i
Ġfar m
Ġal le
Ġco op
Ġcertain ly
f o
Ġsim ple
Ġsupport ing
Ġs ud
Ġlands cape
Ġover se
u ations
Ġwas n
Ġcont ained
Ġpict ure
) :
ch an
Ġvir al
Ġbond s
Ġscenar io
Ġmanag ed
Ġpa ul
Ġenter prise
Ġch arge
Ġtechn ical
Ġe ur
Ġur g
Ġfac ed
Ù Ĥ
Ġstreng the
Ġsustain ability
Ġlat in
Ġi re
ur ch
Ġdown load
n el
Ġwa it
Ġchalleng ing
3 2
Ġir an
Ġdep os
Ġv an
Ġair line
Ġis land
Ġcomple ted
Ġprior ity
e ing
Ġcontract s
Ġmin or
Ġthous and
Ġstr uct
Ġhelp s
Ġcommunic ations
Ġen able
m o
Ġdistr ict
Ġkill ed
Ġal loc
Ġpur pose
os is
Ġpasseng ers
i ate
Ġmo v
Ġvers us
cross ref
ag ues
Ġd u
Ġent ertain
Ġg ave
Ġtarg ets
b us
Ġse arch
Ġsign ed
Ġaltern ative
Ġa lex
re aks
Ġcr uc
Ġtrans actions
w ire
Ġglob e
Ġput ting
Ġenjo y
Ġh ide
Ġmost ly
Ġprofession als
Ġs and
p ass
Ġev ol
Ġconcer ned
Ġg ained
Ġsupp liers
Ġvehic le
Ġg ives
g round
Ġpr icing
Ġunder lying
Ġdis app
ote ch
Ġ'' .
Ġknow ledge
Ġr id
Ġcomp lic
ress ion
Ġoutb reaks
Ġprogram me
Ġmanufacture rs
Ġret ire
il ed
Ġwom an
Ġoffic ers
Ġcandid ates
Ġex port
Ġgi ant
Ġcommunic ation
port ion
e ed
Ġfind ings
Ġhop es
Ġfail ure
Ġsaud i
Ġ4 1
Ġv en
d ing
Ġp ie
her n
Ġ4 9
Ġcall ing
Ġstrugg ling
Ġrem ember
Ġview s
Ġimm igr
c ers
op s
ienc es
Ġcar r
Ġc ast
Ġamoun ts
Ġcommit ment
Ġredu cing
Ġstr ict
Ġbring ing
w est
f ield
Ġwide ly
ro s
y ch
ad ing
il it
Ġcircumst ances
Ã §
t w
ct ions
Ġsk ills
Ġhapp ened
Ġpass ed
Ġ4 7
Ġcare er
Ġire land
Ġexp osed
Ġpro ced
Ġmax im
Ġcol or
Ġpresident ial
Ġcom fort
Ġoff ices
Ġexpress ed
e ch
Ġoper ation
Ġf le
Ġcollect ion
Ġpret ty
Ġc u
Ġupd ates
Ġsupport ed
Ġassist ance
l ands
Ġloc ations
com ing
w an
Ġsomet imes
Ø ¯
Ġh aven
er ia
Ġoper ate
Ġeconom ists
Ġfind ing
Ġp ic
ish ing
Ġper man
Ġinterest s
m ore
it able
Ġbo x
Ġar rest
Ġimprove ment
Ġcl ub
Ġag encies
d es
Ġ4 2
po int
Ġspread ing
Ġopin ion
u ing
Ġad apt
Ġzo om
Ġprotect ive
Ġto ol
Ñ ĥ
Ġanticip ated
Ġfl ight
Ġdecre ased
Ġwrit ten
lia ment
Ġout put
Ġst or
Ġtransform ation
Ġ4 6
Ġdo z
Ġm ad
ol a
Ġmat ch
ord ers
Ġnort hern
Ġreg istered
Ġaccess ed
Ġcontr ibuted
Ġestab lish
Ġnet works
Ġstr ucture
Ðµ Ð
Ġappe ared
Ġvar iants
Ġun less
Ġg dp
ip p
air s
Ġeffect ively
Ġtr ig
Ġukrain e
Ġcomp l
vid e
Ġw ides
in ted
Ġconfir m
Ġmort g
est er
i ar
Ġwr ong
om b
Ġcho ice
o o
Ġam ort
Ġassess ment
Ġoper ator
Ġattr ibut
Ġchar acter
Ġcandid ate
Ġlegisl ation
Ġeconom ist
Ġsche me
Ġs we
Ġpar liament
Ġlog istics
Ġl angu
Ġ4 3
Ġwides pread
Ġrestaur ant
Ġren t
4 00
ant a
Ġl ux
Ġdom in
Ġclear ly
Ġk en
b and
Ġiniti ative
cr aft
ict ion
Ġind o
Ġs port
d ed
Ġel ig
Ġhe ar
rup t
Ġpers pective
Ġjapan ese
un ch
am b
Ġbreak down
Ġr s
Ġgre w
Ġcont e
Ġtal king
Ġse qu
at a
Ġco de
Ġestab lished
Ġwu han
8 6
Ġinvest igation
Ġaffect ing
Ġfail ed
Ġj ames
Ġme chan
Ġprote in
Ġne ut
Ġp il
Ġauth ors
Ġget s
ar ian
Ġresult ing
Ġen force
Ġdil uted
Ġsyn d
Ġimmedi ate
ic a
Ġbl ue
ther n
Ġcomp liance
Ġtrans pa
Ġg ar
Ġplay ing
Ġinc or
Ġrespons es
Ġw ire
Ġtherap y
20 27
Ġclose ly
Ġrepres ents
Ġimmun ity
Ġshe l
Ġh ub
Ġtemper ature
Ñ ĭ
Ġorgan is
Ġro yal
Ġconsum ption
ugh t
Ġslight ly
Ġinvent ory
Ġfr aud
Ġmonth ly
Ġdoct or
Ġcruc ial
Ġpresent ation
Ġe g
Ġsou thern
us es
================ ================
Ġcl ot
e es
................ ................
Ġexecut ives
Ġimport ance
Ġauthor ity
Ġand rew
Ġimpro ving
Ġansw er
ket s
ol ute
Ġet f
4 3
Ġde als
Ġreg istr
Ġwr ite
Ġ201 4
uc i
Ġprodu ced
Ġhapp ening
Ġappropri ate
Ġch ap
Ġey e
× ķ
Ġco ast
ur ning
Ġplay ed
Ġconf ident
Ġin j
Ġun able
Ġdr am
Ġbroad er
Ġtwe et
Ġpro jected
Ġcomm od
Ġstor age
Ġut il
Ġc ab
Ġun f
w ell
ad ed
Ġt s
Ġtop ics
Ġvol umes
ri ers
Ġbi otech
Ġinst ance
g a
Ġspe aking
Ġo x
ĠâĢ ¦
Ġrespons ibility
Ġdef ined
he re
Ġus a
pt ions
Ġult imately
ot ive
Ġpropert ies
Ġus d
er ve
a ult
er ly
Ġmater ially
Ġeffic acy
Ġide as
res p
Ġbehav ior
Ġmain ly
Ġseg ments
Ġmar t
arg o
Ġdetail ed
Ġcons ensus
Ġstr a
Ġadv oc
Ġsp ect
Ġa wa
Ġ6 00
ol es
Ġg ir
Ġfund ament
Ġn hs
Ġrob ust
Ġres ident
Ġco ord
Ġps ych
Ġmon etary
or ter
enec a
Ġt es
Ġdisrup tion
Ġnot ice
du le
k en
Ġfal se
Ġfoot ball
Ġconst ant
Ġins p
Ġconvers ation
Ġprocess ing
Ġshe et
Ġcar s
or ge
Ð° Ð
Ġwill ing
Ġa th
Ġsav ings
e ut
Ġe ase
Ġinstit ution
ro om
Ġeffic ient
Ġval ues
Ġtrans fer
Ġref in
ad y
Ġset ting
al ing
az eneca
Ġmeet ings
v est
Ġfall ing
v acc
c oun
7 9
Ġg ap
t urn
Ġprov ision
Ġf ounder
Ġrepl ace
Ġsuggest ed
Ġle ase
Ġpr ison
p andemic
Ġinit ially
Ġhighl ights
ent y
Ġh all
Ġassum ptions
p acific
Ġplay er
Ġtr a
Ġen ab
ist an
Ġdiff er
Ġinnov ative
Ġco vers
Ġshut down
Ġtherap eut
Ġfact or
Ġke pt
Ġr ating
Ġsub sequ
c ling
Ġfe ver
Ġst orm
ar ks
Ġentertain ment
Ġisol ation
i en
Ġ Ã©
Ġapp s
om p
at ically
Ġit al
Ġconf lic
Ġrecommend ations
hol der
Ġabs olute
if ically
Ġan x
inc ome
Ġl ou
an ch
Ġlo se
Ġn a
Ġapp ly
Ñ ı
d ate
s k
Ġextreme ly
Ġdis ney
Ġdeterm ine
Ġsc ott
m et
Ġprof ile
Ġ15 0
Ġautom otive
exp ected
Ġadop tion
Ġag ric
sec ut
Ġcl ient
Ġwel come
Ġst ated
Ġsubs cription
Ġret urning
Ġremain ing
Ġca ution
Ġr amp
Ù ĩ
h r
Ġconte xt
Ġout standing
Ġded ic
Ġlab our
Ġstat istics
Ġcolle agues
con s
kn own
Ġdef ense
0 1
Ġexclud ing
rom e
Ġcon cent
Ġpay ing
Ġi b
lo ck
0 9
Ã £
Ġwar ning
Ġh arm
Ġm ail
iv ir
Ġcomplete ly
av io
y an
Ġopen ed
Ġdeliver ing
Ġperiod s
Ġcho ose
Ġtr ip
Ġsur pr
Ġhy d
Ġcontr ibut
u ro
Ġ'' )
Ġocc up
Ġw ood
Ġexperienc es
Ġr and
an ia
we ek
Ġas king
Ġhe n
Ġs ession
Ġ5 2
Ġgro cer
Ġcoun t
ig en
Ġconcent r
Ġread ing
Ġconnect ion
Ġexplo re
ll ing
Ġrece iving
Ġs le
Ġj un
Ġmult i
Ġch at
Ġpl c
Ġv ital
Ġ4 00
al and
Ġ ign
Ġout do
il le
Ġse a
l ong
Ġdiscuss ion
Ġ199 8
Ġplan ts
Ġfix ed
it ation
i ers
Ġeuro s
Ġag gress
Ġprof its
is co
Ġhistor ical
Ġmach ine
Ġrest r
rec iation
Ġexclus ive
Ġim age
Ġpa rent
Ġat l
agr am
Ġm erg
fe rences
Ġf em
Ġfl at
c ap
bo ard
Ġpip eline
Ġfeel ing
act ive
Ġt or
Ġth r
Ġflow s
Ġcl ar
r ia
ul ated
Ġintro duced
Ġpolit ics
Ġpe ace
Ġmat ters
Ġimp air
Ġra ising
Ġdev ice
Ġs um
Ġvolat ility
Ġvari ety
Ġpus hed
t i
Ġmay or
Ġaut o
bo x
h o
ĠÃ ł
Ġwas te
Ġnation wide
Ġur ged
Ġ Ùħ
ric s
Ġt end
Ġregul ation
Ġshort ages
Ġhot els
Ġmo ves
Ġear th
Ġconv ention
on om
0 6
n ight
ot a
Ġt ask
Ġmoment um
Ġvent ure
Ġacqu ired
Ġfa uci
ar i
Ġt ack
ï ¿
Ġpar a
Ġspec ifically
y stem
Ġking dom
Ġc old
Ġvict im
Ġattribut able
g reg
Ġpass word
Ġcomp os
Ġv ision
e ff
Ġem b
Ġreve aled
k ins
h ow
Ġscre en
Ġprospect s
Ġ5 7
Ġhousehold s
Ġ5 6
app ed
Ġstrong er
Ġchrist mas
Ġw it
Ġexp end
Ġinflu ence
ï¿ ½
Ġteac hers
Ġpre fer
Ġsh aring
Ġlink ing
ign ed
Ġmort ality
Ġpublic ly
m i
m iss
Ġth us
Ġagric ult
Ġinter im
Ġext ent
Ġengine ering
ad or
Ġ8 5
Ġsp an
Ġsepar ate
u a
Ġcaus es
Ġyield s
Ġstra ight
Ġfreed om
un te
Ġshar p
Ġinc ent
Ġinst agram
Ġloc ation
Ġ5 8
Ġur ban
Ġrecord s
Ġres ist
Ġf u
od e
Ġspe ak
Ġv ac
l ined
Ġange les
Ġeffic iency
Ġautom ation
Ġwa iting
Ġb ab
Ġdel ays
Ġadvert ising
Ġcor rect
Ã£ o
Ġstr ain
Ġbig ger
Ġp acific
Ġmortg age
Ġbat tle
Ġbott om
Ġhim self
Ġexpend it
Ġtr ied
Ġn uc
en n
Ġ5 9
Ġmin ing
Ġdistr ibuted
ĠÐ ¿
Ġspe ech
Ġdisrup tions
go ogle
Ġdiagn ost
Ġadd s
Ġex ceed
in fect
ou ts
Ġeas ily
Ġevent ually
Ġin equ
Ġacceler ate
Ġimp osed
20 21
Ġmr na
Ġvol unte
Ġlow est
con n
Ġex hib
Ġm d
Ù ĥ
Ġze aland
Ġv ast
Ġaccord ance
Ġthe at
Ġimplement ed
Ġsent iment
Ġreser ved
Ġboost er
4 2
Ġas pect
le ts
ro ad
Ġreport ers
Ġend ing
0 7
Ġf y
Ġto ugh
Ġemp ow
Ġprodu cers
Ø ³
Ġbe aut
Ġ200 8
4 1
Ġpurch ases
Ġpres ence
Ġsqu are
Ġtro ub
Ã© s
Ġh un
Ġge orge
e lect
Ġunlike ly
Ġsh ots
se mb
Ġfin tech
Ġconc lud
Ġb ol
Ġse es
ell ing
5 9
Ġagree ments
Ġtes la
Ġcompar able
Ġn amed
Ġlux ury
. âĢĻ
Ġn one
Ġsud den
Ġmention ed
Ġf if
Ġblo g
Ġexpand ed
Ġav iation
Ġge org
Ġobl ig
Ġset tle
Ġfeat ure
Ġexpl ained
o y
Ġtarget ed
Ġcateg ory
Ġheav y
is f
Ġacquis itions
Ġtrack ing
Ġpl ed
Ġc agr
Ġsh r
Ġneut ral
Ġsh ock
Ġcar ry
Ġpower ful
Ġpl aced
Ġw ip
s a
Ġeas ier
inform ation
Ġtrans l
Ġbrief ing
Ġa er
Ġt ai
ang ing
Ġinterview s
Ġwor ried
Ġair craft
Ġro ut
Ġrecomm ended
Ġconn ected
ver ty
Ġrepe ated
Ġastr azeneca
Ġyour self
Ġdoub t
Ġavail ability
Ġhe ard
Ġg ender
Ġje ff
Ġs ample
re m
Ġper fect
Ġscop e
Ġoppos ition
Ġjo ined
Ġin g
Ġdis p
Ġconsist ent
gr ade
Ġsche dule
it is
it ory
Ġelig ible
ward s
Ġlaw makers
m l
Ġem ot
Ġtim ing
Ġcy bers
Ġdec ide
Ġhyd ro
Ġincor por
Ġconsequ ences
i ance
×Ļ ×
Ġres et
Ġinvol ve
Ġsp r
n ic
Ġ5 1
ion tech
Ġgu est
Ġim ag
Ġaddition ally
Ġout perform
Ġso le
Ġcomput er
ic ed
Ġgo v
Ġdist ance
Ġim ages
Ġdeal ing
Ġhapp y
Ġconserv ative
Ġth om
ite ly
Ġuse ful
Ġrecon cil
or ation
Ġcritic ism
Ġshort age
Ġgener ated
Ġh ab
Ġem ph
Ġsp aces
1 00
Ġrespond ents
c ar
×ķ ×
Ġb ay
com p
Ġf ather
Ġb urn
Ġprior it
Ġeas tern
Ġsupp lement
Ġpet ro
Ġgen et
Ġposs ibility
ach ing
Ġcru ise
Ġins ight
Ġlook ed
Ġch ic
Ġminim um
Ġobvious ly
h t
s p
Ġv ill
Ġjump ed
Ġext end
u an
Ġsp ir
Ġex ports
Ġelse where
Ġprotest ers
Ġpropos al
whe l
Ġpo verty
Ġsusp ended
Ġsubstant ial
Ġclos ures
Ġwork er
Ġdeb ate
Ġz d
Ġc ough
Ġemerg ed
Ġdeg ree
st e
Ġdelay ed
Ġadvis ory
Ġamort ization
Ġpus hing
Ġn ames
b u
Ġexpert ise
Ġengage ment
Ġmaint aining
Ġdecl ared
6 8
ub e
Ġencour age
h al
Ġyoun ger
i as
Ġro bert
Ġvisit ors
own ed
ron t
Ġle verage
Ġwh om
Ġchem ical
Ġvict or
Ġbench mark
it a
Ġzd net
ren e
Ġchap ter
v in
Ġtr ain
Ġappo int
ers on
Ġfac es
Â ®
Ġt ick
Ġm un
Ġtr acing
Ġdoc uments
Ġ5 3
st ream
Ġo xy
Ġapp lied
Ġiss u
Ġprov ince
Ġjud ge
Ġent ry
f ree
Ġm ount
be ing
Ġelect ions
Ġadjust ments
ip ped
Ġpro c
ur a
Ġtele v
Ġgr ap
Ġprep are
Ġs ound
Ġo d
Ġserv ed
Ġint ended
re port
Ġd ub
Ġus ual
Ġretire ment
Ġhas n
Ġbul lish
Ġdis pos
Ġaim s
Ġemph as
Ġregistr ation
Ġlos ing
Ġprincip al
Ġtreat ments
ist ers
Ġpack aging
al ities
Ġex cess
0 8
Ġ ub
cor onavirus
Ġa z
Ġbehav i
Ġexact ly
Ġsuccess fully
eng th
Ġmed ium
Ġrac ial
w ing
f r
pos es
Ġ5 4
ri er
Ġc atch
Ġf est
Ã ¨
em i
ec urity
end ers
Ñģ ÑĤ
Ġm ike
Ġalong side
qu es
Ġvir gin
Ġlangu age
Ġover whel
Ġb ars
Ġful f
5 7
Ġsp oke
Ġvo ice
Ġindic ated
Ġp ed
Ġac ute
Ġtai wan
Ġath let
Ġk it
Ġag ed
Ġacceler ated
Ġme at
Ġlear ned
Ø ¹
p p
s en
g un
Ġarr ange
Ġinterest ed
Ġgener ate
Ġwor r
Ġeconom ics
Ġr ank
Ġdeterm ined
Ġpur poses
Ġdip l
Ġcybers ecurity
Ġfel low
Ġpasseng er
ul l
w r
Ġh am
Ġrec r
om o
Ġapplic able
Ġ6 6
Ġlist en
Ġperson nel
Ġ6 7
Ġs amples
Ġdivid ends
he l
Ġown er
Ġproject ions
Ġind eed
c ular
Ġdang erous
Ġinc red
Ġl ung
Ð¸ Ð
it ect
Ġeffect iveness
Ġt el
Ġent ered
og en
Ġf ine
Ġcar ol
Ġframe work
Ġo s
Ġsett ings
Ġp or
Ġhand ling
Ġbo eing
coun try
Ġd og
x it
Ġd an
Ġo h
Ġwal k
Ġaim ed
Ġhand le
Ġcar ried
Ġtr uly
Ġprem ier
Ġinterest ing
Ġwit ness
Ġre ly
Ġspokes person
Ġsur round
Ġchamp ions
Ġres ol
Ġk im
m al
Ġsm ith
Ġfollow s
Ġtur ning
Ġtal ent
Ġpan el
Ġb a
Ġins ider
ain t
Ġsafe ly
Ġsuff icient
Ġexpand ing
Ġs in
Ġout come
Ġs am
Ġrelationship s
Ġwon der
Ġ9 9
in y
Ġimp lic
Ġprotoc ols
Ġthreat s
Ġmargin s
Ġfac ilit
Ġst able
it ude
ig an
c s
Ġop ec
Ġdedic ated
Ø ¨
Ġmand ate
Ġneigh bor
Ġital ian
and er
Ġwork place
Ġa ware
Ġreco vered
Ġproced ures
w ood
Ġpet er
Ġcy cle
p ts
im inal
Ġfamil iar
Ġbir th
Ġres ume
Ġarch itect
Ġanim al
Ġresult ed
Ġaud ience
Ġspokes man
Ġoper ators
Ġint el
b ank
Ġcon ven
Ġoxy gen
end a
Ġchic ago
Ġsat isf
Ġem br
Ġfe et
Ġbuy ers
Ġr ig
Ġd ivers
Ġbec omes
Ġer a
Ġphot o
Ġsp l
Ġlic ens
Ñ Į
Ġintegr ated
ĠâĢ ĭ
Ġart ific
in et
wh at
Ġadministr ative
e z
Ġcut ting
Ġcontact s
f low
ut h
Ġdiscuss ed
and a
Ġsil ver
Ġperman ent
Ġref uge
Ġclass es
Ġdev ast
u able
Ġsk y
Ġord ered
Ġpub lish
Ġr ail
Ġt a
Ġ ul
Ġt ic
Ġdr iver
Ġexpl ain
Ġgovern ance
Ġrestr uct
Ġown ed
Ġgather ings
Ġve ter
ay er
Ġwould n
Ġin tr
Ġresil ience
Ġrob ot
Ġstre ets
Ġflex ibility
0 4
Ġarab ia
or gan
Ġmoder ate
Ġe ld
Ġb orders
Ġll c
ugh ter
Ġair ports
co hol
ang ible
ice f
Ġfr ank
Ġdis infect
Ġship ping
Ġdiffe rences
Ġrat ings
Ġacc used
Ġimpair ment
Ġmov ie
Ġb on
Ġartic les
Ġlaw y
Ġtempor arily
Ġens uring
Ġvirus es
Ġche cks
iz ations
k es
Ġhum ans
st ar
Ġc iting
Ġdep reciation
Ġmot or
Ġr ural
Ġdo or
Ġmil es
Ġcould n
k a
Ġgeorg ia
ress ed
Ġpost pon
Ġl y
Ġimplement ation
Ġclos er
Ġoverse as
Ġheav ily
Ġfight ing
Ġn ut
Ġenh ance
Ġsw ed
Ġunder t
Ġremote ly
se e
Ġresour ce
Ġw id
Ġsurf ace
Ġh us
Ġ201 3
Ġatt or
Ġb ure
Ġord inary
Ġad m
l ife
Ġp df
v a
Ġpro ve
Ġcent ury
Ġfact s
Ġaff airs
Ġhapp ens
Ġbro wn
Ġcontain er
Ġo ce
Ġfur l
Ġprov isions
Ġpopul ations
Ġlist ed
os ystem
resp ond
Ġbank rupt
iv als
Ġflo od
Ġhe aring
w ind
Ġex tr
b ing
pr int
Ġstop ped
Ġproduct ivity
Ġtre ated
ut y
Ġjour ney
Ġj ul
Ġpart ially
ĠÐ ²
ik es
Ġachie ved
m art
he ast
Ġpre gn
0 3
Ġlou is
Ġcr ypt
Ġvent ures
c ies
Ġd ani
Ġintegr ation
Ġre ference
Ġ ÙĪ
j an
Ġ'' :
Ġl ng
Ġimp oss
Ġenforce ment
Ġh iring
Ġobs erv
Ġvacc inations
Ġas semb
Ġcre w
Ġtechn avio
Ġ6 9
tw itter
Ġw are
Ġs ought
Ġrem arks
Ġhe ight
i ot
Ġinstr uct
Ġco h
Ġfact ory
app ing
gh an
Ġolymp ics
Ġartific ial
Ġk a
5 6
Ġbat ter
Ġcalcul ated
ist ed
Ġinvest ed
Ġdi verse
m en
qu o
Ġrel ating
c i
Ġad equ
Ġcr iminal
Ġd ial
Ġw ake
Ġnurs ing
Ġcompon ents
Ġst ation
Ġr mb
Ġval id
ï¿½ ï¿½
Ġres c
Ġcreat ive
Ġdirect ion
Ġres ort
Ġcomb at
Ġind ones
olog ist
c an
Ġpo ly
Ġmethod s
Ġobl igation
Ġpro ud
Ġchann els
le vel
Ġreser ves
un ately
Ġgu ide
Ġcontrol s
Ġdef erred
Ġ6 2
Ġdef ic
Ġag enda
Ġk new
Ġval uation
Ġdis play
Ġrecogn ition
Ġintro du
Ġacknow led
Ġdiscuss ions
Ġn ic
Ġle e
Ġcor respond
Ġclaim ed
Ġepid emi
ur g
ab il
Ġk ick
Ġstre aming
Ġ rom
Ġqu arters
Ġ6 8
pr ises
Ġl ending
Ġn i
Ġlabor atory
Ġwe ight
Ġsumm it
Ġstre am
Ġfil ings
Ġst an
er b
Ġnum erous
Ġapp rec
uc ks
ch ain
Ġshare holder
Ġcr ime
n am
Ġm aker
Ġdown turn
Ġeven ing
Ġrecogn ized
Ġec osystem
h ai
Ġadop ted
0 2
rep rene
Ġtranspa rency
Ġexpens ive
it arian
ul ate
off s
ain ts
ill ance
Ġw is
Ġcou p
Ġnews p
Ġ7 7
Ġimposs ible
Ġaward s
Ġh ill
Ġch ris
Ġs i
Ġw ife
com m
br id
Ġport ion
Ġtw ice
Ġgrocer y
Ġco ff
Ġag greg
Ġse ats
ot ed
Ġpre lim
Ġhighl ight
Ġall iance
Ã ¼
Ġele v
Ġvend ors
st ate
Ġsuff ered
c n
Ġt ar
er ies
Ġent reprene
Ġpoin ted
om a
Ġanim als
Ġencour aging
Ġf t
Ġup coming
5 8
Ġro ck
in em
a e
Ġr ide
w ear
Ġe asing
Ġgrant ed
Ġmit igate
Ġb io
Ġm ine
Ġ202 5
Ġmiss ing
lim ited
sel s
h ar
Ġg ard
li x
ris k
Ġorganis ations
Ġsc ore
Ġf ab
bus iness
Ġun known
Ġfe b
Ġe b
Ġfood s
Ġreason able
Ġf ile
Ġ7 2
Ġtr ail
Ġlead s
Ġw ider
Ġ iv
t ok
Ġpredic ted
Ġen roll
Ġbr ain
Ġsc iences
Ġafter no
ar ation
Ġv es
ate ver
Ġelect ronic
Ġm ild
Ġes g
Ġ25 0
Ġmain ten
Ġg ree
Ġbe ar
Ġ] .
Ġed ge
Ġhigh s
Ġg al
a rent
Ġt as
Ã ¤
Ġun icef
Ġbor is
Ġsurve illance
Ġhar ris
li hood
Ġmart in
Ġ6 4
Ġb ought
Ġsumm ary
Ġexperienc ing
Ġcover ing
l ink
Ġnuc lear
Ġrestruct uring
Ġsubsequ ent
Ġj ers
Ġdis aster
Ġorgan isation
Ġwh atever
Ġal cohol
Ġ6 1
Ġhold s
Ġaut onom
Ġsol ar
Ġbel ief
Ġl ag
omm od
Ġfranc isco
Ġbuild ings
Ġintegr ity
ib utions
k i
Ġsk ift
Ġoptim istic
Ġafterno on
Ġlif ted
Ġrun s
Ġprelim inary
Ġbelie ved
Ġimmigr ation
Ġv ary
Ġsur prise
Ġenter prises
Ġj on
g al
Ġox ford
Ġevery body
cl ass
Ġhard er
Ġmor gan
Ġch ip
m at
p ir
Ã ±
Ġeng lish
Ġun fort
Ġanx iety
Ġcy cling
Ġminor ity
d on
Ġste el
Ġsit ting
Ġregul ators
Ġrand om
act ed
Ġloc ated
ic ian
Ġacc ommod
enc ed
Ġmainten ance
Ġwor ry
Ġproc ure
Ġsle ep
in ate
Ġp un
Ġcontr ast
i ated
Ġr ub
Ġ6 3
en za
Ġfall en
th rough
el ess
Ġm ir
Ġrem o
c alled
ap se
Ġnecess arily
Ġn ig
Ġeditor ial
z z
ou th
Ġwatch ing
Ġcance led
crib e
Ġentire ly
7 6
Ġsan ctions
Ġcompon ent
Ġthom as
Ġwar r
Ġc fo
Ġselect ed
Ġal ign
Ġinst all
Ġgenet ic
Ġpartnership s
Ġan th
Ġpr in
Ġmo le
Ġcompar ison
Ġm akers
w orth
Ġr us
w in
Ã ¢
Ġpat ter
Ġterr itory
Ġalle ged
ink ing
Ġstrugg le
il ing
Ġon t
Ġsw it
ess ions
Ġsc ot
Ġlit er
se y
ren ess
Ġoccur red
Ġun limited
Ġrel ig
Ġconflic t
Ġcoh ort
Ġresident ial
Ġdes per
Ġet c
Ġem er
Ġs ad
Ġpre ca
Ġbre xit
Ġt ail
Ġmin eral
Ġw age
Ġver ified
Ġshop s
Ġstar ts
Ġapp arent
Ġacad emic
Ġvict ory
Ġjers ey
Ġy en
Ġoblig ations
m aking
Ġse af
Ġp it
f ace
Ġreach ing
Ġdefin itely
l aim
aud ited
Ġm ist
Ġcontr ibute
loy d
Ġch a
Ġprom ote
Ġfre ight
Ġequival ent
Ġbe ll
u ate
Ġ ice
Ġpow ell
ic ial
Ġsh ang
e conom
Ġg un
ac he
prof it
ric k
Ġsup reme
Ġsh all
Ġp m
Ġcateg ories
ab a
ol f
e u
r id
Ġhy brid
Ġpatter ns
Ġconsider ation
Ġl uc
sc ale
market s
Ġdetect ion
% ),
Ġpul l
Ġurg ent
a id
v ille
ul f
Ġretail er
Ġpostpon ed
Ġf ly
Ġproceed s
ce l
Ġcommod ity
Ġrel ax
Ġsh oot
ib er
Ġpers ist
Ġex cell
Ġobser ved
Ġc ited
Ġident ity
Ġb ow
Ġr am
Ġlit igation
Ġint ensive
Ġdisapp o
Ġun audited
Ġob ama
Ġdep uty
Ġcarr ying
Ġmerg er
Ġorgan ic
Ġpro xy
us ter
Ġrepresent ative
Ġx i
ang ed
Ġnew ly
Ġanaly z
Ġad mitted
Ġtelev ision
Ġprotect ing
Ġelectric ity
ac iÃ³n
Ġcaus ing
Ġscenar ios
Ġvide os
r un
Ġrem ove
Ġabsolute ly
ke l
Ġent ering
Ġdani el
7 8
Ġfem ale
Ġthe r
p osed
Ġp ap
Ġch ronic
Ġhe at
Ġmer ch
Ġdemocr acy
h or
Ġencour aged
Ġpro portion
s hip
Ġ7 6
f all
Ġsex ual
Ġsuff ering
vacc inated
Ġpie ce
Ġjo ining
Ġarg ent
Ġunivers ities
Ġrequ iring
Ġtravel ers
Ġbr ings
Ġ7 9
Ġrep ro
Ġform s
Ġstay ing
Ġmaxim um
Ġansw ers
Ġextra ord
Ġwor d
Ġexpl ains
Ġh air
Ġg a
Ġst uff
Ġdat ab
Ġcu omo
f a
Ġwal es
Ġt an
Ġequ al
Ġdep ending
Ġpod cast
dr aw
Ġcoop eration
Ġtur key
Ġsimilar ly
Ġdis cr
Ġpost ing
Ġawa reness
as hed
Ġb ub
in der
Ġreflect s
g l
um n
it z
Ġsan it
Ġfil ing
Ġback ground
Ġcarol ina
Ġpl un
Ġr aw
min ent
Ġexpl oration
Ġc up
Ġ201 0
Ġauthor ization
Ġindo or
Ġle ver
Ġcompos ite
Ġd ark
as ion
part y
g as
re al
im m
Ġf ox
Ġfe els
Ġ Ñģ
v ention
it ative
Ġrec ip
y mpt
Ġf ill
Ġb n
Ġdynam ics
Ġsurv ive
Ġbro ther
Ġh aw
im ination
Ñ ĩ
Ġfif th
ar o
Ġro les
Ġserious ly
Ġwin ning
Ġv p
err ing
Ġch art
Ġsw itch
Ġvis its
an o
Ġcon cept
Ġres um
Ġpro ven
Ġfocus ing
ater al
sh ore
Ġ201 1
Ġnorm ally
Ġii i
l am
g ro
as hing
Ġmand atory
p ow
Ġsubsidi aries
Ġb low
Ġh iv
Ġprom ising
Ġst em
Ġscre ening
p at
Ġcont ains
Ġcance l
Ġk o
Ġbe gun
Ġflo or
Ġcomm er
Ġprot ected
Ġpl astic
Ġkill ing
Ġprep aring
Ġcult ural
g s
Ġp iv
Ġhtt p
Ġvictim s
il s
Ġwe igh
Ġab use
ant ic
Ġreflect ing
Ġdem ands
Ġplan et
ad os
Ġel imin
Ġanticip ate
Ġdead ly
Ġbi ke
Ġmin isters
Ġflex ible
Ġus age
Ġover view
Ġwith draw
Ġlim its
os ing
Ġcontr ibution
Ġon to
Ġb p
Ġtens ions
ste in
Ġguard ian
Ġhospital ity
Ġperform ed
Ġs ar
Ġbur den
Ġg y
Ġval uable
r ay
Ġinfl amm
Ġtell ing
Ġsur ged
Ġsp ons
Ġst ands
Ġhus band
Ġdr y
Ġparticip ate
Ġmand ates
Ġz one
Ġunder st
Ġgrow n
l ight
Ġ err
Ġunivers al
Ġfound ed
Ġfarm ers
Ġprom ise
Ġd Ã©
Ġl u
aw a
Ġshang hai
Ġtarget ing
Ġreli able
Ġ8 9
Ġhur t
Ġ200 9
Ġprofit ability
Ġpo ol
dr iven
Ġmeaning ful
Ġtrad ers
ĠØ £
Ġcance ll
Ġlic ense
Ġstake holders
g ov
z y
Ġoffer ings
Ġcontro vers
Ġear n
ĠĠĠĠĠĠĠĠ ĠĠĠĠĠĠĠĠ
Ġreconcil iation
Ġstrong ly
Ġrequest ed
3 00
f lix
Ġa u
ul a
Ġbo y
Ġattor ney
us ive
Ġc argo
Ġinflu enza
ympt omatic
wor ld
Ġmich igan
Ġmix ed
Ġnar row
ack ing
Ġ20 30
le tt
i ams
is ol
Ġ1 20
Ġjo se
Ġdevelop ers
Ġfr ustr
Ġb es
Ġw il
Ġ202 3
Ġbill ions
Ġg aming
Ġaff il
Ġmag az
Ġcan n
Ġun expected
Ġem pt
Ġclos ure
Ġend s
Ġbarrel s
Ġhe l
h and
Ġbroad cast
Ġadvis er
Ġj ur
Ġsurf aces
Ġrich ard
b el
ath an
at ures
Ġst ick
Ġrequest s
Ġhop ing
Ð º
Ġarr ived
Ġmar ked
Ġsh ap
in ts
Ġf ro
qu ality
che n
Ġrul ing
Ġr ival
Ġpublic ation
Ġdisclos ure
Ġhighl ighted
g ers
Ġexc ited
Ġw ages
Ġrout ine
Ġ7 8
ch ina
Ġoce an
i est
ren cies
Ġs ending
Ġun a
in te
Ġyou th
cont roll
Ġk y
Ġappro aches
Ġto t
out ube
Ġdo ors
Ġt un
Ġext ensive
Ġrest art
Ġab b
Ġpolit icians
Ġindones ia
Ġdecl ines
Ġguarant ee
g lob
Ø Į
Ġolymp ic
Ġsupport ers
Ġour selves
fe ren
Ġstre t
Ġreli ance
ubs cribe
Ðµ Ð½
Ġintro duction
Ġli ability
Ġar iz
Ġup t
ch o
Ġmiss ed
. -
Ġaccur ate
Ġspread s
re es
p res
Ġag ents
Ġopin ions
g or
Ġout lined
Ġfe e
Ġcollect ed
em y
Ġhead qu
Ġoutdo or
Ġeth nic
Ġtherapeut ics
g b
Ġrad io
Ġ ig
Ġnegoti ations
Ġfor th
Ġserv ing
m aker
Ġdifficult y
Ġbill s
Ġtechnolog ical
9 8
Ġinform ed
ad ium
Ġep is
Ġimplic ations
Ġrev ised
Ġ Ùģ
Ġsupport s
f ounder
Ġab road
Ġre action
Ġslow ly
Ġt ap
Ġassoci ate
Ġnav igate
Ġtouch ing
Ġinstitution al
Ġregular ly
Ġposs ibly
Ġshar ply
l is
Ġg am
th an
Ġro oms
Ġrestric ted
ag er
Ġcoal ition
Ġoper ates
Ġs out
Ġrece iv
Ġtit le
Ġvirt ually
Ġgir ls
i us
Ġre ass
ad ow
Ġren tal
Ġsecond ary
re y
Ġ7 3
Ġa k
Ġmis information
Ġin ject
Ġprior ities
uck y
Ġsh ape
Ġrenew able
on ia
Ġphot ograp
Ġpay roll
Ġcoll apse
Ġj et
Ġg lo
t ail
Ġfact ories
8 00
Ġfr ag
Ġam end
Ġal t
is an
Ġhistor ically
Ġch urch
at o
Ġnet flix
Ġvi et
Ġit em
Ġgold man
Ġdoz ens
Ġbu ff
ed ia
Ġbo oks
Ġafford able
Ġe at
Ġprocure ment
our s
Ġlif t
Ġr ain
Ġd j
it er
Ġguest s
Ġil leg
Ġn ice
Ġun vaccinated
Ġassist ant
Ġemer ge
Ġdur ation
ian a
Ġre vers
Ġgr ade
Ġagricult ure
Ġdet ected
Ġunc lear
Ġdr ag
Ġact ing
Ġroll out
Ġobt ain
Ġdi abet
ÃŃ a
os h
Ġconstit ution
Ġvot es
Ġput in
d em
us ing
Ġregard less
Ġcompet itors
Ġb ail
Ġaccess ible
f in
Ġseem ed
Ġfle et
Ġint ens
ell ed
Ġth ro
Ġevalu ate
Ġun e
Ġnewsp aper
Ġco ol
Ġres olution
Ġaspect s
Ġdead line
Ġsubscrib er
Ġk il
Ġk its
Ġtr uck
Ġcomfort able
Ġpl enty
Ġmore over
Ġr yan
on to
Ġce re
Ġmot iv
mic on
Ġimport s
Ġstrengthe n
Ġnurs es
ig ue
Ġy ester
Ġmat t
Ġremo ved
Ġmess ages
Ġm u
Ġgr ants
Ġhop kins
Ġpract ical
micon duct
Ġprodu cer
Ġgen e
w ill
Ġ7 4
Ġsever ity
ĠÐ ½
w om
Ġback ed
Ġ8 00
Ġclean ing
Ġi p
Ġwill iams
Ġaf ghan
Ġelect ron
m c
ur red
Ġariz ona
Ġas ymptomatic
Ġmus e
Ġing red
Ġannoun ces
Ġuns ubscribe
Ð ²
ro y
Ġdistr ibut
Ġsl ump
Ġconsult ing
Ġext ension
Ġpharm a
ar io
Ġsuggest ing
Ġbreat hing
Ġe ps
le ading
Ġcoff ee
Ġrac ism
Ġse miconduct
Ġca ut
ion e
Ġb oun
Ġparticip ation
v i
Ġs ong
Ġb ang
Ġyester day
ut s
p in
Ġdep ends
Ġspan ish
Ġeng aged
Ġre im
iz on
d ig
qu ir
Ġmy self
Ġas h
Ġcance lled
ific ations
in i
Ġcent res
Ġhospital ized
Ġj ac
Ġcaut ious
Ġub er
crip t
Ġprincip les
Ġda ughter
Ġrac ing
Ġtack le
Ġclim bed
id ing
Ġpres ents
Ġaggress ive
is a
Ġbr ight
en a
Ġbe ach
Ġset s
Ġcontro lled
Ġste ady
Ġla id
Ġathlet es
Ġunfort unately
he red
Ġ7 1
Ġhy gi
al es
Ġfor d
Ġexper im
Ġfav our
Ġhead ing
Ġdeliver ies
Ġinstr uments
ĠÐ ¸
Ġextraord inary
pl us
Ġcommit ments
b al
Ġmedic ines
ou l
Ġsp ar
Ġwell s
Ġknow s
Ġsup erv
Ġall ies
Ġcre ation
Ġrem ind
Ġp our
Ġmut ations
Ġ8 6
Ġc ards
Ġal leg
Ġcommer ce
Ġvictor ia
Ġan g
Ġanth ony
Ġne ither
Ġrespond ed
Ġtick er
Ġpen al
Ġbr idge
Ġdepos its
Ġst ood
Ġattract ive
Ġmet rics
Ġcomp rom
Ġcont ag
Ġadv ised
Ġfundament al
er on
Ġstart up
Ġinc ident
Ġsurround ing
Ġt ay
Ġreflect ed
Ġtrad ed
ist ical
Ġder iv
Ġexpendit ures
Ġarm y
Ġk r
Ġcomment ary
Ġes cal
Ġi po
Ġapp end
Ġmigr ants
Ġnot ing
Ġincl usion
Ġseaf ood
Ġenh anced
Ġany where
Ġbankrupt cy
Ġmas ter
Ġa ver
and markets
Ġrecogn ize
Ġreview s
Ġy outube
Ġsk in
Ġcomput ing
Ġke l
Ġdet er
Ġcal end
Ġbeaut y
c her
Ġmac ro
Ġrepeated ly
Ġnut r
Ġshop pers
i y
Ġhal t
Ġmob ility
Ġun ve
Ġl ength
Ġsubsidi ary
Ġst ages
one y
Ġcollect ive
Ġpar ks
Ġcon clus
Ġmet al
Ġmor ris
ã ģ
Ġfin ished
Â Ģ
Ġbar b
Ġdisco very
Ġund ers
Ġk ar
Ġrepresent atives
p ay
ol ic
Ġover s
ÙĬ Ø©
ur ies
Ġprefer red
Ġman ner
Ġsec ured
Ġmeas ured
row ing
Ġcharg ed
b id
Ġcampaign s
ĠâĢĿ )
d y
Ġstock holders
Ġaud io
a q
Ġas ide
Ġst ability
Ġappe al
Ġ9 6
rup tion
s erv
Ġmagaz ine
ony m
Ġl enders
Ġresil ient
it ivity
Ġwill iam
Ġrem ov
Ġreported ly
Ġsu ite
Ġg all
Ġpurch asing
Ġsw iss
anc et
Ġf loyd
Ġgeograp hic
Ġprompt ed
Ġauthor ized
Ġab ort
Ġover night
Ġg ear
Ġarrest ed
co in
Ġnational ities
Ġfin ish
Ġless ons
Ġimprove ments
Ġmar y
Ġequival ents
Ġbure au
Ġaddress ing
w ith
Ġacknow ledge
Ġacc omp
Ġrequire ment
Ġlo ved
am eric
Ġenab ling
Ġo m
Ġad ult
Ġp ension
Ġref er
ic i
Ġplan e
w atch
h tt
Ġconvers ations
Ġey es
Ġca ught
Ġmuse um
Ġreop ened
Ġ8 8
Ġexpect ing
Ġprodu cing
Ġk id
Ġr ic
Ġown s
Ġprev al
Ġj er
Ġcab inet
Ġwal mart
ab s
s pec
che ck
Ġneigh bour
a wn
Ġ20 00
Ġb and
glob al
Ġvolunte ers
Ġanaly ses
h l
Ã ¶
Ġsupp osed
c ket
Ġ um
Ġpe ers
Ġempt y
Ġrep ay
Ġh k
Ġcont est
Ġrec y
Ġgreat est
Ġsegment ation
Ġdr illing
Ġsw ift
her lands
Ġprevent ing
c ur
Ġto urn
t ical
ĠÂ »
Ġs anta
Ġcrit eria
d ney
Ġw ish
Ġeld erly
Ġscot land
ÂĢ Â
Ġreal ized
Ġdisc ount
Ġre act
Ġran ked
Ġp oc
9 7
Ġstand ing
Ġdep ression
Ġfrequ ently
Ġrev olution
Ġb odies
Ġtweet ed
Ġaud it
Ġcar riers
Ġcon ferences
r ative
s m
Ġterr or
h ab
f ront
Ġappend ix
Ġp as
Ġz h
Ġto w
Ġ' ,
Ġhygi ene
Ġsup erm
Ġoptim ism
Ġfest ival
Ġnet herlands
ic ts
Ġmach ines
Ġun us
Ġf ish
Ġo l
Ġsur ger
Ġc i
Ġal ph
crip tions
Ġt ast
Ġban ned
ac erb
Ġresc ue
Ġ8 7
Ġs essions
Ġ8 2
Ġjob less
Ġobt ained
Ġevol ving
Ġ9 8
Ġb rent
Ġdemonstr ated
Ġear ned
Ġc p
Ġgl ass
em ed
Ġworr ies
Ġal ert
Ġspl it
Ġex acerb
Ġris en
k o
Ġbab y
duct ions
Ġp in
Ġcomp r
Ġcy cl
Ġcalend ar
Ġ9 7
Ġmain land
Ġr all
Ġimp er
Ġpart ly
ĠÐ ¾
Ġleg acy
et t
r an
Ġlib eral
enc ing
Ġowners hip
Ġapprec iate
Ġlo ad
Ñ ħ
Ġst er
Ġhold ers
Ġcop per
Ġal gor
Ġins pect
bur g
Ġdiagn osis
Ġtime ly
Ġwe ap
Ġhospital izations
Ġlot s
econom ic
Ġst adium
Ġpiv ot
n is
Ġpow ers
Ġin hib
Ð¾Ð ²
Ġobject ives
Ġsynd rome
Ġcol umb
Ġstrateg ist
Ġcontract ed
Ġpack ages
Ġarg ued
Ġelect ed
6 4
Ġfurther more
Ġdemocr at
h ire
Ġbo om
ch s
et r
Ġalgor ith
t or
Ġread ers
Ø Ń
ct or
Ġmon t
Ġcl ubs
Ġl in
Ġventil ators
Ġ ÙĦ
Ġeduc ational
Ġst abil
Ġm ent
Ġfair ly
Ġcon ver
Ġden ied
c f
Ġshel ter
i i
Ġmem or
Ġsurpr ising
min ute
Ġm all
Ġdisc laim
Ġm ap
Ġvirgin ia
l aw
i ques
Ġdisco ver
Ġs ides
Ġrid ers
Ġe lement
Ġple ased
Ġbo ston
Ġdeg rees
Ġindepend ence
Ġwin ner
Ġlab el
Ġcommission er
Ġphys icians
ur ring
Ġcrow d
Ġco v
Ġassoci ates
à ¤
ar ia
all ing
Ġswed en
Ġ iron
wom an
r um
Ġphil ipp
Ġadmin istered
Ġte en
Ġcomple tion
er ts
ic ate
Ġpro of
Ġup gr
he m
Ġpl ays
ail and
Ġpost s
Ġb iontech
Ġ] ,
Ð ´
Ġp el
Ġroll ing
Ġbed s
Ġb ern
Ġtell s
Ġb ag
ing er
Ġj ail
Ġviet nam
Ġdiabet es
Ġd ro
Ġs or
ĠØ ¨
Ġh ang
is d
Ġn ur
ress ive
br idge
Ġsens itive
htt ps
Ġinvol ving
se ll
Ġe ll
Ġaccept ed
im p
d is
w ater
Ġh ou
Ð° Ð½
Ġgather ing
Ġf o
ment al
Ġsole ly
Ġdr inks
Ġcur ve
id ays
Ġautom ated
Ġtr uth
Ġche ap
Ġprom ised
Ġp pe
Ġarr ival
Ġbre aking
Ġir ish
ic ks
Ġmil est
Ġtor onto
Ġmal ays
Ġd in
Ġsign al
v as
st age
Ġstr uck
Ġsuc ceed
Ġen ables
Ġsl ide
Ġ14 0
Ġper mission
Ġactiv ists
Ġ eric
al f
Ġconcer ning
iat ric
Ġstrugg led
if ies
Ġed ition
Ġtour ists
Ġjournal ists
Ġd ream
Ġneighbor hood
h it
Ġo un
Ġj u
Ġvol unt
yl v
Ġadop t
and on
Ø§Ø ª
5 3
Ġact ively
Ġs ke
Ġhuman itarian
Ġspec ies
il ly
5 4
Ġput s
s our
Ġup side
Ġdoz en
Ġstart ups
in ct
ec ess
ĠØ ª
Ġdeep ly
Ġdatab ase
Ġsn ap
Ġstr ike
ĠÂ «
ns ylv
ing ent
Ġw aves
Ġmag n
Ġcapt ure
Ġfin ds
Ġ8 4
ib ilities
Ġton nes
Ġcon secut
Ġstruct ural
Ġtroub le
Ġaccoun ted
Ġdecl ining
Ġth inks
Ġwrit es
Ġref used
Ġrelig ious
hip s
Ġdiagnost ic
Ġcamp us
Ġmed ian
un k
Ġ8 3
Ġdeploy ed
Ġgu ess
Ġele ments
Ġpharmaceutical s
Ġpol ls
zer land
Ġsy mb
Ġo t
Ġbor n
ro l
Ġdisco vered
Ġsy dney
ah oo
Ġweak ness
Ġal arm
Ġev olution
Ġimplement ing
Ġch am
Ġrep ut
Ġint ent
Ġdram atically
Ġessential ly
Ġpen nsylv
Ġex ists
aw ay
ant ly
Ġsupp lier
al a
Ġcrow ds
Ġp ounds
Ġdr aft
Ġdram atic
Ġro ute
Ġm ck
Ġkore an
Ġ9 4
Ġag ent
Ġr iver
Ġsen ator
Ġs ac
Ġgeograp h
s ch
Ġbit coin
Ġint ention
Ã º
Ġent ities
Ġindic ate
Ġm l
Ġper m
Ġacqu ire
ict ions
is ons
Ġbar riers
Ġimag ine
an es
Ġhead s
j a
Ġconsecut ive
Ġsur pass
Ġsust ained
ing ly
ate ll
Ġfl ag
Ġ8 1
og ue
Ġbas ically
Ġwe ren
Ġmar ks
Ġcere mon
ð Ł
× ¨
Ġcr ack
Ġbro ke
Ġcann ab
ge red
b b
Ġth ailand
Ġargent ina
Ġtr ips
Ġant ivir
Ġpennsylv ania
Ġautonom ous
Ġin box
Ġn ik
Ġj im
Ġp ump
Ġshif ts
Ġspir it
Ġatt ach
Ġaggreg ate
ac le
Ġinter vention
Ġsurve ys
Ġd ies
Ġm cc
Ġg op
Ġfor um
Ġpress ures
Ġbel g
le um
Ġsout heast
f rom
Ġis lam
iff s
Ġsurvey ed
Ġeval uation
ak ed
Ġslow down
Ġsh ield
ĠØ ¹
Ġins ure
Ġintel lect
Ġmin ds
Ġf an
Ġfast est
Ġr na
Ġcompet e
Ġconclud ed
ol it
Ġcoop er
Ġb le
st ore
Ġchamp ion
Ġarrange ments
Ġdr ives
Ġib m
Ġborrow ing
Ġste ve
b acks
Ġnot ably
Ġre ductions
Ġcar rier
Ġcap it
Ġa w
Ġjur isd
ir a
Ġcris es
ols on
Ġsub mit
Ġif rs
or row
Ġwat ched
Ġa zer
Ġfore st
ht ml
Ġg ig
Ġst uck
Ġdynam ic
Ġrev ol
Ã§ Ã£o
Ġtrust ed
Ġswit zerland
Ġwebs ites
Ġt ally
oot h
Ġdoub led
Ġassemb ly
Ġsy st
Ġste ep
Ġd av
Ġpro secut
Ġfront line
Ġwh oles
Ġthe ory
Ġdefic it
ot h
Ġcur b
Ġdevast ating
Ġform al
sear ch
Ġdis pro
Ġdut y
Ġqual ified
Ġsurv ival
Ġabs ence
e i
om ed
ok ed
et h
Ġgrad ually
Ġdis miss
b ai
ian g
Ġhe s
ne um
Ġad ap
Ġa st
Ġbatter y
Ġcr ash
Ġbr ian
Ġill ustr
Ġvot ed
Ġmon key
Ġgovern ors
ct ional
ul ative
Ġcrit ics
ul s
Ġadequ ate
Ġwas h
Ġwindow s
cont in
and o
b d
p df
Ġp ak
Ġrepresent ed
Ġcont am
Ġreal ize
in ating
Ġmod est
Ġsubstant ially
Ġbeh alf
Ġpetro leum
eff ect
Ġcontr ibutions
z en
Ġship s
Ġemot ional
Ġresearch andmarkets
Ġadvis ors
Ġpoll ution
Ġint angible
Ġon set
Ġr ans
Ġrele ases
Ġ9 2
Ġrob ots
Ġh i
Ġfor g
Ġrep urch
ob ile
op er
Ġp ence
Ġf lying
Ġc ub
ri end
Ġlimit ations
ï ¼
Ġweb cast
Ġemploy er
Ġfall s
Ġinequ ality
Ġcur rencies
Ġn an
Ġwar n
Ġval ued
Ġtom orrow
Ġdisclos ed
igh ter
Ġir aq
Ġmun icip
Ġfr anch
f ir
Ġhard est
Ġsc ar
Ġbehavi our
iv a
á »
8 4
Ġro w
Ġmem ory
ens ed
Ġazer bai
Ġh ack
Ġpr int
Ġy ahoo
n d
Ġbas ket
Ġin ev
Ġval ley
Ġsa chs
Ġreview ed
Ã¡ s
is er
Ġr aces
Ġacknowled ged
Ġab andon
Ġven ues
Ġtherap ies
Ġmar ine
Ġrecr uit
Ġsu it
Ġpl as
Ġtay lor
Ġf oss
Ġp neum
Ġcon vert
Ġtele health
Ġexp los
Ġfurl ough
Ġdispro portion
Ġb oss
Ġoff shore
Ġcomp ound
Ġret ain
Ġd ar
Ġentreprene urs
Ġpr a
Ġad s
Ġsuperm ar
th is
Ġpro minent
Ġprote ins
Ġde emed
Ġen orm
Ġpil ot
Ġ7 00
Ġsign ing
5 1
Ġstep hen
Ġbar r
Ù ī
Ġsevere ly
Ġsettle ment
he rent
Ġlist ing
vent ions
Ġfl ags
r ary
9 6
Ġb bc
Ġlo yal
Ġpurch ased
5 2
u i
Ġa x
Ġ9 3
Ġindic ators
a ire
Ġdef end
Ġmaint ained
Ġacc um
Ġdef ault
ĠÙģ ÙĬ
Ġlab s
Ġjournal ism
Ġcomplic ations
Ġhit ting
ang es
w al
Ġpro ved
Ġhe ro
spec ific
Â Ń
Ġne uro
Ġbroad ly
in vest
Ġfl uct
ic an
Ġsol ve
Ġdis s
Ġcre ates
Ġlaun ches
ul ating
lett ers
Ġt um
Ġme als
iam i
Ġwe ighted
Ġshort ly
Ġilleg al
Ġrespect ive
Ġsoc iet
Ġmar c
Ġinter ventions
Ġann ually
Ġintellect ual
Ġequ ities
op l
is ure
Ġn bs
Ġh an
Ġcons pir
Ġp air
id o
Ġbat t
Ġhol idays
Ġdis par
Ġc um
Ġt ip
Ġdel hi
Ġl inks
y st
os en
Ġsit uations
Ġresist ance
Ġbr ut
Ġbub ble
Ġex amples
Ġt ied
f i
or a
Ġdeploy ment
Ġhard ware
Ġplace bo
Ġaddress ed
be at
Ġlow s
Ġqu iet
Ġdipl om
Ġep ic
el and
Ġcannab is
Ġin put
Ġhou ston
× ľ
Ġelectron ics
Ġd ates
Ġcontin ent
Ġdisc re
Ġbegin s
Ġact ors
ir ds
Ġy e
Ġmarket place
Ġco ach
u its
Ġam ended
l ie
Ġsome what
Ġdifficult ies
7 3
Ġdisrup t
Ġacceler ating
cl in
ind ing
Ġdet ention
Ġstud ied
Ġinter action
d ep
b ar
Ġd ining
Ġform at
Ġok ay
Ġcomp ly
inte rest
z o
Ġconfirm ation
c ase
Ġprop er
Ġmus lim
Ġ 000
Ġserv es
Ġhon est
id ency
Ġisrael i
Ġt ik
Ġcomplic ated
Ġres urg
Ġdiagn osed
des ivir
c d
Ġrans om
Ġvend or
Ġfis her
hen tic
Ġmo sc
mar ch
ly n
Ġsh o
Ġhur ric
it t
Ġg h
Ġf urn
Ġste ven
Ġst ations
Ġgre g
Ġ202 4
Ġpe er
Ġtal ked
Ġspecial ist
Ġ9 1
Ġdepart ments
Ġpro hib
Ġsub mitted
ist ing
6 00
w is
ĠÐ º
ap h
Ġhelp ful
Ġtele phone
m ates
Ġrespond ing
ĠØ§ÙĦ Ùħ
Ġoh io
Ġfil ms
Ġbreak through
Ġnews letters
Ġmus cle
Ġs ir
Ġwor s
Ġcert ific
Ġblock chain
Ġcare fully
Ġo w
Ġb are
Ġsur ging
Ġent it
Ġs ounds
Ġenviron ments
Ġshe ll
Ġshif ting
Ġbus y
Ġref erred
p ost
Ġ13 0
or al
Ġsuff er
o qu
Ġp u
u ant
Ġind irect
Ġm oun
p an
Ġa qu
Ġmac ron
Ġpul led
Ġl ie
Ġse l
v ard
Ġlif est
Ġref und
Ġhope fully
Ġan onym
Ġref erring
v als
Ġm iami
Ġpers ons
Ġprofit able
Ġmosc ow
Ġrem desivir
Ġdisc ip
Ġfund ed
Ġinnov ations
Ġag es
Ġent r
Ġcor ner
Ġfoss il
Ġcoun ties
Ġchar ity
Ġt ank
Ġdefin ition
Ġint end
Ġcapit ol
Ġtrig ger
Ġtyp ical
Ġm t
Ġscr ut
Ġbreat h
Ġs atell
Ġpic ks
Ġpr ince
Ġt ables
Ġex it
st one
ll ers
Ġass ume
Ġde fe
bour ne
Ġtemper atures
Ġpol and
Ġp pp
Ġat m
Ġv ig
Ø§ ÙĨ
Ġshould n
Ġc v
Ġg at
ak a
Ġship ments
Ġc rop
Ġp ause
Ġcolumb ia
Ġg ulf
Ġt ier
Ġgo d
Ġsa ving
Ġball ots
re search
Ġinvent ories
w ar
Ġaut hentic
Ġnbs p
Ġslow ing
Ġdivid ed
Ġp ill
Ġh at
g ets
Ġr on
Ġstan ley
Ġware house
Ġthreat ened
Ġdiscr imination
Ġin quir
comm un
Ġlike lihood
Ġincorpor ated
ap ol
Ġun p
Ġappo inted
back ed
Ġpan ic
Ġbro ker
il a
Ġdi am
Ġfavor able
Ġbl ame
Ġad j
on ic
Ġinter actions
Ġvis ual
Ġexcept ion
ac ies
Ġsemiconduct or
Ġingred ients
m y
Ġj pm
Ġpropos als
p ret
Ġjournal ist
f s
Ġtourn ament
m ond
Ġelect r
Ġalleg ations
Ġcook ies
at i
Ġno body
Ġpurs uant
Ġp cr
Ġrecomm ends
Ġe ased
Ġalloc ation
Ġpub lis
oph arm
c ol
is ms
Ġst ag
Ġle ases
Ġthem e
Ġsim pl
et ime
Ġhous es
Ġboost ed
ost er
Ġt act
ur u
Ġk h
Ġacad emy
Ġd re
Ġt rop
Ġdem ograp
Ġt ips
Ġsn ow
Ġmult im
Ġstress ed
Ġy uan
Ġbro ken
Ġmess aging
Ġfacilit ate
o le
Ġle isure
ir t
Ġar ts
em pts
Ġpreca utions
Ġantivir al
Ġar med
Ġannoun cing
Ġafghan istan
Ġst yle
Ġposition ed
Ġnig eria
b p
Ġem ir
Ġdr awn
Ġalloc ated
ak h
Ġsur g
Ġadvis or
Ġdeter ior
Ġop posed
Ġclin ic
Ġeg ypt
Ġatl anta
Ġr he
Ġover come
Ġmanufacture r
Ġlim iting
Ġwip es
Ġj ack
Ġdeep er
ast ers
un ction
Ġfall out
serv ice
Ġinstr ument
Ġappoint ment
Ġpress ing
Ġdisc oun
Ġcharacter istics
ment ed
Ġsal ary
Ġevery where
Ġrenew ed
Ġtheat ers
Ġt ies
Ġbrazil ian
Ġs ab
Ġpay able
Ġissu ance
ha ust
ll or
Ġfat igue
Ġse m
Ġmet als
Ġpolicy makers
Ġadjust ment
Ġsudden ly
Ġd ying
, âĢĻ
Ġs ant
Ġcr imes
Ġviol ent
Ġke vin
Ġje w
Ġarr ive
Ġs oph
ath y
ast rop
Ġint ense
Ġc ow
Ġsim on
Ġcho ices
im a
Ġexp ire
Ġtre ating
Ġsh ale
ep ing
ent er
Ø ¬
f und
Ġspons ors
Ġsee ks
Ġcop e
Ġte aching
ad el
Ġpres erve
Ġl ake
Ġpar am
Ġfail ing
il ateral
7 1
Ġn ick
Ġes p
Ġhes it
gu ard
Ġc ares
ol ine
Ġnear by
ren d
Ġdang er
Ġun ch
Ġup per
Ġfoot print
Ġsp in
Ġpost p
Ġinstruct ions
Ġchat b
Ġbro ok
Ġreb u
Ġn bc
Ġaccur acy
Ġtic ket
Ġvis iting
Ġsol ic
i h
h ous
Ġc inem
Ġstud io
Ġlib ert
Ġmigr ation
Ġincl usive
Ġex haust
Ġchar les
ator ies
ot ic
f ocus
Ġfa ith
we ight
Ġb ound
f oot
s umm
Ġan c
Ġt ub
Ġterr itor
Ġhon or
Ġshif ted
Ġdepos it
Ġre tr
olog ists
Ġlaunch ing
Ġn gi
r or
Ġpo ore
Ġh s
Ġpregn ant
iz z
ades h
t op
Ġfor cing
Ġvill age
Ġn fl
Ġperform ing
lor oqu
Ġoutperform ed
Ġint ends
Ġt er
Ġtas ks
Ġatt empts
Ġvis ibility
s ized
6 3
Ġfit ness
vere ign
Ġt y
Ġincred ibly
Ķ ×
Ġe cho
Ġsusp ected
Ġpoin ting
or der
Ġbe verage
Ġpled ged
cept ion
7 00
Ġdemonstr ate
r ich
Ġarch ive
Ġh ate
Ġre verse
Ġal erts
am in
Ġc s
Ġcongress ional
Ġmalays ia
Ġont ario
Ġch ances
Ġexcell ent
Ġphilipp ines
ro oms
Ġunus ual
Ġp hen
Ġident ifying
Ġteac her
Ã¡ n
Ġle aves
un der
Ġun n
Ġrem ark
Ġreg ime
Ġli ver
et er
Ġdistr icts
loroqu ine
ĠÐ ´
Ġindic ates
Ġdut ch
Ġelev ated
Ġse ed
Ġcollect ions
Ġemploy ed
Ġisol ated
Ġprotoc ol
Ġcont ents
um er
Ġseason al
Ġjose ph
c op
Ġmod e
Ġdiagnost ics
Ġprogram mes
et te
Ġdef ence
Ġrefuge es
Ġinj ury
Ġwe lf
Ġkind s
Ġhop ed
Ġk at
t est
Ġl ived
Ġsubst it
Ġdepend ent
Ġmel bourne
Ġsyst emic
Ġfocus es
Ġcons ent
ant e
p al
Ġvolat ile
Ġtik tok
Ġme re
Ġunder way
Ġdest roy
Ġbook ings
Ġwholes ale
Ġ199 0
Ġfu els
Ġdes ire
Ġarchitect ure
Ġcat astrop
Ġd im
Ġparticip ating
Ġvis a
Ġwelf are
Ġhand ful
Ġa h
âĢ ĭ
Ø ·
Ġch ile
Ġplas ma
7 2
Ġt ons
Ġh u
igen ous
p g
Ġwal king
Ġpro long
Ġcontainer id
ph ones
Ġso vereign
Ġtrave ling
Ġconspir acy
Ġknow ing
Ġh its
Ġclot hing
Ġfeat ured
Ġatt ended
Ġoffic ially
Ġcorpor ations
k in
Ġchance llor
Ġev ac
Ġinter medi
Ġhom eless
h us
Ġres ign
Ġtre m
Ġnutr ition
Ġco s
Ġrep lic
Ġexper iment
Ġt ed
n ology
Ġe ating
Ġtrig gered
Ġlawy er
Ġm erc
Ġpurs ue
man n
ig er
Ġfield s
Ġcour ses
7 4
Ġsub ur
Ġobject ive
Ġmigr ant
Ġinter act
Ġi ot
Ġk ent
et ts
Ġtop ic
Ġroll ed
6 1
Ġadm issions
Ġdisrup ted
ins on
Ġimp ose
h our
res hold
ile ad
d am
Ġn ative
elect ion
Ġportfol ios
Ġslow ed
Ġp ure
d ose
Ġfun ctions
r ian
is ive
â Ħ
ion es
Ġl iv
Ġmorris on
Ġconsist ently
ens ions
Ġview ed
ä ¸
Ġft se
Ġstep ped
Ġexc iting
Ġenorm ous
Ġtra ject
Ġwin ners
p age
Ġrestric t
Ġth reshold
ÙĬ ÙĨ
Ġdes k
Ġstruct ures
Ġpick ed
be an
Ġarg ue
ach us
Ġst one
Ġm n
Ġm ale
Ġen for
Ġsurger y
Ġh az
ter ing
Ġlat ter
achus etts
Ġincent ives
Ġpostp one
Ġprop erly
Ġtrad es
Ġd na
az a
id ad
Ġben gal
a ug
Ġd ans
Ð ¼
Ġphys ician
ud a
Ġcam era
Ġheadqu arters
Ġrec k
Ġmob il
if ul
l on
20 24
Ġque en
cn n
Ġtast e
d i
Ġdiversity inc
Ġcontribut ing
Ġabort ion
Ġw ins
Ġro t
Ġad am
Ġspe aker
ic ious
Ġr ivals
Ġth or
Ġgr app
Ġun ions
Ġg aps
Ġprec ise
Ġ11 0
Ġincent ive
Ġgree ce
Ġmus k
Ġart ists
Ġconnect ivity
Ġmove ments
% ).
Ġsurg ical
Ġexcept ional
Ġtr ace
Ġdeb ut
Ġshe d
Ġsurv iv
Ġbre ach
Ġun lock
Ġl ies
Ġod ds
Ġv on
Ġnom ine
Ġis lands
6 2
Ġborrow ers
Ġepis ode
Ġconnect ions
Ġmass achusetts
Ġacc r
Ġre jected
Ġs id
Ġhar vard
Ġsynd icate
st ock
Ġrel ation
Ġsand ers
osp ace
Ġin herent
Ġatt ending
Ġg av
Ġenab led
Ġtherapeut ic
Ġcol omb
Ġmethod ology
Ġh amp
Ġgrap hic
r am
Ġh unt
ene z
Ġves sels
Ġind igenous
8 1
ans as
Ġst ars
Ġresurg ence
Ġdis abilities
go vern
Ġdec ent
Ġm es
Ġroad s
Ġarr iving
Ġlock ed
Ġconstr uct
Ġn ord
l if
Ġfavor ite
Ġb ip
Ġtw enty
Ġrs quo
Ġf ib
8 2
Ġj ord
focus ed
Ġcond ensed
Ġdirect ed
Ġdig it
Ġrecommend ation
Ġk ir
Ġprep aration
Ġrecover ing
b ul
Ġturn s
ah am
Ġc c
ok ing
z one
Ġam pl
gr y
Ġwh it
c ash
on ing
m t
Ġimportant ly
Ġmechan ism
Ġgu y
Ġcat aly
ur ally
Ġlinked in
Ġt ab
Ġim f
Ġback log
Ġsaf er
Ġ ess
Ġr ay
business wire
Ġacc om
Ġintrodu ce
Ġkel ly
yl um
il ton
Ġg p
Ġso ared
Ġob st
re ction
Ġtr ucks
Ġpat tern
Ġgu ys
Ġfeed back
Ġempow ering
Ġhere in
Ġlaws uit
Ġo tt
um a
âĦ ¢
Ġoverwhel ming
Ġpak istan
don ald
Ġn u
Ġg olf
of i
Ġunderst ood
Ġpie ces
Ġp ent
Ġexec ution
Ġut ility
Ġinter pret
Ġcorrespond ing
Ġh r
Ġcont em
ec d
Ġle v
Ġdest r
Ġscen e
Ġsouth west
8 3
................................ ................................
Ġw et
Ġabs ent
Ġlif ting
Ġachie ving
Ġquant itative
Ġr ush
Ġevalu ating
f riend
Ġprop ri
Ġreput ation
Ġamaz ing
Ġh ung
Ġra ises
p et
Ġaltern atives
âĢ ¢
Ġaccording ly
Ġsus pect
Ġceremon y
Ġaccom pl
Ġmom ents
Ġsy ria
Ġver tical
Ġlifest yle
Ġam bit
acks on
Ġreform s
Ġpre ced
Ġw ine
Ġw s
Ġazerbai jan
Ġgas oline
Ġcontinu ously
Ġrece pt
Ġconstant ly
Ġto ler
Ġtr ick
Ġcap able
Ġimp lied
Ġre actions
Ġ199 5
Ġshutdown s
Ġwarr ant
Ġenc oun
Ġspect rum
20 200
Ġu ae
g ar
Ġgr ab
Ġfrequ ent
Ġdis pl
Ġlet ters
Ġb h
Ġincred ible
ask a
ing u
Ġinvol ves
Ġstat istical
Ġsurpr ised
Ġb acter
Ġmat the
Ġaccess ibility
Ġ200 7
Ġscient ist
Ã ł
Ġinsp ired
Ġspokes woman
Ġbul l
Ġout lets
Ġjon athan
oc ur
Ġg iants
los i
cons in
Ġext ending
worth y
Ġh ire
Ġwar nings
Ġread s
Ġsmart phone
Ġsc ores
Ġcommunic ate
Ġp ad
Ġhor izon
Ġexclud ed
c les
Ġhost ed
Ġpick ing
o h
p y
Ġf er
Ġfinanc es
Ġcontinu ous
abet h
anc ies
d og
are l
Ġnas a
pres ident
Ġvis ited
Ġpass ing
Ġw ard
Ġpres idency
Ġmount ain
Ġport s
ŀ ×
Ġv it
t ax
Ġg ilead
Ġfab ric
Ġtrem end
Ġransom ware
Ġpneum onia
Ġj am
Ġ0 9
Ġvolunt ary
Ġdiam ond
Ġh ay
Ġel iz
Ġpreval ence
Ġadvis ers
Ġplan es
Ġic u
m ail
od es
Ġdistr ibute
b ut
st ep
Ġec b
d el
Ġimpact ing
Ġwe aker
Ġambit ious
Ġemail s
et ed
Ġ Ñ
Ġadv ances
f c
Ġcrypt ocur
Ġmultim edia
Ġbarb ara
h um
ut ing
Ġcoun ts
em ption
Ġmill er
Ġris es
ag en
Ġsc an
link er
Ġanaly ze
Ġemir ates
Ã ª
Ġj en
ak i
Ġsusp ension
ar ity
Ġcour ts
em ia
Ġtrans f
Ġp and
ot yp
Ġor al
Ġcont aining
Ġbe er
Ġtr ib
Ġprompt ing
Ġ18 0
Ġresearc her
Ġy el
it o
Ġg aining
Ġsum mar
an th
Ġselect ion
pa id
j i
Ġtr ained
Ġper mitted
Ġpal est
Ġcelebr ate
Ġp ound
Ġjo y
Ġpromot ing
at ar
Ġameric as
Ġf ake
Ġpe losi
Ġcritic ized
Ġg ates
Ġclim b
Ġwis consin
Ġut ilities
op ol
ar r
Ġli kes
clin ical
Ġas ylum
Ġcons ists
Ġmis leading
Ġtro ops
f ire
do i
al le
Ġpat ent
Ġslow er
Ġcur bs
Ġcare ful
Ġar ms
Ġattr ibuted
9 1
Ġcontract ion
Ġs her
Ġjpm organ
Ġnot able
Ġbut ton
Ġseat tle
Ġgard en
b ro
olson aro
Ġinfect ing
Ð¾Ð »
he im
ag on
Ġtrave llers
Ġchrist ian
erm an
Ġcompet ing
Ġp ione
Ġport ug
Ġregul ator
Ġindo ors
Ġbas eline
Ġprotect ions
Ġcomment aries
Ġur ging
Ã© r
Ġrepl aced
in ting
Ġ ug
Ġc art
re ll
Ġinter active
ov ic
Ġf illed
Ġact or
Ġch osen
v o
ce ived
Ġapart ment
Ġnon profit
Ġle an
l arg
Ġdef ine
Ġcommod ities
Ġmole cular
Ġr anging
Ġlawy ers
Ġbr us
hest er
Ġnor way
Ġclar ity
Ġj ackson
gb t
Ġpat rick
Ġwell ness
Ġn g
Ġm p
Ġant igen
Ġsyn the
Ġreceiv ables
Ġpo ised
ĠÙħ ÙĨ
Ñ İ
Ġle wis
Ġplun ged
Ġph d
Ġwrit er
Ġd rew
Ġann ivers
Ġaer ospace
Ġt ear
Ġcalcul ations
u ated
Ġw ang
Ġph ones
Ġtar iffs
Ġstret ch
Ġgat hered
Ġnews wire
Ġv oc
am er
Ġbud gets
Ġcap ability
Ġval uations
Ġadvert ise
m ay
Ġsc and
Ġpersonal ized
other ap
Ġb anc
Ġtraject ory
Ġatl antic
it i
it ure
Ġmut ual
Ġstay ed
Ġal b
Ġkil omet
b iontech
b es
Ġt iss
c ard
Ġcontrovers ial
Ġ202 6
Ġro che
Ġsocial ly
Ġb olsonaro
Ġten ants
Ġcontribut or
Ġdest ination
Ġent ity
Ġweb in
Ġveter an
c ut
Ġd c
Ġbe ver
l u
Ðµ ÑĢ
Ġstock p
Ġrec all
k ish
Ġste ad
Ġimp ressive
Ġgot ten
s he
Ġtrans miss
Ġcrow ded
Ġkeep s
l an
Ġcha os
Ġse am
Ġconvention al
ã ĥ
Ġbel ong
ĠÐ¿ ÑĢ
j e
Ġwhere as
Ġd ire
Ġcor n
Ã© e
Ġoutdo ors
Ġmo ody
Ġbet ting
Ġb ath
Ġtele com
Ġpublish ing
Ġm anc
Ġventil ation
Ġlabor atories
Ġcamp s
Ġdiscre tion
Ġwell being
Ġexpendit ure
Ġabb ott
Ġproceed ings
Ġetf s
Ġrepl ay
Ġhospital ization
Ġhead ed
Ġcl uster
Ġn ba
th irds
Ġball ot
Ġcontag ious
Ġc ure
Ġaccess ing
n ot
Ġclin ics
ge l
Ġtechn iques
l ord
Ġterm inal
Ġpromot ions
Ġfulf ill
wind s
Ġkn ock
re en
summ ary
ve y
Ġfor med
Ġl am
Ġex empt
Ġro utes
Ġres erv
Ġsign als
Ġmat ches
ent ure
Ġpre market
Ġ12 5
Ġhal ted
Ġgood will
Ġper mit
americ an
Ġch ips
Ġmer ck
ov a
dig it
is se
commun ic
Ġ'' ),
Ġsupplement al
Ġs d
Ġwar ns
Ġannivers ary
g rowing
Ġm ps
Ġpandemic s
co st
Ġact s
Ġshap ing
Ġcam er
Ġf ant
Ġhurric ane
Ġaim ing
Ġmex ican
Ġreve als
Ġdisclaim er
ab led
Ġsens ors
ne red
Ġs ister
Ġp ending
Ġv enez
Ġr Ã©
Ġguid ed
Ġsan ofi
Ġide al
Ġdeal ers
Ġjord an
Ġfranch ise
Ġoverwhel med
Ġ9 00
Ġsa ved
Ã µ
Ġj ab
oc ol
Ġche n
Ġquarant ined
Ġdesper ately
f our
Ġr h
Ġkit chen
Ġinc urred
Ġf ool
Ġb aker
av or
Ġactiv ist
it r
Ġinvestig ations
Ġeliz abeth
ed ited
Ġcomp are
Ġatm osp
Ġto ug
om in
Ġamb ass
Ġh ug
Ġfor get
Ġcham ber
Ġbook ing
Ġpredict ions
Ġindic ation
Ġmin ute
Ġprogress ive
Ġtit led
e b
Ġengine ers
Ġpropri etary
Ġd ress
Ġventil ator
Ġbe ating
Ġconstr aints
Ġphil ip
Ġinflamm ation
Ġg ut
ic ide
Ġdon ations
Ġpopular ity
Ġspar ked
s up
ol ly
vide o
Ġcap s
Ġmedic are
Ġexperim ental
Ġmilest one
Ġeng aging
Ġoper ated
Ġro s
Ġnur se
er ate
Ġfact set
Ġcar ib
ro id
Ġequ ally
ow ed
Ġdes erve
Ġrel uct
Ġr ing
Ġtranspa rent
et her
Ġweap ons
Ġ[ ...
Ġreg en
Ġcred its
Ġa ven
Ġembr ace
Ġbelg ium
Ġj osh
Ġk am
Ġsm ell
Ġfun ctional
Ġunder wr
less ly
Ġcas ual
Ġempow er
Ġanalyz ed
gro up
l ate
in f
Ġrecogn ised
in ter
Ġelimin ate
Ġindic ator
Ġn sw
Ġindex es
Ġleg it
apol is
Ġc af
t able
9 3
l ad
Ġad oles
Ġexpl oring
Ãµ es
Ġsche mes
Ġbro ws
ÙĦ Ùī
Ġinc idents
Ġass urance
Ġop ens
Ġintellig ent
Ġapp lying
Ġsen ators
Ġlay offs
Ġinvestig ate
Ġappro ve
Ġch ase
Ġsport ing
Ġo re
Ġc ath
Ġp p
Ġevery day
Ġvenez uel
9 4
Ġmult ip
Ġdispos al
Ġ10 1
w art
Ġmet ric
Ġpriv ile
Ġbi as
a is
Ġdescrib e
ot on
Ġnegative ly
f ast
Ġrep orter
Ġassess ed
Ġd as
Ġmck in
Ġcontinu ity
Ġal ber
Ġguarant ees
Ġc ul
Ī Ĵ
Ġdraw ing
Ġconvers ion
Ġp y
Ġlever aging
ir ation
Ġfat alities
ph y
Ġaward ed
d rop
Ġthough ts
Ġl gbt
Ġclaim ing
t es
Ð ¿
Ġmarket watch
Ġm g
Ġaccur ately
Ġun rest
Ã© n
Ġdr ink
Ġp ays
Ġcolor ado
Ġcontract ing
Ġupt ick
conn ell
Ġchemical s
v is
d ef
Ġsug ar
Ġtot ally
Ġg ate
Ġcancell ation
Ġentit led
Ġent hus
Ġfam ous
Ġmur der
Ġdemand ing
ar on
Ġg er
Ġke en
Ġadvoc ates
Ġ ÙĬ
Ġgeograp hy
Ġunch anged
Ġphen om
Ġcal c
Ġto y
Ġc t
Ġqu ot
Ġboost ing
Ġscrut iny
ks hire
Ġappro vals
Ġcor ruption
Ġ16 0
Ġcaution ed
Ġexpl an
ha ul
ib r
Ġtotal ed
Ġw o
Ġr um
Ġhol ly
Ġmit igation
t own
Ġrebu ild
Ġj r
we i
Ġagricult ural
op her
Ġmill enn
Ġhar vest
Ġwar ming
Ġvari able
pl aces
Ġdis ch
Ġautom atically
b ec
Ġcomm and
Ġprof iles
Ġbul k
ib aba
Ġbus h
Ġdist ingu
Ġsal aries
el a
b ear
Ġber lin
Ġass igned
Ġvulner ability
Ġtr acks
Ġconclus ion
Ġhead lines
Ġunemploy ed
fir st
ik a
Ġoun ce
Ġwar m
the less
Ġhyp er
Ġmanc hester
Ġdomin ant
ust in
Ġ3 50
Ġsubscrib ers
Ġbn t
ic on
Ġs lo
Ġcum ulative
Ġgold en
dep th
Ġboun ce
Ġtim eline
Ġre feren
Ġpalest in
Ġes cape
r d
int on
Ġf ires
Ġcar n
ou g
Ġtown s
Ġreve al
Ġsoon er
Ġvo ices
s ite
Ġdipl omatic
Ġpos ed
Ġear ning
Ġt am
Ġre ject
c ia
g ment
Ġque ens
Ġd ive
Ġt umb
Ġinsure rs
af ter
Ġdest inations
Ġsett led
c ore
Ġden mark
Ġche aper
Ġl ind
Ġun av
Ġresol ve
Ġbelief s
d ata
Ġsymb ol
Ġcontain ment
Ġfinancial ly
Ġcoll aps
Ġbr anch
Ġcov ax
Ġapp et
is c
Ġs ight
Ġdis contin
Ġland lord
Ġcro wn
Ġemerg ence
Ġco gn
Ġdevelop er
Ġsim ult
w ashing
Ġre ward
Ġb ans
larg est
i king
Ġ4 88
Ġle ban
Ġexhib it
Ġunve iled
Ġstrengthe ning
Ġcarib bean
Ġpro x
Ġan s
Ġop pon
Ġenjo ying
z h
Ġground s
Ġtremend ous
t im
Ġdifferent ly
Ġrul ed
u ce
Ġnever theless
Ġtrack er
Ġbi ological
ar ound
Ð° Ð»
Ġpartic les
Ġdesign ated
ig ating
Ġpass ion
Ġtele gram
Ġi phone
Ġthere in
Ġsepar ation
Ġsepar ately
Ġfl ip
Ġon c
Ġsimult ane
Ġac id
Ð¸ ÑĤ
o il
Ġg ift
Ġref r
it ud
ate ful
Ġ} ,
Ġexpect ation
Ġn v
Ġre iter
Ġpr ize
ail ing
i ant
Ġprogram ming
we g
Ġamoun ted
Ġdrop ping
Ġgreen house
Ġcommun ist
Ġbo b
Ġapp arel
Ġprolong ed
Ġloc ally
Ġand re
Ġcomp iled
Ġmc connell
Ð° ÑĤ
Ġfort une
Ġwire less
Ġmar sh
ĠØ ¥
Ġsa p
Ġcompl aints
ul ations
Ġgener ations
po ints
Ġl yn
Ġlouis iana
Ġfol ks
Ġto d
Ġassess ing
Ġher self
Ġinc idence
Ġcollect ively
Ġconduct ing
ill a
Ġbeaut iful
Ġeb ola
he ld
Ġr io
Ġhydro xy
Ġm Ã¡s
Ġwar ren
Ð½ Ñĭ
li est
Ġmet a
Ġhab its
Ġintegr ate
e a
Ġconc ert
ino is
Ġp c
ne ys
Ġbengal uru
Ġstaff ing
Ġaccept ance
Ġ200 3
Ġhope ful
Ġwat ers
Ġbi opharm
amb ling
Ġheight ened
aut hor
ĠÐ ¼
eu rope
Ġcr unch
oll ar
re qu
um in
Ġ200 6
Ġpol ling
Ġrem un
gen eration
Ã© d
it iv
Ġconsolid ation
Ġal ibaba
Ġperson ally
Ġsl ipped
Ġerr or
perform ing
t z
Ġalex ander
Ġr t
Ġdis ag
Ġbroad band
Ġs ed
Ġsar ah
Ġwild life
Ġthe ater
Ġmembers hip
Ġth row
Ġcontam inated
Ġspecial ty
Ġshoot ing
. '
Ġk l
Ġws j
Ġmatthe w
Ġphys ically
Ġreplace ment
Ġc bs
as io
ish ment
gen eral
controll ed
old s
g ering
Ġwal ked
Ġequ ality
Ġre th
Ġconsider able
Ġtr iple
Ġt iny
Ġappoint ments
Ġf ired
Ġhydro gen
Ġrobot ics
Ġfund ra
w all
ast ics
Ġpart ial
Ġadverse ly
Ġevol ve
Ġmic hel
Ġchampions hip
Ġcons c
Ġarg ument
Ġl ar
Ġnews om
Ġcom o
ch loroquine
Ø µ
Ġb uck
Ġdep th
Ġem bed
Ġmov ies
Ġtrans it
Ġm sc
ig hed
Ġv est
Ġperman ently
Ġterritor ies
Ġ ubs
m ont
Ġp up
Ġconsult ant
in n
Ġup s
Ġ× ĳ
Ġh ua
Ø§Ø ±
Ġsolid arity
Ġassum ing
Ġcollabor ative
i el
ic ine
Ġpr ud
anc he
Ġsw im
re te
ation ally
Ġso aring
Ġblo c
Ġcol umn
Ġbang l
ienc ies
Ġabs or
Ġul tra
Ġgrad uate
Ġdist ress
Ġminim ize
ĠĠĠĠ Ġ
Ġcond em
Ġassess ments
f old
Ġj ason
Ġefficient ly
Ġlegisl ative
otherap y
Ġattend ance
aw are
Ġbl ind
Ġher d
h igh
Ġt ender
Ġd un
Ġp itch
Ġ10 5
Ġ× Ķ×
k m
Ġamend ment
l ancet
Ġsuper ior
Ġto x
Ġsusp end
Ġpl umm
Ġexec ute
Ġp ages
en z
Ġts x
as hes
Ġch ick
ra id
Ø ´
sh ot
Ġgener ating
Ġsell ers
Ġ ÑĢ
Ġfluct uations
âĢĻ ,
Ġinter ior
Ġdist inct
Ġclass ic
Ġcheck ing
Ñ Ĩ
ic ted
Ġdro ve
Ġt ree
Ġsm ooth
9 2
Ðµ ÑĤ
Ġgr ateful
Ġhar ass
Ġfore see
Ġnom ination
Ġk ne
Ġcontract ors
Ġsatisf action
Ġfun eral
m obile
Ġins isted
Ġstud ying
bn b
Ġin n
in er
Ġsubsequ ently
Ġb read
Ġcal m
Ġm i
Ġtrack ed
l ab
Ġass ault
Ġbever ages
Ġglo ves
ell a
Ġcolle ges
m od
Ġstr ains
Ġpict ures
Ġqu art
Ġhost s
av ax
Ġhaw ai
op in
ack ed
Ġbi os
Ġblock ed
Ġmechan isms
Ġg on
Ġbip art
Ġprom ises
Ġde leg
Ġtradition ally
med ia
Ġy ang
Ġyel low
j et
Ġtic kets
Ġterm in
Ġenjoy ed
Ġa y
Ġwitness ed
Ġaccomp any
Ġcur fe
Ġthor ough
Ġbr ad
Ġillness es
c hers
Ġcoun ting
Ġdet ained
Ġsp ots
Ġorganiz ers
et he
Ġclass ified
Ġinst alled
Ġbenef icial
Ġapparent ly
Ġhydroxy chloroquine
Ġorgan ized
Ġwar s
Ġp ac
bor ne
com ed
Ġcontro lling
Ġcitiz en
Ġvot er
Ġs izes
ude au
Ġwealth y
Ġult imate
adel ph
Ġinv asion
Ġwed ding
Ġovers ight
Ġrep air
Ġbal ances
Ġfed eration
Ġve gas
Ġfeat uring
Ġin ability
Ġcur tail
16 2
Ġcard i
Ġspe aks
Ġoppos ite
Ġaggress ively
Ġacc ident
weg ian
cur rent
a a
an aly
Ġh id
Ġar bit
Ġconven ience
dem and
Ġr ug
re tt
Ġproduct ive
l arge
Ġhuman ity
bre aking
Ġappet ite
adelph ia
Ġc ater
Ġcoup led
Ġgerm s
Ġto il
Ġl ith
Ġmet rop
Ġliter ally
Ġo wing
Ġaf raid
Ġb omb
ro log
Ġlast ing
Ġb ump
Ġcamer as
Ġconf usion
Ġre lying
Ġart ist
Ġcert ified
ev a
Ġdepart ure
sw ire
Ġregister ing
Ġpros per
Ġ ie
cont ent
Ġin oc
Ġrecord ing
Ġcrypt o
as c
or ous
Ġp aus
Ġd all
Ġn est
Ġexpress ion
bur se
Ġst ance
Ġpr iced
Ġdiv est
ed ing
val ue
Ġfrequ ency
Ġc ad
Ġrest ore
in duced
Ġve get
Ð¾Ð ´
Ġoccup ancy
er ved
on ly
att an
Ġtr im
Ġten nis
Ġover l
Ġshe ets
Ġmo s
Ġbr on
Ġbenef ited
Ġaustr ia
Ġm ol
lo se
f it
Ġcro re
Ġsubsid ies
Ġexacerb ated
Ġgrap h
ĠÂ ¥
Ġflags hip
Ġmemor ial
Ġrel ies
Ġt ent
Ġj in
Ġmot ors
Ġn ich
Ġdre ams
Ġab c
Ġsun ak
ĠÐ ±
Ġmckin sey
Ġnar rative
Ð¾ ÑĢ
Ġsh adow
Ġremun eration
Ġmid st
Ġ200 5
Ġprin ting
Ġa ce
Ġch ose
Ġfar ms
Ġborrow ings
b orn
Ġel ite
Ġrall ied
Ġstr ip
Ġexceed ed
Ġcon j
Ġsac r
Ġag ile
ult ure
Ġcol on
Ġs ams
f ound
d quo
ip t
Ġcomp uters
Ġannounce ments
Ġwel comed
Ġadv ancing
an mar
Ġl ights
Ġpo se
Ġback ing
Ġresum ed
Ġan ne
Ġap olog
de velop
Ġinvestig ating
Ġgr id
Ġqual ify
Ġcon ce
Ġrespons ibilities
Ġcolomb ia
Ġl un
Ġsurviv ors
Ġst ark
Ġdis orders
Ġdub ai
Ġje an
ad as
Ġchrist opher
s ize
sec urity
Ġra j
Ġro ber
if er
Ġmy anmar
Ġavoid ing
m ine
Ġs ne
Ġill inois
ot o
Ġla u
Ġlicens ed
Ġn ad
Ġtr udeau
Ġcor rel
Ġfro zen
Ġindic ating
Ġminim al
ment e
Ġphil adelphia
Ġdel iber
Ġb arg
Ġ17 0
Ġc ensus
× Ķ
str uct
Ġcataly st
Ġbar ron
Ġviol ations
Ġsqu ad
Ġrecip ients
Ġbr id
Ġsympt om
Ġk er
Ġdisproportion ately
oug hed
Ġair ways
10 1
Ġconc rete
Ġs od
hous es
Ġadvant ages
Ġtrans cript
9 00
Ġan ger
Ġinquir y
Ġthreat ening
Ġgy m
Ġcar ing
Ġrebound ed
Ġlib rary
Ġanticip ates
Ġad mission
Ġd ict
Ġ19 80
Ġrefuge e
Ġske pt
Ġair bnb
Ġpersist ent
nes ota
Ġbase ball
in st
Ġun w
Ġpen etr
Ġsatell ite
Ġexam ine
Ġmem o
Ġaffect s
Ġdisapp ear
Ġliv est
Ġdis ability
Ġmoun ting
p ool
Ġse asons
Ġman h
Ġne v
Ġderiv atives
Ġg ab
Ġdog s
ll er
Ġcomment ed
Ð¾Ð ¼
Ġbipart isan
Ġappear ance
Ġup grade
Ġvi able
oms on
Ġconstit ute
Ġf red
Ġmer kel
ed y
Ġrepe at
Ġnor wegian
Ġsympt omatic
Ġm ul
Ġdie go
Ġview ers
Ġf argo
Ġ ÑĤ
Ġdes cription
Ġrel atives
Ġl ad
Ġaccum ulated
Ġconsid ers
Ġmur phy
Ġphenom en
Ġhost ing
Ġb ags
i op
Ġper u
Ġurg ency
h op
Ġdesign er
Ġl on
ens ity
Ġsix th
Ġsl am
Ġm apping
Ġgr ave
Ġcover ings
p c
pow ered
Ġde uts
Ġeth ical
le te
Ġcoronavirus es
friend ly
Ġl uck
Ġambass ador
Ġpick up
Ġas c
ang er
u ous
Ġinev itable
Ġvis ible
imin als
Ġswe eping
al i
ar c
Ġvari ations
Ġb uc
Ġdecl aration
Ġmin nesota
Ġagree ing
Ġrat ios
Ġt angible
s ed
Ġfar ming
Ġrem inder
Ġun al
og ether
Ġl ucky
Ġround s
Ġmil k
Ġsus cept
d ec
Ġdis order
Ġclo ck
Ġsecond s
Ġintermedi ate
Ġimmigr ants
Ġse mi
Ġbre aks
ap ed
Ġsw ing
Ġto uc
Ġbiotech nology
Ġcoun sel
Ġcomple ment
ult y
Ġpsych ological
iv o
Ġ20 50
Ġposition ing
Ġfurl oughed
end o
Ġro ss
Ġpost al
Ġbusiness wire
Ġcr az
Ġbad ly
Ġexclud es
ain e
Ġsl a
us al
n i
Ġf ert
Ġinterview ed
Ġexpress ions
Ġswe et
ay a
Ġ10 6
Ġinject ion
olit an
Ġt one
re le
Ġe ager
so red
Ġret ention
Ġpap ers
th ird
erg ies
Ġcancell ations
Ġfl ash
Ġbl amed
Ġfore ver
Ġmar s
Ġrepresent ation
Ġwind s
Ġexclud e
Ġpel oton
Ġsc al
Ġstrong est
Ġf oster
Ġl apt
ad vant
ist a
Ġsignific ance
Ġiniti ated
Ġworr ying
Ġst ap
Ġken ya
Ġprosecut ors
art ic
Ġcanad ians
ro up
Ġdi et
Ġimport ed
Ġresort s
Ġro cket
Ġconcentr ation
Ġboard s
opol itical
Ġpregn ancy
um ab
Ġs g
Ġintern ationally
Ġab e
Ġdon ors
u y
Ġh av
Ġce os
Ġbrus sels
ov irus
Ġsubs criptions
Ġ200 1
Ġco ven
Ġbes ides
Ġc m
Ġg ang
Ġdr inking
Ġdefin itive
Ġdip ped
Ġalph abet
Ġdesper ate
ob j
Ġsystem atic
Ð¾Ð ³
ogen ic
Ġ11 5
ls on
if i
Ġcook ie
Ġmanh attan
Ġk ur
ã Ĥ
Ġany way
Ġincre mental
Ġsens itivity
Ġpharm acy
ch ild
Ġisol ate
or p
Ġhar bor
Ġs r
Ġ10 7
Ġsold iers
st ers
Ġveter ans
Ġunn ecess
Ġschedul es
Ġaccommod ation
Ġpro sec
ust ers
Ġsubject s
Ġinst ant
Ġpriorit ize
Ġd ash
g iving
Ġr av
Ġredu ces
Ġcor rection
Ġallow ance
Ġn erv
Ġg ent
Ġret ired
Ġc g
Ġrecr u
Ġsoc io
Ġr ip
Ġmar ria
s pe
Ġpoc ket
ed ed
Ġsoph istic
Ġpredic ts
Ġthr ive
ator ium
v p
Ġsafe guard
Ġr ational
Ġdrop s
Ġab uses
Ġa uction
Ġmain stream
p ress
Ġd os
Ġkent ucky
Ġguarant eed
Ġprospect ive
Ġand roid
Ġspot light
Ġb iod
tr ump
Ġassum ed
Ġhua wei
Ġloyal ty
Ġd od
Ġsal v
Ġexp lic
Ġant on
Ġwhe el
Ġjer ome
Ġdestr uction
omet er
Ġsuperv is
Ġtop ped
Ġcle ared
Ġfr uit
bu ild
Ġmo od
Ġoptim ize
Ġinj uries
om ic
Ġ10 2
Ġbangl adesh
Ġass ert
Ġmad rid
Ġlo b
Ġmet res
Ġq atar
Ġa ustin
Ġgovern ing
Ġgree k
Ġtele communic
Ġcompl aint
Ġnomine e
Ġaff ir
Ġfore most
e re
Ġbre ast
Ġwith d
sk i
Ġshe n
Ġmod i
Ġgener ates
Ġb ah
r ix
Ġma h
Ġexch anges
Ġst y
Ġge opolitical
Ġprocess ed
Ġgreat ly
k ers
ã Ģ
Ġl ens
Ġbare ly
Ġal ive
Ġmo on
Ġdis asters
Ġv a
Ġk ate
Ġremov ing
Ġprepared ness
Ġl ists
Ġrec re
Ġur ge
Ġgir l
Ġsor ry
Ġsome body
Ġmist ake
Ġsing h
Ġdep r
Ġmar king
Ġe ve
effect ive
s ing
Ġconf ront
load s
Ġrad ical
med icine
Ġmat urity
Ġdeli vers
Ġportug al
Ġdescrib es
i qu
Ġpack ed
Ġachieve ments
Ġcon cess
Ġblo cks
Ġgen u
Ġdiscuss ing
Ġsams ung
Ġmedic ation
Ġmil an
Ġprodu ces
Ġpow ered
Ġconvert ible
Ġmar ried
Ġvig il
Ġott awa
Ġconf ig
Ġmar ia
Ġcomplex ity
Ġho le
Ġremark able
Ġped iatric
Ġmin i
Ġhead ache
ro it
Ġdisp ute
Ðµ Ð»
Ġthro at
Ġfil es
Ġrus sell
Ġw y
Ġbol ster
Ġplun ge
Ġconcentr ated
Ġdr ill
st ation
Ġ ==
and ed
Ġd ated
Ġhen ry
Ġbenef ici
inform ed
Ġpolit ically
Ġelectr ical
w er
Ġvar ied
Ġinflamm atory
Ġd al
Ġattend ees
00 1
Ġb und
i ates
Ġaccount ability
d ist
il st
Ġcomp ass
Ġspecial ized
Ġinv ited
Ġme g
ÙĪ ÙĨ
m ph
Ġattach ments
Ġar ising
Ġforecast ing
Ġemphas is
Ġh anc
Ġscott ish
Ġst ro
Ġper ceived
Ġprinc iple
Ġf i
Ġzh ang
art ered
Ġtransfer red
Ġmod ified
Ġvac ation
z ero
Ġo u
Ġback drop
Ġholly wood
Ġ'' ).
Ġb old
em en
d oc
Ġmin us
Ġm outh
Ġaustral ians
Ġcarr ies
l ah
Ġident ification
Ġmerch and
Ġo reg
Ġp om
Ġd imin
t re
Ġbal anced
Ġbirth day
Ġc ot
Ġpr ide
ne apolis
Ġka ren
Ġre na
Ġves sel
Ġproceed ing
Ġ7 50
Ġclass room
Ġlist ening
Ġclot hes
prof ile
l ength
Ġconnect ing
Ġpl ate
Ġoreg on
Ġ ðŁ
Ġc f
am i
Ġelect oral
Ġd ad
p ublic
gr ad
Ġdisc our
Ġfin es
Ġaud iences
ant is
pow er
Ġmechan ical
age ment
Ġwh ilst
ou red
Ġsome where
Ġbet s
ĠĠĠĠ ĠĠ
Ġnov avax
Ġfe as
l isted
Ġhanc ock
Ġconserv ation
se ason
Ġp ig
Ġnat urally
Ġgr an
Ġadjust ing
Ġlung s
Ñ Ī
ot he
Ġgrad ual
Ġrisk y
Ġcirc ular
Ġcert ification
an ing
ĠÂ ·
controll ing
Ġcons ort
Ġscre ens
Ġran ks
Ġatt ached
Ġadmin ister
Ġprin cess
Ġtox ic
Ġ ================================
Ġs om
Ġqu i
Ġmagn itude
Ġim aging
Ġ10 4
Ġutil ization
Ġtransmiss ible
Ġcam bridge
Ġhen ce
Ġdon ated
Ġfurn iture
ĠĠĠĠ ĠĠĠ
a o
Ġv out
Ġpled ge
b ase
Ġocc asion
r ate
st op
Ġn ike
we red
Ġh ired
Ġcl inton
it age
ne g
Ð½ Ð¾
i ors
Ġpub s
Ġga uge
Ġchar l
Ġinstit utes
in ces
Ġo c
Ġcor k
Ġleg end
Ġdies el
Ġgu il
y ou
Ġth in
Ġorder ing
Ġlicens ing
Ġevalu ated
are r
ro g
Ġstud ios
Ġtour ist
lect ion
Ġcommon ly
Ġst ored
Ġacceler ation
Ġwe ighed
Ġsimultane ously
Ġdis advant
Ġdall as
Ġbox es
Ġmon oc
Ġmargin al
Ġmeasure ment
Ġrecruit ment
Ġse vent
Ġalgorith ms
Ġ10 8
Ġl ing
ib an
Ġgovernment al
Ġproced ure
Ġundert ake
Ġpar king
ail ed
Ġmin neapolis
Ġt u
Ġal ter
Ġiss uing
Ġislam ic
conn ect
================================ ================
ĠÃ© t
Ġhab it
Ġ================================ ================================================
Ġcharg ing
Ġdav is
Ġâ ĪĴ
Ġrecy cling
Ġclot h
Ġcalc ulation
uch in
as p
anc hes
Ġchalleng ed
air y
Ġdesign ers
comp any
m h
Ġco ck
Ġprof ound
Ġt ag
Ġdon ation
Ġup ward
Ġqu it
Ġ10 3
sh are
Ð¸ Ñı
Ġeuro zone
Ġdemonstr ators
Ġcap ex
l ist
hum an
Ġr u
Ġr up
) %
ast ro
Ġdefe at
Ġint act
Ġro ot
Ġder ived
ar th
new swire
Ġsal mon
Ġt ie
Ġwithdraw al
×¨ ×
Ġun con
Ġsour cing
âĢĻ .
Ġar k
Ġemerg encies
Ġpromot ion
Ġco inc
Ġz ones
Ġme al
Ġdef er
Ġremain der
Ġmet ers
Ġchar ter
Ġwarr ants
Ġnev ada
uff icient
hal f
Ġarg uing
Ġhead line
Ø ²
Ġres h
Ġcustom s
Ġannual ized
Ġadvoc acy
Ġhighlight ing
Ġtight ening
Ġun com
ie ved
Ġrepurch ase
Ġj ess
Ġprov inces
Ġcor ona
Ġm amm
Ġthere by
Ġstrugg les
Ġm ath
Ġstr ingent
Ġmary land
em b
Ġpar ag
Ġdom inated
Ġsurpass ed
Ġmc donald
Ġthe ories
Ġrest rain
Ġmot ion
Ġhe m
Ġsh orter
Ġbp d
un ate
Ġcoord ination
Ġr ice
ar n
Ġg bp
Ġintrodu cing
pin ned
lic k
Ġf ishing
tr ans
Ġcoord inated
Ġar th
Ġsec uring
Ġlive lihood
Ġfail ures
Ġcirc uit
Ġb ain
Ġf iber
Ġmorning star
Ġd ance
et ers
Ġgr aham
Ġmor al
Ġas p
Ġfac ial
Ġh ars
Ġnot iced
Ġbo at
Ġd ave
ots p
in fl
ç ļ
Ġther mal
Ġcost ly
Ġl ip
Ġven ue
Ġch an
Ġpl acing
ch at
op ro
Ø ¶
Ġrel ate
Ġdil ig
Ġsil icon
Ġturn around
Ġrare ly
Ġdivers ified
Ġbi ology
Ġrev ise
Ġcr us
just ed
Ġequip ped
Ġl ender
i ro
ke ep
sch ool
Ġpay check
Ġmil it
Ġam y
Ġiran ian
Ġdesign s
Ġse ar
Ġhor r
Ġl isa
Ġinvolve ment
Ġtw el
Ġenroll ed
a uc
Ġsupport ive
çļ Ħ
Ġdown ward
n an
Ġtrave lling
hy l
Ġs que
Ġpremium s
b ors
Ġgen es
Ġpass es
Ġmag ic
Ġ rome
bur gh
Ġdispar ities
Ġapp lies
Ġantib iot
Ġal aska
ist ically
Ġsanit izer
n at
Ġwil son
Ġhard ship
a fe
Ġ22 5
uck er
á º
Ġsk ill
Ġv lad
Ġestablish ing
Ġremov al
ro cket
Ġdown side
ĠâĢĿ ),
Ġdemograp hic
Ġlike wise
Ġrid ing
Ġbon us
Ġh otsp
Ġ0 8
Ġinj ured
Ġquant um
Ġmunicip al
Ġoccur ring
Ġanx ious
an ied
se m
Ġfr action
Ġst akes
Ġconsult ation
Ã§ Ãµes
Ġpart nered
Ġatmosp here
oun ced
Ġst un
Ġstead ily
Ġbo e
Ġwork flow
ick ing
be it
par ts
Ġte a
Ġjust in
Ġsell s
Ġreli ed
ade qu
Ġchild hood
Ġbehavi ors
Ġconsider ations
w o
Ġmother s
Ġarrange ment
Ġple as
Ġnorth west
b ound
Ġt ill
Ġc ree
Ġfulf illing
Ġsoc cer
Ġam c
Ġbank ers
v iet
Ġn ancy
el le
Ġadvoc ate
Ġsu itable
Ġmicro bi
Ġrec urring
Ġcrit ically
Ġe ag
Ġattempt ed
ig o
l ast
im b
Ġform ula
Ġcarn ival
Ġj ets
Ġent re
ĠØ§ÙĦØ £
Ġt ort
Ġdon ate
Ġmere ly
Ġman if
b ell
Ġpr ay
Ġmeant ime
f ires
Ġher itage
Ġc her
Ġno se
Ġrev ive
d ollar
Ġdeterm ining
ÐµÐ ¼
se a
Ġsubstit ute
Ġk u
Ġt ony
feren cing
Ġgav in
Ġfuel ed
Ġtransl ation
Ġd or
ar ations
Ġflu id
ut ive
Ġterr ible
ow a
Ġdiv ide
Ġin aug
al ia
Ġh ike
Ġb inding
Ġin adequ
l ass
Ġeth ics
Ġenroll ment
Ġ200 2
Ġdisappo inted
al og
Ġ' .
Ġaccompany ing
Ġis t
Ġeconom ically
×Ļ× Ŀ
it Ã©
Ġint ers
lah oma
y en
Ġph r
Ġdisc lose
Ġobject s
Ġdial ogue
×ķ× ª
Ġequ itable
Ġadop ting
Ġbar rier
Ġexpos ing
um ar
Ġpain ful
Ġmn uchin
Ġprov inc
Ġshut tered
Ġinc omes
Ġprevent ed
Ġpar aly
Ġlimit ation
Ġseem ingly
Ġshut ting
Ġtail ored
Ġj enn
pro duct
pan ic
Ġhar ry
Ġvers ions
Ġpar alle
Ġrevol ving
Ġb ird
st ered
Ġaddress es
ic ket
Ġi q
Ġ11 1
erc ul
Ġg ay
Ġw ise
up ta
Ġun co
Ġbuff ett
Ġattempt ing
Ġconstitution al
Ġ 00
Ġh uff
Ġse oul
ver ing
win ning
Ġm m
Ġd ating
Ġor ient
Ġte ach
y er
Ġs amp
Ġnational s
Ġsk illed
Ġcapt ured
Ġle ather
Ġcr amer
Ã© es
x on
se x
Ġir r
Ġtwel ve
Ġnerv ous
ethe less
Ġgy ms
ai res
p ace
Ġst amp
Ġrecogn ise
Ġpul ling
Ġrein for
Ġmetrop olitan
Ġany more
Ġd ak
Ġquestion ed
Ġmarria ge
Ġc able
Ġcr aft
Ġconsort ium
Ġtrop ical
Ġpeace ful
Ġt m
Ġfound ing
Ġachieve ment
Ġjurisd ictions
Ġchild care
Ġnav y
Ġsu icide
Ġcho osing
Ġign ore
r age
Ġman ual
Ġtrail ing
Ġtre es
Ġcomp aring
Ġul tr
Ġmor atorium
ie v
20 26
Ġdist ur
Ġvulner abilities
Ġd airy
Ġ10 9
Ġhard ly
Ġtal iban
Ġnort heast
ail s
ro ck
Ġst ig
he av
Ġfundament als
Ġboost ers
ir ty
Ġcomprom ise
Ġdeuts che
Ġok lahoma
enc ia
Ġther m
Ġa ap
Ġye ah
Ġcontact less
Ġvolunte er
Ġsl ack
Ġsequ encing
ï¿½ï¿½ ï¿½ï¿½
Ġarr ay
Ġrecept or
Ġh ud
Ġal ab
Ġass ign
m id
Ġnon etheless
umb ai
Ġbasket ball
Ġsur plus
Ġdi ver
Ġvacc inate
Ġal ly
Ġco hen
Ġinflu ential
g y
Ġtur kish
Ġimmun ization
Ġscen es
r us
Ġlibert y
Ġunder perform
Ġhad n
ercul osis
Ġaccr ued
Ġcard io
Ġconsc ious
Ġgenu ine
Ġdemonstr ations
Ġwilling ness
Ġsophistic ated
Ġpil ots
on ed
Ġtwe ets
Ġpres um
rop h
ok ovic
Ġentreprene ur
Ġacc us
Ġcr yst
Ġwid th
ÙĪ ÙĦ
st art
Ġ4 50
Ġon board
Ġcompar ative
vide opl
Õ ¡
st yle
Ġcomp elling
mar ks
Ġstr iking
Ġtele medicine
Ġcrack down
own ers
Ġaqu ac
Ġbook ed
Ġarg ues
Ġsolic itation
Ġsh ore
pat ient
Ġcertific ate
Ġ19 0
Ġret ros
Ġresol ved
Ġspok en
us ts
b ury
Ġno ise
ĠÃ ¢
o ch
Ġ13 5
Ġpurs uing
Ã «
Ġal i
Ġwhen ever
Ġair bus
Ġinvestig ators
im ir
Ġbe aches
Ġnation ally
Ġr ab
Ġ0 7
Ġaut umn
Ġgl ad
Ġconsult ancy
Ġt ut
Ġsky rocket
Ġfollow ers
Ġharm ful
Ġavoid ed
Ġsubscrib ing
Ġvenezuel a
Ġdut ies
Ġqu ad
Ġwork places
Ġbl ast
Ġ200 4
Ġd ump
Ġand erson
Ġtrend ing
Ġpro active
ass y
id ers
Ġleg ally
e ur
Ø ®
Ġs s
Ġrac ist
Ġdat as
Ġbrief ly
os a
Ġcollect ing
Ġsupermar ket
the re
Ġeth iop
m ade
Ġd ual
Ġbe ef
Ġperform ances
Ġreceiv able
Ġfeel ings
Ġdom ain
Ġand y
Ġbl asio
Ġa ve
Ġad mit
Ġcompet itor
Ġpreca ution
ÙĬ Ø±
Ġalab ama
Ġbi kes
Ġtrad em
Ġs ore
Ġro y
Ġdestroy ed
vas cular
Ġunal tered
pr ice
Ġprospect us
m ex
Ġun edited
Ġqu oted
Ġall ergy
Ġbuy er
Ġdismiss ed
Ġund ue
Ġrefin itiv
Ġthro wn
Ġbre aches
Ġcont ingent
o z
Ġm ines
Ġdet roit
pl ant
Ġcryptocur rency
Ġl illy
p ol
Ġsmart phones
Ġl v
ac les
st re
Ġber kshire
Ġdown gr
Ø§ Ùħ
Ġgeograph ies
Ġonc ology
Ġgr im
Ġde ll
Ġcr a
Ġtiss ue
Ġind ef
Ġspec ulation
Ð¾ Ð½
Ġan ch
Ġh p
Ġdam aged
Ð ±
Ġli u
Ġl unch
Ġinter rup
im ity
Ġcompar isons
Ġcoord in
Ġdj okovic
Ġclin icians
re ach
Ġf id
Ġany body
Ġsl ip
Ġarr ivals
Ġv r
Ġlet ting
Ġmo h
Ġcontain ers
s an
Ġsequ ential
Ġcolle ague
Ġun i
Ġconflic ts
Ġexp on
Ġtub erculosis
Ġsh ocks
Ġfriend ly
j iang
ure r
Ġgr ades
Ġpal m
Ġun if
il i
Ġx in
Ġth omson
ber ry
Ġa ids
Ġ202 8
Ġ19 70
id as
Ġbo ys
Ġalleged ly
Ġnat o
Ġcook ing
Ġcraz y
Ġrenew ables
Ġbrother s
Ġamb ul
Ġb cf
Ġmanif est
Ġhawai i
Ġdisappo inting
sour ce
Ġabandon ed
Ġpre ferences
ah n
Ġcam b
Ġ Î
Ġwant ing
Ġsm oke
Ġunnecess ary
Ġlif etime
cel ona
Ġcomm ons
er ving
Ġj ay
Ġtrans mitted
Ġspe akers
Ġe co
v ol
Ġd ys
ch ing
Ġforesee able
Ġcounter parts
io x
Ġunf air
Ġ11 3
Ġchick en
Ġtow er
Ġunf old
ap ers
Ġprec ious
Ġenfor ced
in os
Ġdeterm ination
Ġo ecd
pe ople
Ġcurfe w
l ers
Ġd amp
Ġall en
ank a
Ġwhat s
Ġsign ature
Ġprovinc ial
Ġfl aw
Ġwh olly
wh o
Ã ´
Ġstr ange
n c
Ġsaf est
Ġcoll ins
Ġwall s
an z
Ġcross ing
han a
Ġexplic it
play er
Ġbillion aire
Ġpred omin
Ġleban on
Ġaquac ulture
Ġl ancet
Ġwip e
Ġstop ping
f ig
m ath
igh th
Ġvlad imir
ir ts
Ġt all
ex isting
Ġut ah
Ġpr on
Ġdigital ly
Ġguil ty
em ail
Ġf x
Ġfore front
Ġo sc
ib les
Ġcogn itive
Ġ0 1
Ġh ubs
Ġluc rative
Ġadoles c
Ġsp x
man agement
Ġdin ner
m ap
Ġinc umb
Ġed ited
u z
Ġc b
Ġla ura
Ġcred ential
Ġj a
Ġconven ient
Ġta ught
Ġl en
Ġperm its
Ġal umin
ur ation
og a
Ġaccept able
ig e
Ġsm es
f am
Ġdr ama
Ġlo oming
Ġvari ables
Ġhe ll
Ġdocument ed
Ġdiscretion ary
we b
ol as
Ġbi om
st en
um s
Ġbrook lyn
tech n
Ġla ugh
Ġwonder ing
Ġderiv ative
Ġquart z
Ġrelax ed
Ġrug by
n orm
Ġinform al
Ġinflu enc
Ã¼ r
Ġmerch ants
Ġhow ard
Ġins ufficient
Ġwors ening
Ġwhats app
× ª
Ġinf o
red ict
Ġsent ence
Ġrefin ery
Ġg est
Ġfrustr ation
m ate
Ġcoun ted
Ġtack ling
Ġwood s
Ġadap ted
ar us
ur t
he it
Ġbacter ia
y es
Ġp ess
Ġbur ning
li ver
Ġh ond
Ġexcell ence
Ġmach in
Ġ ~
ch in
the y
Ġcateg or
Ġa ws
Ġsus an
Ġdisclos ures
Ġc es
Ġan gry
Ġthink ers
Ġbar cl
Ġtheat re
mon ary
Ġrhe tor
im ab
Ġsens or
Ġdoub ling
Ġb in
Ġreim burse
Ġcust ody
Ġthreat ens
Ġadvis es
Ġcompr ised
Ġrob in
au x
Ġtumb led
Ġp ti
Ġ11 2
Ġm b
Ġjud ges
Ġfranc is
Ġred und
Ġrece ives
tw o
Ġplace ment
Ġlandlord s
is ers
se ctor
itud es
Ġpenetr ation
Ġpod casts
Ġmist akes
1 27
Ġparliament ary
Ġpenal ty
Ġ :
Ġph ill
Ġhand ed
Ġpivot al
Ġk ansas
Ġconv in
Ġdub lin
Ġcont ing
Ġprob able
Ġvi rolog
d les
pr newswire
Ġsp ark
Ġbar celona
ro b
Ġsp ikes
20 22
Ġsales force
Ġdet ain
Ġfoot age
Ġpos es
Ġcirc ulating
Ġjenn ifer
Ġ× ľ
Ġclim bing
Ġpublis her
Ġcare ers
ad ays
ch ange
Ġtransl ate
Ġexam ined
Ġless on
Ġmonoc lon
Ġocc as
Ġphenomen on
Ġa le
Ġas ks
Ġpredic ting
Ġhead winds
Ġdisinfect ing
Ġsc ored
Ġrall ies
Ġreli ability
Ġcapt ain
che ll
Ġneigh bors
Ġconvin ced
Ġnow adays
Ġcollabor ate
Ġtransf ers
Ġtelecommunic ations
Ġpl ug
az z
Ġstep ping
europe an
iv an
Ġ3 60
Ġphil os
isol ate
Ġfound ers
Ġfac ulty
Ġtop ical
Ġpe p
Ġwebin ar
b ucks
Ġalt ogether
Ġign ored
Ġh f
videopl ayer
v y
Ġqu ote
Ġprob ability
n ering
Ġjun ior
Ġindef in
Ġchar ities
Ġexist ence
Ġh amm
Ġindic ations
Ġjew ish
Ġman ip
or i
Ġk han
Ġfe ared
Ġprec ision
govern ment
Ġexpon ential
Ġcl usters
or ient
Ġaccommod ate
Ġsp am
as ia
Ġun real
ĠØ§ÙĦØ ª
for ward
Ġfrag ile
Ġster ling
Ġfr on
Ġturn over
Ġpr isons
es ity
Ġspot ify
Ġdiscoun ts
Ġme ets
ath on
Ġar ise
Ġshr ink
Ġsupermar kets
ind a
Ġattract ed
Ġbrows er
Ġcredit ors
Ġpre fect
Ã¨ s
ig roup
Ġreview ing
che m
Ġweigh ing
Ġact ed
Ġy oy
Ġse p
Ġinequ alities
Ġreth ink
Ġaction able
z ing
Ġmsc i
ke i
us er
Ġp ier
p op
Ġmotiv ated
ann el
d ue
Ġgen ome
Ġexplan ation
Ġf err
Ġgen eva
Ġl ane
Ġg il
Ġfol der
Ġjurisd iction
Ġmonoclon al
Ġunder mine
Ġreluct ant
Ġprop ag
Ġmet ro
Ġlow ered
Ġy an
Ġafter math
g g
Ġse an
ie ve
Ġor ange
Ġf ier
Ġsu isse
Ġd ol
h u
Ġsing er
as y
rep ublic
k ar
ect ion
Ġp ear
Ġhid den
Ġbl u
eng er
pre m
av a
heim er
Ġparticip ant
Ġinsp ire
ic ut
car bon
Ġharass ment
op en
crib ed
Ġsc aling
is p
ch i
Ġsug a
Ġh ikes
Ġunif orm
Ġst ol
Ġinadequ ate
l ay
Ġl ect
Ġ1 19
Ġmiss iss
Ġapproach ing
Ġtoil et
Ġpom pe
ul in
Ġfl av
Ġunder go
Ġbrut ality
Ġaven ue
Ġde re
l Ã©
Ġmand ated
Ġprison ers
Ġsp y
og ens
Ġinflu enced
Ġr it
Ġjo ins
Ġengine er
Ġtr ains
Ġdemonstr ates
Ġd ent
Ġref ers
Ġ11 4
Ġpra ised
Ġc ort
Ġchatb ot
Ġw ound
Ġtoy ota
j une
iz r
Ġsc rap
Ġtit les
mo il
Ġtr i
Ġqueens land
Ġrober ts
Ġf ah
Ġro of
Ġstat ut
e le
Ġdrop lets
Ġjud gment
Ġbet a
Ġhun ger
Ġr iot
Ġlong est
Ġpro be
Ġun ity
m r
Ġpos itivity
Ġhack ers
Ġdecl are
Ġed ward
Ġ11 7
bor der
Ġtur moil
arg ed
Ġle asing
Ġinstr uction
Ġsponsors hip
l ash
Ġshort fall
Ġmall s
act ing
Ġdiv isions
Ġt d
Ġ11 6
Ġc ze
Ġemp ire
Ġb c
Ġw ore
Ġm umbai
ill er
Ġestablish ment
Ġdisag ree
el ing
Ġneutral izing
Ġal beit
Ġpriv ately
Ġgi ro
Ġre loc
Ġf fo
Ġsp ac
Ġrem ed
Ġtrans mit
Ġfat al
Ġgrocer ies
Ġp d
Ġl p
Ġassoci ations
sh ire
Ġupt ake
m illion
Ġsur ges
Ġevid ent
Ġweak ened
or bid
Ġb our
Ġoptim al
Ġconf ined
Ġlangu ages
Ġal ike
Ġsacr if
Ġspect ators
Ġn in
Ġab d
Ġurg ently
Ġten nes
at ri
Ġun le
Ġmanufact ured
Ġic on
Ġcontrovers y
u ates
et ing
Ġregul ated
ipp i
Ġex emption
Ġw ti
Ġtr ies
Ġform ally
Ġro d
Ġfl ed
Ġlight ing
Ġc er
Ġ0 6
Ġpred ecess
Ġo ak
Ġl od
Ġs ony
Ġstop s
Ġregen eron
Ġmodern izr
Ġalber ta
Ġh art
Ġpat ch
market research
Ġcontem pl
b en
f ight
Ġgr ass
g old
Ġhung ary
Ġde an
Ġi owa
Ġprox imity
Ġhuff post
Ġg pt
gen er
Ġmachin ery
c aster
Ġconnect icut
Ġcough ing
ĠÐ½ Ð°
Ġtw in
Ġcollaps ed
Ġdispos able
Ġlar ry
oc y
av ir
ard o
Ġsubst ance
Ġic onic
Ġamb ition
âĢ¦ âĢ¦
Ġswed ish
ac ent
Ġhand led
Ġmodel ing
un a
Ġ13 3
Ġstrengthe ned
Ġreiter ated
Ġ17 5
Ġe li
in ity
Ġamong st
Ġcomb ining
Ġmon it
! !
Ġh ind
Ġ( %)
o on
Ġunp redict
Ġarg uments
zh ou
Ġsc ared
Ġinst ances
Ġi os
ado x
Ġcardio vascular
Ġth read
Ġn az
Ġparticip ated
Ġcas ino
Ġtact ics
Ġexp ed
Ġbr ist
on aut
Ġdeal t
Ġocc urs
Ġpromot ed
Ġk az
Ġdescrib ing
v s
Ġal igned
Ġreason ably
Ġdown ing
g ender
n ik
Ġthreat en
Ġdistingu ish
Ġf ern
av ed
Ġalgorith m
Ġunders co
Ġmerchand ise
j u
Ġear liest
Ġassum ption
Ġunder min
Ġ ÙĤ
Ġpharm acies
c ity
Ġbr anches
Ġexhib ition
Ġcontact ed
Ġv in
Ġpublic ations
Ġeng ines
ä º
Ġpredict ive
Ġob esity
Ġconsider ably
ou b
Ġpers u
Ġstatut ory
Ġtennes see
Ġpl astics
Ġbar ack
man uel
Ġir s
Ġâ ī
Ġintens ity
Ġliver pool
Ġs its
Ġimm ense
Ġkick ed
Ġscand al
m ort
Ġb erg
Ġcomp ares
Ġbow l
Ġprivile ge
Ġans wered
i ations
Ġlaws uits
Ġper ception
Ġstruct ured
Ġm ile
Ġdiscontin ued
Ġnow here
Ġcatch ing
Ġsociet ies
Ġheadqu artered
Ġaver aged
ad d
Ġwhere ver
Ġdistr ibutions
Ġhe ating
Ġupgr aded
c ode
Ġnik kei
em a
Ġpoore r
Ġtoug her
Ġamend ments
Ġprogress ion
Ġen cr
he t
Ġlay er
Ġp es
Ġsuscept ible
Ġy emen
Ġpl ot
Ñģ Ðº
c alling
Ġcy cles
Ġsoft bank
Ġtra uma
Ġrig orous
Ġiss n
h n
or se
Ġpain t
z hen
Ġjeff eries
a Ã§Ã£o
Ġ11 8
Ġmo ore
Ġshel ves
Ġspr ay
Ġto b
ox x
Ġr y
Ġdown town
Ġfundament ally
Ġfundra ising
work ing
Ġmal aria
Ġparag rap
Ġdeb ts
Ġport al
wh y
Ġ36 5
Ġlegit imate
ÐµÐ ´
Ġbatt ling
ad ic
Ġcy tok
Ġnetwork ing
Ġembed ded
t c
Ġrepay ment
Ġd up
Ġbear ish
Ġz u
Ġexclus ively
Ġde port
Ġcell ular
Ġbi omed
Ġflood ing
Ùĩ Ø§
v ac
Ġcit igroup
Ġstar bucks
Ġop ted
Ġe in
ul ed
Ġpath ogens
Ġdak ota
Ġorganis ers
Ġref ining
Ġr ides
Ð¾ ÑĤ
Ġspecial ists
Ġm ers
id os
Ġdes antis
Ġded uct
Ġswift ly
Ġw ing
Ġl ady
Ġappe als
Ġeduc ate
Ġautom akers
Ġ Ñĥ
Ġdef ended
em an
Ġtechn ique
Ġblock ing
Ġdis information
Ġpat ri
Ġlong time
Ġco des
d ie
Ġware houses
Ġimp osing
Ġv owed
Ġche st
Ġpresent ing
Ġtrad er
Ġexcess ive
Ġare na
Ġmississ ippi
o en
Ġ vel
Ġjin ping
Ġpompe o
Ġcertain ty
Ġcomb ine
Ġcze ch
Ð¾Ð ¹
re z
Ġdisrupt ive
Ġtouc hed
Ġbarcl ays
v ie
Ġr aging
Ġc bd
Ġsh ake
Ġag ing
Ġret ained
ra wn
Ġres idence
an im
Ġterm ination
Ġconstit u
Ġex xon
Ġun de
Ġw olf
Ġso bre
Ġr i
Ġpol ar
Ġwonder ful
Ġso il
Ġcr icket
Ġt ul
Ġattack ed
Ġmonit ored
Ġi an
Ġbul let
Ġmacro economic
Ġa j
Ġf illing
Ġass ay
c ola
Ġt ends
Ġb b
Ġbatter ies
Ġbehavior al
Ġalex and
Ġthem es
Ġbuild s
Ø§Ø ¯
Ġdecent ral
b illion
d c
Ġsl ashed
conn ected
Ġcap ita
Ġma is
Ġsequ ence
Ġresum ption
f act
Ġtr action
Ġpal ace
Ġag m
Ġag ility
t u
ag ers
Ġext rem
Ġf ate
our i
Ġ2 30
Ġsy rian
Ġexperim ents
Ġc et
Ġspec ified
Ġhars h
Ġdam aging
Ġelig ibility
Ġemb assy
Ġshort ness
l ining
Ġseam less
ot te
Ġchar ts
Ġevol ved
Ġimper ial
Ġb art
ic y
Ġsl ated
Ġext ends
Ġcomple ting
Ġepidemi ology
c ount
r x
z n
d ub
Ġs ie
Ġbr ick
Ġ7 37
ograp hy
Ġcirc le
Ġst ays
Ð ·
Ġconver ted
Ġpoore st
Ġcritic ised
ed s
ac on
Ġneed ing
Ġrhetor ic
Ġc el
Ġcontract ual
Ġeffic iencies
y ork
Ġk on
Ġamb itions
Ġalph a
Ġm und
d ers
Ġconf ron
ac iones
b lo
ned y
Ġtr aged
Ġmat ure
Ġfr ied
Ġaccept ing
Ġmatch ing
Ġinf low
Ġpath ogen
Ġpass port
Ġprevent ive
j apan
Ġtr act
Ġinv al
Ġreal izing
it ably
Ġbi omet
Ġorig inated
Ġconj unction
fol low
u ity
Ġtrave led
Ġfavor ites
Ġref use
Ø§Ø ³
Ġab und
Ġr ider
Ġde le
Ġpol led
Ġdu ke
Ø £
Ġsegment ed
Ġaccompl ish
Ġoppon ents
Ġco at
Ġclass ification
vacc ine
se lling
sc op
Ġsure ly
Ġt ags
ul es
Ġprosper ity
Ġ×ĳ ×
ist ent
Ġcoll ateral
Ġmichel le
Ġser ver
Ġa ux
Ġser um
ac o
g re
Ġpul monary
Ġpenal ties
Ġsh ah
Ġcock tail
Ġpart nering
Ġdel aware
Ġrub ber
ar bon
Ġaccess ories
Ġparalle l
Ġj es
Ġsa il
Ġcatastrop hic
h ot
Ġ12 1
cul es
Ġ' :
Ġformer ly
Ġresign ation
Ġinter ven
Ġpath way
Ġco ca
Ġjeff rey
Ġw ol
Ġorganiz ational
Ġ12 8
Ġdef ensive
Ġstr ikes
Ġpers pect
Ġcoast al
Ġukrain ian
Ġpres idents
Ġmeas uring
Ġland ing
Ġs ri
Ġph ishing
Ġcos met
p rop
Ġde x
Ġaccount able
Ġdemand ed
ri ott
Ġsect ions
Ġ12 7
Ġk rist
ious ly
whe n
Ġgr ay
Ġ14 5
Ġken nedy
Ġexplos ion
br a
Ġn p
ad i
Ġen acted
vid ia
Ġcon gest
Ġconsequ ence
Ġh oney
us d
Ġg ps
Ġne ck
Ġramp ing
Ġhis panic
Ġrevers al
Ġad ams
Ġinter pre
get ty
Ġmedic ations
Ġaffil iates
op ard
ie re
act iv
Ġtake over
Ġship ped
Ġoptim ization
Ġoverl ap
Ġstate wide
Ġrandom ized
Ġboy c
Õ¡ Õ
v an
isol ation
Ġlivelihood s
ul ous
Ġt ension
Ġin duced
Ġh og
Ġar c
Ġinstall ation
r im
Ġdef ining
Ġepic enter
um ber
Ġdo i
Ġmal ware
Ġy u
Ġchatb ots
sem ble
ate l
Ġpre ference
as tern
Ġk ay
Ġminds et
b ow
Ġapp reciation
Ġadministr ators
Ġfrustr ated
Ġcomprom ised
le ad
Ġmod elling
val es
ert o
Ġdistribut ors
Ġhom inem
Ġacqu iring
1 20
ch air
Ġab u
br it
Ġcyber att
Ġa ides
Ġco aches
we alth
Ġbl an
com pass
Ġgen eric
Ġconnect s
Ġph ased
Ġconserv atives
Ġast h
az e
Ġce ment
Ġnorm s
Ġen erg
Ġcol our
Ġa us
ch a
Ġmot ley
l enec
om ics
ens ky
Ġfunction ing
anc ial
Ġcelebr ated
Ġfunction ality
al one
ps on
Ġhs bc
u er
Ġpract ition
Ġadolesc ents
ag an
Ġd ock
Ġaccomp anied
g ate
Ġt amp
Ġpharm ac
Ġcelebr ation
Ġb unch
he tic
Ġgr ip
Ġ12 3
ric a
Ġtop ically
Ġemphas ized
Ð°Ð º
Ġcra ig
Ġbel t
Ġ2 20
Ġt iff
Ġind ices
ical s
Ġany time
Ġimper ative
Ġpre st
Ġhub ei
Ġ12 4
æ ľ
Ġcalcul ate
Ġun ified
Ġn c
Ġrail way
c row
Ø °
Ġcryst al
Ġre hab
Ġback lash
Ġo liver
iss ance
Ġgr av
Ġexpl aining
b reak
Ġpre clinical
Ġdr ones
Ġcam eron
Ġ ì
Ġran king
Ġmar it
ad justed
Ġnav al
Ġcaution ary
Ġ Ùĥ
ĠÐ ³
sh aring
Ġ12 6
Ġjess ica
Ġschol ars
Ġvary ing
Ġ12 2
Ġpe ps
Ġbus es
Ġso y
Ġthanks giving
Ġdiscip line
Ġflat ten
Ġrevers ed
Ġper t
Ġoff line
Ġbi olog
ach ment
Ġ( );
Ġrepro duced
Ġgener ous
Ġre it
Ġaer os
Ġneuro log
Ġmarsh all
20 18
Ġobst acles
Ġcon vales
Ġreal istic
Ġbel arus
Ġange la
Ġsuggest ions
Ġseek ers
Ġalarm ing
Ġfinancial s
Ġed t
Ġren ts
ĠØ¹ ÙĦÙī
arm a
o bs
es h
Ġb ats
Ġl ord
Ġrec alled
/ ?
Ġin acc
Ġdec arbon
Ġlith ium
Ġc ush
Ġ199 9
2 50
Ġt i
Ġp mi
are t
Ġgrow s
å ħ
report linker
iox ide
Ġenh ancing
Ġst al
Ġimp e
k r
Ġshen zhen
v irus
ast ically
pl an
Ġfil ter
m m
Ġin just
Ġrepl acing
iz za
or ate
Ġut c
Ġexplo res
Ġdec iding
Ġev ans
Ġaffil iate
Ġencoun ter
th at
oc on
Ġed its
Ġne il
Ġpres cription
app ro
Ä į
Ġsan itation
ull ivan
re view
Ġassum es
im inated
k h
Ġg upta
Ġstr ing
Ġst oxx
Ġfin land
o ir
cent ric
Ġf ame
Ġkid ney
Ġbas in
Ġemot ion
ke e
n ow
i Ã¨
Ġrad ar
Ġ21 2
w ick
Ġgr ace
Ġstre ams
ate mal
Ġf c
land o
Ġissu er
Ġinterpret ation
Ġfulfill ment
re r
st an
lock down
Ġadap ting
Ġunderwr iting
Ġmat he
e ze
Ġg if
Ġcertific ates
Ġap r
olog ies
Ġmedic aid
Ġt ire
Ġmar riott
Ġindepend ently
net t
Ġincorpor ate
Ġso viet
Ġf ond
Ġcomm ence
Ġbl unt
Ġcomp uls
Ġap i
Ġsort s
Ġp v
ed ge
Ġend ors
ĠØ§ÙĦØ ¹
Ġst alled
Ġce ase
Ġmat rix
Ġun paid
j or
Ġal an
Ġr ated
Ġcompass ion
c led
Ġsho es
Ġbreat he
Ġdr one
Ġdelay ing
m atic
Ġacc enture
Ġfed ex
Ġsh in
Ġmaxim ize
Ġmir ror
ing e
link ed
he lp
oc ial
Ġn vidia
Ġcr y
s ample
Ġche v
im ens
Ġig g
anth rop
Ġincor rect
Ġw ai
Ġnegoti ating
s u
Ġtest im
Ġer up
Ġk al
Ġpaus ed
Ġd ensity
Ġhol der
Ġ' );
Ġsc aled
Ġed ged
Ġbook mark
Ġj ak
Ġem manuel
Ġt ired
Ġconfir ms
Ġsen iors
Ġalb um
Ġfant astic
ul ent
Ġend e
Ġpup ils
Ġr ash
Ġcinem as
k ind
Ġr bc
Ġclass rooms
Ġconfident ial
der ing
1 50
Ġb j
Ġbott lenec
Ġmal icious
Ġend point
Ġcle aring
Ġmarit ime
Ġen compass
Ġtrans plant
Ġb m
os m
ex ec
Ġpa ÃŃ
Ġpalestin ian
Ġcoup les
n on
Ġen f
ĠÐ ·
Ġâ ĸ
Ġstrength s
Ġdiscr imin
e g
es co
im en
Ġmon et
Ġc umm
Ġph ases
Ġcommercial ization
Ġb ps
Ġnuc le
Ġro dr
Ġrel ates
Ġinvestig ated
Ġwild fires
Ġhor se
Ġminor ities
Ġneighborhood s
Ġpet ition
im s
Ġmed al
Ġlo bb
Ġtransform ed
Ñ ī
Ġsp i
Ġi hs
Ġf old
Ġmiss ouri
Ġnot ion
sh ow
Ġpositive ly
Ġsud an
Ġelimin ating
Ġlat ino
Ġunav oid
er ves
ine ment
g ame
Ġch ocol
Ġlgbt q
Ġh c
Ġhe y
ou ver
Ġcult iv
Ġconsequ ently
Ġmerg ers
Ġ ï
Ġsol o
u ana
hold ing
Ġasth ma
Û Į
Ð ³
Ġk ap
Ġrank ings
Ġd h
Ġd ot
Ġle on
Ġlo op
Ġauthor ised
Ġemot ions
Ġdivers ification
g ow
Ġch uck
cons umer
Ġ13 7
Ġres id
Ġton ight
Ġd ioxide
Ġintern ally
Ġneighbour hood
Ġhaz ard
Ġdepend ence
pay ers
auc r
Ġcl ip
aus tr
Ġdeploy ing
acc o
fund ed
Ġro sen
Ġch op
Ġcollabor ations
Ġintent ions
Ġto urs
Ġinc oming
Ġab r
Ġkne e
Ġtotal ing
Ġsatisf ied
00 5
Ġban ning
Ġcr iminals
te xt
Ġpione er
ot al
Ġen zy
Ġh ip
os hi
Ġcit i
Ġupgr ades
Ġgr at
Ġ13 2
Ġly ft
Ġover t
Ġnot ified
Ġun re
Ġm ack
v ir
Ġcompl ained
Ġrepro duction
Ġout sour
Ġprem ature
Ġj d
Ġviol ation
Ġt ory
om y
Ġrele asing
Ġcru ises
iz able
der n
Ġv as
Ġspir its
Ġstan ford
Ġin security
Ġbro kers
cl a
Ġpoor ly
pass word
ess ed
Ġsch umer
as ive
Ġup beat
Ġobt aining
Ġclos est
Ġwatch dog
Ø§Ø ¦
Ġted ros
Ġperspect ives
Ġbreak up
Ġstol en
Ġethnic ity
Ġche l
Ġden y
Ġsil ence
w c
Ġman ages
ind us
anc ouver
Ġdemonstr ating
en h
Ġ12 9
Ġbro w
sh aped
Ġf asc
Ġanton io
ie ce
e en
Ġaud itor
Ġbure aucr
Ġsw ab
Ġphil anthrop
ï¼ Į
Ġpredict ion
Ġ×ľ ×
el li
ite ment
Ġcontag ion
oid s
f ood
Ġsome how
ient o
Ġw rap
Ġec u
Ġs aint
gn w
in ib
Ġg hana
Ġpess im
Ġ Ùĩ
Ġ0 3
Ġmark it
Ġexcept ions
Ġpropos ition
Ġunavoid able
en na
Ġsevent h
Ġexplos ive
Ġsociet al
ar an
m ile
Ġs ue
Ġorig ins
Ġign or
cent er
Ġlob by
Ġnegoti ate
Ġb ind
Ġse k
Ġs ba
Ġch and
Ġbre w
Ġbiod iversity
Ġbott les
Ġrefund s
Ġintegr ating
Ġindian a
Ġ' )
Ġparam eters
n ational
Ġcomb ating
prof its
Ġover haul
Ġfah ren
Ġ24 0
art ner
lo ff
Ġjoint ly
re ts
Ġquarant ines
Ġfed er
ĠØ Ń
Ġepidemi ological
s ign
Ġm our
tr uda
Ġdat al
Ġant itr
l ig
Ġb out
Ġtight ened
build ing
Ġtr ay
Ġaccus ations
Ġcoordin ator
Ġeu a
Ġobserv ation
Ġlever aged
Ġab rupt
Ġroyal ty
Ġcot ton
Ġbr ill
Ġcumm ings
ather ine
Ġeas ter
rep res
Ġtech republic
Ø «
Ġw ary
um atic
Ġstep han
Ġautom atic
Ġd orm
b t
Ġout rage
Ġweap on
Ġfahren heit
Ġflo ating
? âĢĻ
it ives
Ġn it
Ġre un
Ġn s
Ġint im
Ġconv ince
k l
Ġhe lic
Ġsurprising ly
Ġatt itudes
Ġanalyt ical
Ġhar ness
Ġsynthe tic
Ġobser vers
rom b
Ġmid night
Ġmill s
Ġdispl aced
Ġas pir
Ġunder ground
Ġperfect ly
Ġk m
Ġp orter
Ġend orse
Ġdr astic
Ġmaint ains
Ġgeograph ical
d irect
ĠØ ³
Ġâī ¥
Ġjud icial
Ġliter ature
ow ski
Ġterror ism
Ġon s
Ġconvales cent
Ġpar ad
ty pe
Ġrein force
Ġhesit ancy
s aving
Ġlicens es
Ġlv mh
Ġapplic ants
res a
Ġnas al
Ġspons or
Ġbe z
Ġsl id
dem ocr
Ġob struct
Ġguid es
Ġdub bed
r u
Ġfier ce
Ġ20 3
Ġsw ap
Ġhero es
Ġf are
Ġcom orbid
los ed
Ġf bi
s ur
Ġb ust
Ġhealth ier
Ġque bec
Ġ13 1
Ġcamb od
analy sis
Ġnecess ity
dub lin
od o
ĠÙĪ Ø§ÙĦ
et a
Ġcost a
Ġor lando
Ġaz ure
Ð°Ð ²
Ġso ap
Ġn am
d ated
h d
Ġin mates
Ġsp urred
te en
Ġcurrent vide
Ġobserv ational
Ġly mph
r ad
Ġsubsid y
Ġabsent ee
ne xt
Ġtax payers
Ġantitr ust
Ġpro ving
Ġdig its
Ġintegr al
Ġf ought
Ġroad map
Ġoccup ied
Ġml b
Ġw i
Ġel abor
Ġd ust
Ġr ut
Ġdis se
ian o
Ġ14 4
Ġgrapp ling
at os
Ġb ak
Ġposs ibilities
Ġdiplom acy
Ġbu zz
Ġroll s
Ġepis odes
ang ers
Ġgu atemal
Ġkey truda
Ġre wards
Ġhom eland
Ġha ul
Ġuni verse
Ġcreat ivity
wh ite
ens es
Ġdesign ing
Ġpret ax
Ġel on
Ġ13 4
Ġswim ming
Ġl id
Ġ13 6
© ×
Ġn iss
Ġsuperv ision
Ġem ory
Ġappear ing
Ġtax ation
Â °
Ġerr ors
Ġdec isive
eb ted
Ġcamp bell
Ġcop ies
Ġom n
Ġawa iting
Ġlun ar
Ġcounter part
Ġre nov
Ġalle v
j ud
Ġev iction
Ġsurv ived
as i
ell er
Ġdes c
gl om
Ġk ab
Ġdou g
Ġprecise ly
st at
em erg
Ġappro ached
k u
Ġbr un
m issions
Ġg c
Ġs ib
Ġh ann
as tr
Ġh ans
Ġpat ents
Ġ Ñĩ
Ġb ilateral
Ġmole cules
Ġwal ker
Ġtr av
Ġste am
Ġor th
Ġcredential s
wh ich
Ġlog istical
Ġ) %
Ġmit ch
Ġtransform ing
wo ven
ah u
Ġforeign ers
Ġsk ip
Ġver d
Ġbrut al
Ġhol es
Ġm aps
ac cept
Ġadv ise
Ġstrateg ists
ÑģÑĤ Ð²
Ġn ights
Ġup set
Ġar sen
Ġfree ze
ĠâĢĿ ).
Ġdatal ayer
Ġc av
Ġt at
Ġat ags
li ant
Ġconsult ants
Ġ2 10
Ġundert aken
Ġk ro
Ġpass age
Ġim minent
Ġd ental
Ġadv ent
Ġinnov ate
Ġnig er
g ood
Ġb un
tr aded
Ġbail out
Ġham ilton
techn avio
se en
Ġ0 2
Ġconclud e
Ġdisp utes
Ġdispl ays
Ġbe aring
Ġben j
Ġut m
Ġ× Ĳ
Ġsearch ing
Ġt ighter
Ġw en
Ġma ur
Ġconv icted
Ġmortg ages
Ġburn ed
Ġc is
Ġcap e
Ġref using
Ġp izza
b as
im ated
requ est
tr ation
ap ril
Ġmon itors
Ġver ification
Ġhome owners
Ġdur able
Ġfl our
child ren
Ġfrank ly
Ġest e
g ivers
Ġepidemi ologist
Ġmar athon
Ġsupp ress
Ġic eland
ÂĢÂ Ļ
Ġreport linker
Ñģ Ñı
Ġprosecut or
quar ant
Ġbrist ol
Ġstr at
Ġdecre ases
Ġfa ult
Ġbreak fast
Ġcross ed
Ġemploy s
Ġbarr ons
Ġn ag
ant ed
Ġes cap
Ġd erm
art is
act ively
Ġneg lect
Ġrad i
Ġdis pers
Ġser b
Ġs ullivan
Ġexecut ed
Ġbroker age
Ġsh ame
Ġground ed
Ġg ol
Ġwor ship
Ġserv ic
Ġbr as
Ġbiopharm aceutical
Ġmult ilateral
Ġdocument ation
le ans
Ġc yp
Ġinsp iration
Ġhelic op
ab out
å ı
Ġos aka
ogenic ity
Ġmy th
Ġchar itable
Ġbas es
h ill
o ly
Ġtun is
Ġmess enger
row s
Ð¸ Ðµ
ys on
es y
h ig
own s
ias m
Ġunpredict able
Ġtiff any
Ġperson ality
bo oks
Ġtraged y
Ġencour ages
Ġlog ic
Ġtur bul
Ġw ool
ud ed
Ġdomin ate
ĠÑ į
pt on
Â® ,
Ġsa as
Ġastr onaut
Ġneighbor ing
h ics
Ġout p
sh ares
act ers
Ġp ills
ter y
he astern
Ġch ills
new york
Ġstro ke
Ġp t
Ġchar acters
Ġex ams
Ġorgan ised
Ġh bo
Ġship ment
Ġvis as
spe ed
Ġcelebr ating
Ġconclus ions
Ġre aches
ament e
Ġgl as
Ġdep ressed
Ġcheck ed
oen ix
Ġs ig
Ġf et
Ġco co
Ġg w
Ġmut ation
Ġd uc
Ġenthus iasm
Ġle ap
iss a
Ġka iser
Ġsong s
Ġmed it
Ġresist ant
Ġ16 5
Ġfeed ing
ok es
Ġro ger
Ġclean er
Ġcon glom
Ġl ang
Ġg ord
r ies
Ġind ebted
Ġcre am
u v
Ġdef ending
Ġv od
orient ed
ct ic
Ġver izon
sm all
Ġmuslim s
Ġmult in
Ġst ating
sc ience
sec ured
Ġcardi ac
Ġpat hs
Ġjac ob
Ġpolic ing
Ġunde rest
Ġmen u
Ġni h
Ġautonom y
indus try
Ġl ets
Ġor leans
Ġwor n
Ġrus hed
Ġinspect ion
Ġn r
Ġshield s
Ġunderst ands
m ind
Ġn ash
Ġco x
Ġcompuls ory
Ġt ak
ch anging
ph ys
Ġje opard
Ġres igned
Ġpan els
Ġdraw s
lo at
ĠĠĠĠĠĠĠĠ ĠĠ
Ġmur ray
Ġcare givers
vel and
Ġgu ang
Ġout reach
Ġup stream
Ġcome back
Ġh ut
Ġhed ging
Ġave c
newyork er
Ġp atel
comp an
Ġpass ports
Ġn h
Ġissu ers
Ġcharl otte
Ġadv ising
Ġrecover ies
Ġab o
du ce
Ġtight en
e ment
Ġautom ate
Ġland ed
g ence
Ġdes ert
Ġopen ings
Ġmarc us
Ġhe pat
Ġoun ces
Ġm ate
Ġ' ).
Ġper pet
Ġlow ering
Ġbab ies
Ġconclud es
c ule
à ¸
Ġ1 000
Ġun ic
Ġann a
Ġcred ible
Ġutil izing
Ġcon ced
Ġread iness
Ġcount less
st rom
Ġ15 5
Ġ13 8
bel t
Ġmat ched
Ġthere of
16 9
Ġre ins
Ġsp ur
Ġthe ft
Ġhen d
Ġf ing
Ġcon form
Ġreg ards
Ġslump ed
Ġlo os
Ġred d
Ġres on
% ;
Ġident ifies
Ġterror ist
Ġ== =
pro t
Ġe ia
Ġsm ar
Ġpopul ous
Ġk le
ck ed
Ġfree ly
Ġb os
Ġlib ya
Ġl oud
Ġz ur
it te
Ġbenef iting
s outh
Ġh ilton
ill o
y ard
Ġimpro ves
Ġadd itions
Ġbench marks
Ġprud ent
clus ive
Ġbiomed ical
Ġbenj amin
Ġe commerce
Ġcom edy
Ġje rem
Ġdevelop s
Ġel iminated
Ġch f
Ġread ily
Ġbon uses
Ġlength y
Ġ40 1
Ġh ob
Ġdilig ence
Ġpol ish
Ġmillenn ials
j ay
Ġt orn
Ġcred o
Ġrestrain ts
Ġse ized
Ġap ac
Ġdoub ts
Ġobser ve
Ġexceed ing
Ġred istr
Ġagre es
Ġeag le
f g
g row
Ġsepar ated
un es
Ġeu rop
Ġepidemic s
Ġ199 6
Ġa uf
Ġan a
l ived
Ġretr ieved
Ġk umar
Ġecu ador
Ġwhe at
Ġsp o
Ġobserv ations
Ġanalyz ing
Ġcorrel ation
Ġwork outs
Ġact ress
t ar
Ġk ath
Ġpredomin antly
Ġbrand ed
Ġsusp ending
Ġbroad caster
Ġf inger
Ġrobot ic
Ġl av
Ð¸ Ð¸
Ġcommission ed
Ġget ty
Ġ× ŀ×
Ġbal ancing
Ġhur dles
Ġunder going
ro gen
inc ol
u ating
el iness
Ġbeat en
Ã± os
Ġatt itude
Ġpe g
Ġm ice
Ġout let
Ġsal t
hol m
ind ia
Ġpreval ent
Ġm ud
Ġn oses
amp ed
Ġcat al
j s
Ġl op
im ic
Ġcyber cr
Ġmuseum s
Ġpay out
Ġuncom fort
Ġfre el
Ġname ly
Ġshel ters
Ġescal ating
iz ers
Ġland mark
eff icient
Ġt ide
Ġsod a
Ġchampions hips
st it
Ġqual itative
Ġcommitte es
Ġele ph
Ġal z
ed e
Ġcivil ians
ik o
Ġmis con
Ġs eng
Ġperson as
Ð¸ Ð½
Ġun wa
Ġde lic
Ø§Ø ¹
Ġsp on
cy cle
ij uana
Ã© t
Ġl lp
is is
um at
str act
Ġembr aced
Ġcontem por
Ġcon gr
Ġdr astically
Ġl one
Ġr ick
Ġrun ny
Ð° ÑĢ
Ġcrop s
p cr
ing ton
tr ack
uc king
Ġpoc kets
Ġinev itably
Ġmultin ational
Ġcommon wealth
as a
Ġrecogn izing
Ġbr ink
Ġunwa vering
Ġfirm ly
Ġmake up
Ġcompr ising
Ġout we
Ġstrict ly
Ġethiop ia
Ġorganiz ing
Ġtob acco
b m
ol i
Ġscar ce
l en
z i
Ġearth qu
Ġto uted
Ġdisappo int
Ġc ens
Ġaf loat
Ġed itors
Ġfail s
Ġsou l
Ġtod d
Ġph oenix
Ġform a
Ġcor rid
Ġinter ference
Ġforg ot
Ġre ferences
bal ance
Ġspi ked
is hes
Ġnav igating
Ġsnap shot
Ġanc ient
Ġp act
ul u
Ġcomp ris
Ġdefin itions
Ġstret ched
Ġre vel
Ġun secured
Ġstr ic
Ġver ify
fr ame
Ġextr act
Ġscr ambling
Ġvill ages
n n
otyp e
Ġdang ers
Ġpu zz
Ġu c
Ġcivil ian
Ġpostpone ment
x p
Ġquick er
Ġplumm eted
Ġg artner
Ġprop ose
ah o
Ġcelebr ity
w id
Ġdeterior ation
le ments
7 50
fin ancial
du cing
Ġcl ark
ar at
ch ip
Ġh hs
Ġst reak
ash i
Ð°Ð ¼
Ġdrug maker
Ġstric ter
Ġa aron
Ġlab els
Ġrespond ers
Ġblu et
Ġopt ical
Ġmel t
imm une
ion ed
Ġ14 8
Ġinput s
Ġgu ine
in ction
Ġdocument ary
sc reen
Ġpil gr
Ġhun ting
Ġauthentic ation
Ġstag gering
Ġcred ibility
artic le
employ ed
Ġbur st
Ġk an
Ġout flow
Ġcourt esy
ip ts
ad s
Ġsub mission
Ġsoc i
ienc ed
Ġdist ant
Ġpeak ed
Ġmilest ones
Ġel imination
Ġadvance ments
Ġpayroll s
Ġk in
Ġ17 2
Ġsel loff
Ġenthus i
Ġun h
Ġspeed s
Ġn os
resp ons
Ġrestrict ive
washing ton
Ġch i
Ð°Ð ·
ÐµÐ ¹
Ġu v
ur rent
Ġproblem atic
Ġweakness es
Ġd ick
Ġrecy cled
wear ing
Ġdistribut ing
. :
ch ief
Ġbound aries
Ġle agues
Ġpath ways
ãĢ Ĥ
Ġdemonstr ation
Ġg ary
ne eded
Ġconf inement
f unction
Ġsh out
Ġprem ises
Ġcatastrop he
Ġbluet ooth
ur ge
Ġair borne
Ġmind ful
opin ner
ÙĪ Ø±
om i
Ġv ou
Ġlay ing
Ġincumb ent
p f
Ġt b
Ġcre ws
Ġandrew s
Ġ14 1
Ġ14 2
Ġtestim ony
Ġg aza
ass ets
ra ft
Ġro c
Ġconce pts
Ġt ian
Ġreli ant
a ults
Ġl ining
Ġbr uce
Ġg ib
Ġv ancouver
Ġor acle
Ġrun way
Ġde ment
Ġwar ner
Ġsu its
Ġdam ages
Ġreimburse ment
Ġshe lf
Ġroutine ly
at al
Ġso ar
exec utive
Ġc isco
Ġun accept
Ġsupplement ary
Ġsatisf y
Ġor bit
Ġtreat y
Ġappe aling
Ġbuck le
u ably
cept ive
Ġrehab ilit
Ġins ist
Ġpresent ations
iz ar
Ġtr ag
che str
Ġexport ing
are st
Ġcapital ization
Ġb t
Ġregul ate
Ġjump ing
Ġhon ored
Ġcath olic
dist ancing
Ġs ul
st ud
Ġq r
r uss
b ig
Ġl ion
Ġjust ify
Ġ14 3
Ġchev ron
ur ate
Ġview ing
Ġ14 6
Ġlaw rence
Ġrecru iting
Ġnormal cy
Ġecho ed
eral d
Ġdecre asing
Ġ13 9
Ð¾Ð ±
Ġspace x
Ġnov artis
Ġreim ag
Ġsubur bs
Ġdowngr aded
Ġcar los
Ġindefin itely
Ġ0 5
Ġs es
Ġpr c
Ġup load
Ġspr int
Ġl em
rem lin
Ġbenefici aries
Ġparagrap h
Ġsp a
Ġshow case
Ġauthor itarian
Ġdel ighted
Ġexerc ising
Ġre ign
Ġread er
Ġattach ment
Ġjew el
Ġpul se
Ġfr act
Ġn od
Ġbuy backs
Ġkilomet res
re ports
Ġbir ds
Ġinhib itor
d et
Ġd ense
Ġch ur
Ġcompos ition
Ġarrest s
b urn
b les
l le
Ġprogress ing
Ġshe p
Ġlau ren
Ġdown play
Ġfavour ite
h ares
Ġbut ter
Ġstr anded
Ġadequ ately
Ġfert il
Ġne pal
Ġcit ation
Ġwors ened
gr aph
an ne
ic ism
Ġcoord inate
Ġrestric tion
Ġindic ative
Ġniss an
Ġb atch
Ġcv s
Ġwe ird
op ening
Ġdis abled
Ġchocol ate
fore station
Ã© m
pos ition
Ġh oc
Ġimp l
Ġp ant
up id
h is
y o
Ġprotect s
Ġbatt les
est y
Ġfin ishing
cr isis
Ġprice y
r t
Ġw w
as one
ats on
Ġwh ist
Ġj ama
Ġoff ensive
Ġmid west
Ġpaul o
o is
Ġg sk
Ġvari ation
Ġdisch arged
Ġin ner
p ack
op hy
Ġarg uably
Ġdisproportion ate
Ġbo oming
pm g
en abled
Ġst if
Ġjoh an
Ġx ia
Ġcelebr ities
Ġle ak
Ġser vers
Ġins ur
Ġse b
Ġqual ifying
Ġmathe mat
Ġmicro bes
rele ases
am eth
Ġantibiot ics
Ġad vers
Ġmus ical
Ġrece ipt
Ġm ans
im an
Ġdetain ees
Ġte ens
Ġwrit ers
act ory
Ġ27 0
Ġviol ating
Ġsubur ban
Ġre organ
Ġmiss iles
Ġdomin ic
Ġinv asive
v ision
Ġor chestr
Ġ199 7
Ġdon or
Ġtem pt
Ð¸Ð ¼
Ġr w
Ġmc m
st ocks
th reat
Ġtrans gender
Ġgrad uates
ä »
enc ent
Ġlist ings
Ġspan ning
Ġaud ited
Ġjam ie
Ġdomin ance
Ġcab in
Ġac res
Ġund oub
Ġoccur rence
Ġhyp othe
Ġkilomet ers
Ġgord on
Ġth rowing
Ġpen n
Ġpo ols
Ġutil ize
Ġib id
Ġrom an
Ġarsen al
Ġalz heimer
qu al
Ġdement ia
v ance
Ġbu oy
Ġlack ing
Ġz ucker
f ts
Ġbu ys
Ġabo ard
Ġne x
Ġpress ed
Ġexclus ion
Ġg s
Ġsign aled
Ġfreed oms
Ġeduc ators
Ġbur d
Ġcomp ounds
ell en
Ġstorm s
Ġhav oc
Ġclear ance
Ġreferen d
Ġencoun tered
d ered
Ġmem ories
arm er
h ospital
Ġcor ps
Ġk w
Ġdown stream
Ġmineral s
Ġpredecess or
m n
Ġcomp lim
Ġret ro
Ġxin jiang
ot ing
Ġmin ers
Ġ19 5
Ġanonym ity
Ġgab ri
Ġre de
Ġstick ing
ill ions
ac ional
Ġwal t
h ub
Ġsad ly
up p
keep er
Ġp ets
Ġpow der
Ġwal ks
Ġdivers ify
Ġdisplay ed
Ġpart isan
Ġrac hel
Ġod d
ĠÂ» ,
on i
Ġperiod ic
Ġbackground s
Ġbios c
Ġc ats
Ġsamp ling
Ġb ug
Ġcapital ism
Ġbar red
Ġuncomfort able
Ġb ou
ip her
Ġecosystem s
le e
any ahu
Ġcoven ants
Ġpre f
iv as
Ġimp ression
ol o
Ġcontr ary
Ġqu int
Ġexam ination
Ġaffil iated
ameth asone
Ġcontr ad
Ġundoub ted
Ġ14 7
Ġevent ual
Ġexc use
Ġcongest ion
Ġam zn
Ġcitizens hip
Ġbot tle
err als
Ġ26 0
pos itive
Ġcinem a
Ġens ures
Ġsp are
str ong
Ġchem istry
Ġinter face
ĠØ£ ÙĨ
Ġtun nel
inst ance
Ġinjust ice
Ġf b
Ġass ured
ft y
Ġcru z
y ield
Ġinc ub
Ġdash board
Ġan k
Ġdis h
Ġelect ro
Ġphotograp her
Ġar dern
Ġth ai
ĠĠĠĠĠĠĠĠ Ġ
Ġvalid ation
Ġchur ches
Ġfort unately
Ġmo ham
Ġswitch ing
Ġcycl ical
r itis
Ġt ang
Ġshr inking
Ġspecial izes
Ġrein vent
d epend
Ġnav ig
Ġrepro duct
Ġah med
Ġrev is
Ġp i
Ġam ple
Ġphotograp h
lo ved
Ġfi xt
Ð¾Ð³ Ð¾
Ġemp athy
Ġveget ables
Ġsc ary
Ġramp ed
Ġark ansas
Ġinflu x
Ġt ended
re ated
Ġtr usts
re uters
Ġvide opinner
red it
Ġdep le
Ġsk i
Ġblack rock
vas ive
Ġtan ks
Ġanc est
Ġl dquo
Ð ¶
Ġjan e
Ġbez os
Ġv ibr
Ġ0 4
Ġlog o
z marketresearch
ĠÐ °
Ġbern ie
Ġprohib ited
ic iency
Ġun law
Ġfr ances
Ġt yson
Ġdig est
Ġ à¤
Ġl incol
Ġswe pt
Ġkam ala
if fe
v ia
Å Ĥ
ou p
Ġde ar
as er
Ġstimul ate
Ġman chin
Ġrestric ting
grow th
Ġa ide
Ø º
app ropri
Ġinter val
Ġplat ts
Ġrob inson
Ġcur ious
Ġchart ered
Ġw ong
Ġunaccept able
l ists
ut en
Ġrev isions
ss on
f ar
Ġform ation
Ġnight m
Ġi oc
Ġstun ning
m d
Ġc ant
Ġno bel
s pread
Ġp fe
ain able
ai ro
Ġl ately
est ab
Ġrig s
o be
Ġadd iction
report ed
st ill
Ġtake away
pro of
rec urring
Ġcelebr ations
n t
ent e
Ġcon ferencing
res il
Ġco o
Ġair pl
d ale
w ich
Ġpre print
Ġold est
Ġsil ent
Ġguatemal a
Ġcompris es
Ġl uk
Ġvacc inating
Ä ĥ
Ġh ills
Ġchief s
Ġutil ized
Ġin r
Ġpeps ico
Ġve ctor
Ġl ying
Ġlif eline
c in
Ġ19 33
Ġport land
Ġconv iction
Ġretros pective
Ġt encent
Ġp est
Ġfil ters
Ġundoubted ly
Ġro ots
Ġinst antly
Ġdistur bing
Ġp ork
Ġk remlin
it ten
Ġal tered
Ġnot or
ic ides
Ġrel ent
o op
Ġnormal ized
Ġpurs uit
bear ing
Ġin her
Ġs as
iv ia
Ġrenew al
Ġpip elines
Ġathlet ic
Ġalumin um
th al
Ġinc ons
Ġnon woven
Ġquestion ing
Ġexpress ing
Ġlegisl ature
Ġsalv ador
Ġover sh
Ġpop e
Ġug anda
Ġabsor b
Ġinflow s
Ġdis connect
Ġp all
Ġpol io
Ġ19 60
Ġbro oks
Ġd ign
Ġr ud
Ġstem ming
Ġret reat
Ġn ok
Ġtr apped
Ġgot t
Ġpro actively
Ġinflation ary
Ġexplo it
Ġmount ains
ar cer
Ġde ceptive
Ġcolon ial
Ġop io
Ġin e
ins ki
Ġlas er
Ġneighbour ing
Ġnot ifications
Ġ15 4
à ¥
Ġw atson
ro se
Ġcustom ized
Ġw ond
Ġher she
Ġcool ing
o ft
Ð¾ Ñģ
Ø§Ø ¨
a j
Ġbut t
Ġt une
cop e
m ant
Ġconcess ions
Ġmic he
Ġredd it
Ġur ges
âĢĵ âĢĵ
Ġmont real
Ġcapital ize
ÙĬ ÙĦ
Ġanonym ous
Ġhershe y
ifi able
Ġendors ed
cor p
Ġt il
Ġl anka
Ġsm oking
Ġimmigr ant
Ġwai ver
w at
Ġpot ent
t v
at tered
s ider
Ġs v
Ġignor ance
Ġcontempor ary
Ġinv is
Ġcur t
Ġrecomm ending
Ø§Ø ¡
Ġm acy
ks w
Ġsi em
f ed
ment ation
Ġ15 2
Ġjerem y
Ġst ef
p en
an on
Ġdou gl
Ġautom aker
Ġbat tered
Ġles ions
ÂĢÂ ¦
Ġdil em
Ġt ong
ors hip
ming ham
Ġup hol
Ġprep arations
a un
Ġnot ification
Ġb acks
Ġparam ount
cept ions
Ġembr acing
t our
Ġv iv
Ġgu ards
Ġsp at
Ġstand point
Ġmunicip alities
Ð¸ ÑĢ
Ġm its
Ġmor oc
Ġreflect ion
f p
work ers
Ġmar g
mort ar
Ġcr af
Ġsupp lied
Ġsol ving
ant icip
Ġent ers
Ġune ven
Ġris hi
Ġback up
Ġresil iency
Ġp g
Ġa ston
Ġattract ing
Ġling ering
Ġb og
is ations
Ġ18 3
f urt
Ġam p
Ġpoly mer
tim ore
is k
Ġpl aint
Ġb icy
Ġl end
Ġf p
Ġdex amethasone
Ġle ic
Ġcle arer
Ġr ivers
Ġgre ens
Ġr ah
Ġpl ague
ĠØ ±
en ergy
se ct
Ġrena issance
Ġcush ion
Ġreconcil iations
Ġsatell ites
Ġdisch arge
Ġbo ats
Ġsettle ments
Ġboyc ott
al o
Ġe ighth
Ġnet anyahu
Ġconcentr ations
Ġ( )
Ġreal ise
Ġtermin als
Ġguine a
Ġloc als
Ġfat ality
Ġtr ibute
Ġpr inted
Ġlapt op
Ġinv ite
Ġwis hes
Ġc ave
am os
Ġne lson
cent ury
usal em
Ġj ury
n ote
Ġv id
Ġexp ired
Ġglas gow
Ġanaly sed
ish a
Ġexhaust ed
Ġ15 3
Ġie a
Ġaap l
n ation
Ġdown s
Ġadministr ator
Ġcorpor ates
Ġtrig gering
Ġcomm issions
Ġneighbour s
Ġ18 5
Ġcorrect ly
Ġ14 9
Ġyork ers
Ġconfir ming
Ġsemiconduct ors
Ġscal able
l ation
ur ities
if rs
Ġw to
it iveness
Ġexp ands
Ġcreat ors
Ġexam ining
Ġgo og
Ġfr iction
Ġserv icing
ot hy
Ġadapt ive
Ġme ga
ail able
Ġ15 6
Ġadvert isers
Ġten ure
Ġcle veland
Ġremind ed
r ated
Ġopen ly
Ġdevast ated
Ġen emy
Ġschedul ing
bl ue
e ast
Ġnic he
Ġbo ot
Ġnon profits
err ane
Ġcollabor ating
Ġrep ur
r ac
Ġso f
Ġden ver
Ġsmar ter
Ġdr af
Ġker ry
Ġwor sen
Ġ16 2
Ġsyn ergies
f ive
t el
Ġmeas les
Ġbottlenec ks
ut o
Ġacc using
Ġperform ers
t imes
ia ge
Ġaug mented
Ġimpair ments
Ġshould er
Ġalign ment
Ġmotiv ation
Ġvoc al
Ġhotsp ots
Ġpractition ers
Ġb ren
Ġl ap
Ġdef ines
Ġn d
Ġexempt ions
c our
act ic
Ġdisse min
l ings
Ġred es
Ġcaf es
a ired
Ġexpos ures
Ġvigil ant
Ġinc on
Ġunf avor
Ð¸Ð ²
Ġdiplom ats
ih ad
oc ard
Ġstr ive
Ġreproduct ive
ke ley
Ġsp ut
Ġprep aid
Ġchair s
ster dam
Ġover look
Ġgr iff
Ġlincol n
Ġmag net
Ġst armer
Ġ6 50
app er
Ġ15 1
Ġhuge ly
Ġreal ised
Ġesp n
Ġover weight
Ġclos es
Ġper o
Ġbir mingham
m ers
Ġsocio economic
Ġs ends
Ġon shore
Ġvit amin
Ġpep per
Ġs ont
Ġche ng
e ven
e ared
Ġr dquo
Ġun anim
y e
Ġb ac
op les
Ġpra ise
w age
Ġb om
Ġallev iate
Ġ Õ
Ġwo es
Ġ& !
Ġho ly
e an
Ġcontin ental
Ġpent agon
Ġchel sea
Ġdemograp hics
n ame
iz u
aff ected
ero on
Ġst all
3 50
ok a
ag a
Ġdeb ates
Ġadapt ation
Ġinst ability
ksw agen
Ġ ÙĨ
Ġautom obile
arch y
Ġc io
Ġmedit errane
p ur
ident ified
Ġmit chell
Ġgre y
arth y
Ġn m
Ġinc om
Ġpl ain
Ġcompet itiveness
Ġkro ger
Ġ15 7
Ġste al
Ġspon sored
Ġn ap
Ġn athan
Ġhospital ised
Ġhud son
Ġout right
Ġclin ically
Ġhol istic
norm al
Ġde lo
Ġr uth
Ġstadium s
ave l
Ġsp ear
Ġg ou
imb ab
c am
Ġan alog
Ġsuccess or
Ġi h
Ġpay ables
Ġst ack
Ġres ched
Ġstuff y
Ġm ik
Ġbl ank
Ġsell er
Ġbal timore
Ġshop ify
Ġcycl ists
Ġimpe achment
lo ss
Ġseat belt
Ġtraff icking
Ġintens ified
Ġtow ers
Ġa ur
Ġsp ell
Ġpessim istic
Ġzucker berg
p id
Ġupd ating
Ġfisher ies
l inary
ad h
Ġcor on
20 25
Ġcub a
un ting
ap ing
Ġreg ret
imbab we
Ġcom cast
Ġsa ge
Ġins iders
Ġche ese
Ġpro lif
g ments
Ġvi ability
Ġton ne
Ġshe er
Ġmater nal
Ġpredict able
Ġad en
Ġconcentr ate
l ib
Ġprep ares
Ġpolit ician
Ġb ache
Ġnon essential
Ġtel es
Ġ15 8
Ġwa ited
Ġtradem arks
a Ã§Ãµes
Ġg mb
Ġcon vey
con tr
Ġreve aling
Ġro gers
vers ion
Ġmas king
f uel
Ġt iger
Ġth rew
Ġentire ty
Ġbanc orp
Ġp se
Ġp ink
Ġfl are
Ġundert akes
Ġg el
Ġconf ed
ann y
Ġforth coming
ins ight
Ġelect ive
am an
ãĥ »
Ġmain e
bu ying
br and
Ġreck oning
Ġanticip ation
Ġdj ia
Ġsh y
Ġgr ief
Ġfacilit ating
o ce
Ġg ill
cl aim
han e
Ġpalestin ians
s i
Ġmet ab
Ġtherm ometer
Ġrep atri
Ġim arc
Ġfoot wear
Ġdisinfect ant
Ġoccas ions
Ġrich ards
Ð¸Ð º
Ġinquir ies
Ġand ers
ish i
Ġdep ot
do or
Ġwithd rawn
l t
Ġk g
Ġperm ian
Ġprecaution ary
Ġ23 1
Ġpromot ional
pr iv
Ġport able
Ġv c
Ġmar ijuana
Ġburn s
Ġdougl as
Ġj uan
oun ce
ass ed
Ġfit z
Ġcondem ned
rom ised
Ġemail ed
Ġfort unate
Ġmerch ant
Ġtort ure
Ġen act
ump h
Ġfrag mented
Ġpo ison
Ġrep lied
Ġbiopharm a
Ġthe ore
Ġnew er
Ġframe works
Ġfeas ible
ven cy
Ġcomb ines
Ġbal lo
Ġmoham med
Ġless er
Ġover crow
Ġinfluenc ers
Ġsent enced
i q
aw k
as ian
Ġbe ars
int ensive
Ġrev ision
Ġdomest ically
Ġin ception
Ġh anging
Ġth ick
k g
Ġpe oples
oc a
Ġlong standing
Ġred emption
Ġtroub led
in qu
Ġto e
Ġdisadvant aged
Ġinter ruption
Ġhyp ert
Ġlop ez
j pg
por ous
n ut
Ġme adow
and ez
Ġch in
ile y
Ġrep r
Ġpit ches
Ġpriorit izing
1 25
Ġtroub les
Ġrefr iger
gre ens
ib a
Ġreal ities
off ice
Ġeth an
Ġundert aking
Ġt ale
os ition
Ġunreal ized
Ġuphol stered
s ky
Ġgl ax
Ġbrill iant
Ġgun s
Ġstaff ers
Ġmiss ions
Ġacademic s
Ġray mond
Ġfound ations
Ġpetro chem
Ġ ÑģÑĤ
Ġfar mer
invest ors
Ġp ued
Ġble ak
Ġreferend um
Ġpsych iat
Ġmcc arthy
Ġcirc ulation
bu y
Ġcas inos
Ġhor ror
down s
Ġhur ting
Ġindivid ually
Ġe cl
Ġ Ä
Ġde forestation
Ġsw abs
st ated
Ġsin uses
Ġfrank furt
1 000
ed a
Ġkaz akh
Ġl iz
ast ian
Ġdiv or
Ġphilos ophy
Ġgent le
Ġp ensions
âĢĻ :
anc ers
Ġlif es
Ġbar rett
lie b
Ġam sterdam
Ġcommunic ating
Ġot c
f u
Ġw rest
ans a
Ġdirect ions
Ġmem br
Ġview er
Ġamid st
Ġuns afe
Ġsleep ing
our ce
Ġche f
Ġship pers
Ġtum or
Ġco in
Ġrelig ion
c amp
w ed
Ġlo ose
Ġcongr at
Ġcg d
Ġinval uable
h ong
ass oci
Ġtheat res
Ġderm at
Ġfil tration
Ġconglom erate
Ġsal ons
Ġattack ing
Ġw yn
Ġbroad way
Ġq anon
Ġg ambling
Ġem ission
Ġjour neys
Ġstream line
heav y
tr ust
Ġindirect ly
inf ected
Ġmediterrane an
Ġn im
Ġwe ights
35 1
Ġcap ped
Ġfire fight
Ġhonest ly
oc omp
Ġdist anced
Ġnote worthy
Ġl omb
Ġexplicit ly
Ġdec ree
Ġbrief ings
Ġne u
Ġa is
Ġw er
000 1
Ġexist ed
Ġad here
Ġlyn ch
Ġhe al
ich annel
ile ver
Ġinc arcer
Ġtable ts
Ġmit igating
Ġcompens ate
Ġtal ented
Ġhim ss
Ġpap ad
Ġcour age
Ġ16 1
Ġenfor cing
Ġsear ches
Ġintim id
Ġcambod ia
s ens
Ġquant ities
Ġcamp uses
Ġad he
Ġsour ced
Ġflow ing
oph ob
lud ing
Ġ15 9
Ġport ray
c los
h all
Ġr anges
Ġenv ision
Ġapart ments
Ġm ig
Ġinc isive
Ġcent uries
Ġeg gs
Ġro th
cut ting
Ġexact ing
Ġrid ic
et itive
Ġqu o
h in
ov ac
Ġcrunch base
r ons
Ġmicro scop
pa rents
Ġinvestig ational
Ġdesk top
Ġun v
Ġsim ulation
ane ous
Ġconsist ing
Ġtas ked
Ġnon porous
Ġosc ar
Ġline up
Ġk iss
Ġworld s
Ġmeasure ments
m el
Ġbar ry
Ġclar ify
Ġcr aw
Ġab er
ick ed
Ġexp iration
Ġ16 3
anticip ated
Ġ16 4
g reen
Ġingred ient
Ġandre a
Ġcoat ings
Ġalloc ate
Ġglobal data
Ġhigh way
d ings
Ġcon greg
Ġ17 4
Ġ17 6
Ġgott lieb
Ġj av
Ġadvance ment
Ġweak ening
Ġpsych ology
Ġbiolog ics
Ġtr ac
ha o
Ġskept ical
g ree
Ġvac u
Ġhe ath
uk i
compan ion
Ġhe mp
Ġmod ular
j ones
str uction
ar med
Ġtur b
Ġblan ket
Ġlegend ary
Ġwal ensky
Ġreplic ate
Ġthrough put
Ġrandom ised
t ier
Ġ19 34
Ġple ather
Ġresp ected
Ġes c
at l
Ġbr ady
Ġwar p
Ġreco vers
uc ci
Ġst ir
Ġwhe els
Ġz imbabwe
Ġproject ion
Ġturn out
aut h
Ġsurger ies
infl amm
Ġcent ered
Ġ18 1
Ġthom pson
en ia
Ġm Ã©d
te x
Ġnic kel
Ġlapt ops
ch arge
Ġcl iff
Ġcontin ually
Ġattack ers
Ġnom inated
ĠÙĦ ÙĦ
Ġpl ung
Ġhun gry
Ġengine ered
Ġshock ed
Ġattribut es
Ġ5 50
Ġassist ed
Ġjer usalem
h ops
Ġa o
Ġhe ter
ocol lection
appro ved
astr azeneca
Ġmo z
Ġattor neys
Ġswit ched
Ġpu erto
Ġpron ounced
Ġcurrentvide ocollection
Ġl uf
Ġdec or
Ġform ing
Ġny c
Ġco ping
Ġpropag anda
r at
Ġprev iew
Ġrecogn izes
Ġeg g
Ġnon interest
Ġtax able
Ġsust aining
Ġdeterm in
Ġste wart
Ġmamm oth
Ġro ver
Ġmaster card
n ie
Ġnin th
Ġret al
Ġu ci
ument ed
Ġhug hes
Ġdelo itte
Ġke ys
Ġke mp
Ġhour ly
ÙĪ Ùħ
ur i
Ġconsult ations
Ġinvestig ator
Ġescal ation
quarant ine
it ting
Ġlay ers
Ġinf opro
Ġren ters
p x
anc o
me as
Ġpet ers
Ġb il
Ġappropri ately
and e
Ġpar ade
Ġlib or
Ġwithd rew
e val
hy th
Ġcharacter ized
Ġcompound ed
f ile
Ġ ï¼
hab i
Ġg he
Ġst aged
Ġten ant
th a
Ġexerc ises
ting u
Ġ16 9
n cov
Ġisol ating
cons olid
Ġtul sa
Ġcomm em
Ġhu ang
ic ated
st orm
Ġvol kswagen
Ġcur ric
Ġreserv ations
Ġinc ur
ple te
Ġanticip ating
Ġhel lo
Ġload s
Ġleic ester
Ġregard ed
Ġcosmet ics
Ġth romb
ub er
Ġr az
Ġstockp ile
Ġaffir med
resil ience
m ad
Ġmon ica
Ġex tingu
Ġthr iving
Ġcy t
Ġpopul ated
m other
Ġimp lies
Ġprop oses
ah a
Ġtrick y
Ġexport ers
hig hest
Ġimm ers
ĠØ§ÙĦØ ³
Ġs b
Ġbe re
Ġfrank lin
Ġnich olas
Ġexc itement
Ġf its
Ġarchitect s
Ġint u
Ġher ald
Ġcar l
Ġphr ase
k ok
Ġp ir
th ansa
review ed
Ġal bert
Ġnegoti ated
ub a
Ġcr ipp
Ġchar lie
Ġpublis hers
Ġrehabilit ation
Ġre ed
Ġciv ic
Ġch adox
Ġum a
Ġo br
Ġron ald
f are
Ġcast le
Ġbrid ges
Ġdatalayer news
Ġpark er
Ġsl ash
s ah
Ġall erg
Ġvo y
Ġinsure r
Ġn ous
ag h
Ġb itter
Ġ16 8
Ġden ial
t d
om inated
Ġz inc
dr iving
Ġign oring
arn ished
r ical
Ġup ended
Ġar am
Ġessential s
Ġchrist ine
Ġstraight forward
Ġwid ening
p ayer
Ġco le
Ġthr illed
Ġassist ants
Ġh in
Ġal s
Ġgal ax
Ġanch or
n ia
å ľ
Ġc us
Ġpro port
Ġj abs
Ġreass ured
Ġinherent ly
g m
Ġr hod
Ġinvis ible
Ġm ak
ir avir
ip e
Ġaver aging
f arm
Ġs q
Ġsp ill
Ġsign aling
Ġf ost
Ġsan ction
Ġwip ed
Ġunv arnished
h aven
Ġd habi
Ġjo el
Ġconsum ed
Ġve t
Ġhend erson
f il
ar ms
ess ing
Ġpos itives
Ġinform ing
Ġcomplim ent
l ondon
Ġacc idents
cap ital
Ġcryptocur rencies
Ġad obe
Ġrec lass
Ġbelg ian
Ġch r
Ġge off
ant es
Ġswe ep
Ġcha otic
Ġruss ians
Ġdeal er
Ð¸ Ð»
Ġcurbs ide
art a
Ġ23 5
Ġinstrument al
stre et
ig m
port ed
Ġtem p
Ġpres cribed
ur as
Ġli ked
Ġcult ures
Ġunlaw ful
Ġsy mp
im o
Ġem ily
Ġber keley
Ġunfavor able
Ġs ulf
Ġvacu um
al ph
Ġm old
un gen
Ġhepat itis
Ġpled ges
Ġ16 6
Ġ17 7
down load
Ġref ined
Ġrece ipts
Ġmac au
Ġfle w
Ġdiscoun ted
Ġpreced ent
Ġf ren
Ġcan cers
Ġ16 7
Ġstress ful
Ġend less
Ġfil ming
Ġspace craft
Ġsever ance
Ġaccount ants
Ġminim ise
ic ia
Ġun ilever
Ġcar ter
Ġi ag
Ġsc ams
mar ked
Ġstabil ize
Ġforgot ten
Ġre acted
Ġse ating
Ġgr up
Ġr ib
Ġreg imen
Ġemerg es
Ġincent iv
Ġcytok ine
Ġimmun ogenicity
Ġfid el
Ġambul ance
Ġphill ips
Ġy am
ul um
qu arters
Ġflood s
Ġreal ty
Ġwis dom
Ġentr ance
Ġhear ings
Ġsem ester
Ġshow c
Ġbre tt
Ġdesign ation
Ġresum ing
ĠÄ ĳ
t ol
Ġpay pal
Ġo z
le b
Ġev ictions
d ia
Ġtable t
Ġlin ear
Ġbo fa
Ġrom ania
b log
Ġ28 0
set t
Ġworkflow s
Ġstr ained
Ġwebin ars
Ġcomorbid ities
Ġint ake
Ġdisp ens
Ġinterpre ted
Ġch rome
Ġsh ir
anc er
Ġh d
Ġn ico
op ec
Ġgam ble
t n
Ġk pmg
Ġleg s
Ġsuggest ion
Ġpreced ing
Ġhol mes
Ġs ut
Ġacceler ator
Ġam d
Ġfraud ulent
cl oud
Ġconting ency
i u
Ġhomeless ness
s pect
Ġl an
Ġlet hal
rec ord
Ġstig ma
Ġs ued
Ġmas ked
Ġconvers ational
Ġpand emia
Ġ17 3
Ġrh in
aff ir
i em
Ġcons ulate
int o
Ġsal ud
Ġdedic ation
Ġbarg aining
Ġun ite
Ġphys ics
Ġhesit ant
val ued
Ġanne x
se cond
Ġhel m
iz umab
Ġmy st
Ġpolit ic
Ġmid day
Ġpit ts
Ġhypert ension
Ġcl ots
wid th
Ġp are
or ig
Ġnew est
Ġin hab
Ġche er
Ġ18 2
Ġb one
Ġsc ienced
Ġstap les
Ġout fit
est op
Ġtechn ically
Ġcapac ities
Ġunique ly
Ġoccup ational
Ġdefic its
Ġsque eze
Ġnightm are
Ġgr ain
Ġ17 1
Ġdecl aring
Ġtem ple
Ġwith stand
Ġhon our
Ġinsp iring
Ġverd ict
ment ioned
Ġdisapp eared
Ġj p
ĠØ¥ ÙĦÙī
Ġc ac
r c
t ics
w au
Ġcampaign ing
Ġfit ch
Ġcyberatt acks
ac ular
Ġco aching
Ġexplo itation
Ġafford ability
Ġg ren
ou ch
ĠâĢ ķ
Ġover head
Ġmay o
Ġtransform ative
Ġgp i
oce an
Ġc ed
Ġorgan ize
g t
otyp es
Ġsing ing
put ed
Ġem ma
Ġbail ey
Ġh ac
enc er
Ġimmun isation
Ġj ar
Ġcost co
Ġg em
ÑĤ Ð¾
Ġwel coming
Ġpse ud
Ġpapad atos
s ubs
p ub
Ġhe els
Ġdiscuss es
Ġliter acy
Ġscienced aily
ol ved
Ġfore going
ĠÂ Ń
å Ľ
Ġconstr ained
aw ays
Ġtext ile
Ġgall ery
Ġlobb ying
Ġg an
Ġpost er
Ġdan ish
Ġdatas et
Ġy ards
Ġcontent ious
al g
is en
ac re
Ġjust ified
Ġviol ated
cd n
Ġtu ition
Ġsc oring
Ġinter oper
Ġsl im
Ġlomb ard
oc c
19 3
ob il
Ġdist ort
Ġnorm ality
dog an
it ous
Ġ19 18
Ġcol ored
Ġconcer ts
Ġ18 4
Ġgh ost
et ic
Ġwr ight
Ġoutsour cing
f ish
Ġy oga
Ġinv o
k k
hing ya
Ġbul g
Ġd s
ke le
Ġexecut ing
Ġgmb h
Ġn ast
ur b
Ġwe chat
Ġcor d
Ġcontribut es
Ġhe in
sec ure
¬ ģ
Ġeng l
Ġtreas uries
Ġsam uel
Ġb ent
Ġle aked
Ġconf used
Ġfight ers
Ġprev ailing
Ġic c
Ġtap ering
Ġb am
20 2
Ġed in
Ð¸ Ñĩ
Ġscre ened
Ġbuff er
wau kee
a ver
Ġtransform ations
1 10
n j
Ġaud itors
Ġfing ers
Ġch ad
qu er
Ġcy n
last ing
y m
Ġca uc
Ġ20 6
Ġsupp ression
Ġfulf il
Ġresol utions
Ġluf thansa
Ġp ile
Ġinf usion
s ub
Ġnext vide
Ġplayer instance
Ġj imm
Ġpercent ages
l at
u ar
Ġo st
can ada
Ġcp i
p es
Ġun m
Ġgen omic
Ġill um
Ġsn acks
Ġshap ed
k t
Ġf ont
Ġexplo red
Ġric hest
Ġcam eroon
Ġtear s
h ua
de al
Ġdecentral ized
Ġa uss
le m
Ġwal ter
ar ious
Ġj ans
Ġcautious ly
Ġhospital isation
Ġcohort s
Ġbah rain
up date
Ġj um
Ġjust ices
hr an
Ġtrag ic
Ġfor bear
Ġd rought
Ġpus hes
Ġmole cule
astro us
Ġsequ ences
j uly
Ġun r
Ġun equ
Ġtrave lled
Ġrap e
Ġs ic
Ġvi enna
Ġindebted ness
Ġdef ect
Ġc em
ÙĬ Ø¯
Ġchem otherapy
. ;
ia h
Ġneurolog ical
m or
Ġins ulin
Ġc els
Ġtr illions
Ġplay book
lear ning
Ġc ec
Ġryan air
Ġp ix
Ġvar ies
Ġpress es
Ġmult if
d h
Ġ ida
Ġaver ages
Ġe f
Ġop pose
ugh ters
perform ance
Ġhun ter
Ġburn out
Ġover turn
Ġep it
Ġh ier
Ġcentral ized
Ġenvironment ally
Ġmun ich
Ġh se
Ġbattle ground
Ġest Ã¡
Ġdis astrous
Ġhal ting
Ġda wn
Ġpopul ist
ĠÐ¾ Ð±
ind ex
Ġden nis
foot er
ing es
Ġr ico
Ġspec ify
Ġpe pt
Ġide ally
r io
Ġl ut
c os
Ġanaly se
Ġflow ers
Ġinequ ities
Ġlon eliness
Ġteam mates
cont rol
Ġfrustr ating
Ġo sh
Ġpay outs
Ġfuel ing
Ġemb arr
Ġwitness es
Ġprosec ution
Ġz ip
Ġpull back
id ades
Ġup front
Ġback b
Ġmiss ile
Ġbrow se
Ġappear ances
fig ure
Ġre ar
Ġ18 8
Ġtransl ated
Ġhel en
Ġcon go
Ġforecast ed
× ĳ
Ġoutwe igh
it ar
Ġvictor ian
Ġass ure
Ġiniti ate
Ġer dogan
Ġsurround ed
Ġcorrespond ent
Ġcontin uation
Ġinteresting ly
Ġwal greens
Ġyoun gest
Ġke ith
Ġexpress ly
Ġnewsp apers
Ġevac uation
ir ut
am ble
Ġdi arr
Ġoverse e
Ġforest s
Ġrecall s
Ġsacrif ice
h ard
Ġse al
Ġscr atch
c at
n ity
Ġfor bes
Ġtelev ised
Ġslam med
ang o
Ġshock ing
Ġrest ored
Ġcompet itions
Ġimmun ocomp
Ġend uring
Ġath lete
Ġrepurch ases
Ġc ig
Ġm h
Ġm err
Ġ19 89
6 17
Ġchalleng er
Ġlack ed
Ġmix ing
k an
Ġ21 5
Ġw an
Ġcor ners
Ġint imate
s y
Ġtr ucking
Ġsh aw
Ġcomp at
Ġrest oration
Ġju ice
Ġarbit r
Ġ ue
Ġst u
Ġ18 9
sh ine
Ġn ue
Ġoppon ent
am az
Ġfun ny
Ġsovereign ty
Ġarth ritis
g io
op oly
Ġ3 30
Ġlib r
Ġexhaust ive
ful l
Ġbir x
aw i
Ġsupply ing
sah aran
l ive
un ivers
Ġdisrup ting
Ġgard ens
Ġcouncil s
Ġrefin ancing
Ġimp ressed
Ġdisappoint ment
Ġrefin ers
Ã± o
Ġt c
Ġf d
Ġle af
Ġpat ience
iv ation
Ġcol ors
Ġtr aba
Ġrep ly
Ø§ ÙĤ
bid en
democr acy
Ġem ea
Ġbo ast
elect ric
Ġem a
Ġ18 7
Ġ17 9
Ġped est
on c
Ġmy ocard
Ġconsum e
Ġteen agers
Ġexp ose
Ġgon z
Ġp av
ij i
Ġrobin hood
Ġshort ing
bo ards
Ġvis itor
Ġcub ic
Ġcels ius
Ġam en
Ġlo aded
Ġacknowled ging
f acing
Ø ¸
Ġs ons
Ġlast ed
Ġpromot es
ÃŃ n
Ġap ol
Ġtop ping
Ġtax payer
Ġf iat
Ġto k
Ġv ic
ant as
Ùĩ Ùħ
Ġdefend ants
Ġunder pin
Ġcree k
Ġd wind
c lick
t m
Ġbr y
Ġsan k
ord ash
Ġsurge on
Ġstephan ie
Ġoversh adow
Ġh orn
tr ade
r ah
in um
Ġp ave
Ġk ol
Ġcontract or
Ġunve il
Ġrit ual
t ically
Ġd w
Ġmeadow s
Ġf oc
Ġcl ash
Ġben nett
Ġange l
Ġdes ired
lab el
Ġbe g
Ġparaly mp
Ġr as
Ġmarket ers
Ġref usal
Ġra f
Ġnight cl
fam ily
b lic
Ġ umb
ch ool
ap news
Ġset back
Ġmod es
Ġquiet ly
Ġf erg
Ġdeliber ately
Ġcoco a
if ier
Ġpr adesh
Ġ ë
Ġmil waukee
Ġre ag
Ġl amb
Ġschool ing
Ġ20 5
ograp hic
f x
Ġtax i
ac ity
Ġbread th
Ġbrit ons
Ġarr ives
ot iation
Ġcreat or
h as
Ġw ag
Ġro ster
Ġ8 50
Ġir re
Ġvo iced
Ġbub bles
Ġh orm
Ġy ard
Ġtit an
Ġfu j
Ġt ape
ur ry
Ġend emic
Ġwed dings
Ġcommerc ially
Ġsanit ize
ment o
Ġpass ive
Ġboard ing
Ġearthqu ake
Ġk ish
Ġass ays
Ġbl ink
cons um
Ġm end
in arily
Ġro g
Ġconf using
k line
Ġm ish
Ġinter fe
Ġrest ated
bl ack
Ġflav ors
Ġlog in
Ġpump s
Ġflag ged
Ġn erve
id i
eng ine
Ġjul ian
Ġunw illing
Ġl amp
Ġcommit ting
Ġwaste water
Ġsuspect s
Ġunav ailable
88 3
Ġdatab ases
n ell
Ġp on
res ist
Ġdon ating
Ġ17 8
h ave
Ġv at
Ġro hingya
ÃŃ an
å ¤
Ġgreen back
Ġst ell
Ġk as
Ð¸ Ñħ
n ob
Ġf Ã¼r
repres ented
Ġforg iveness
Ġf s
il der
int ro
Ġgam estop
Ġdiss ent
j ani
af p
Ġimp ris
Ġstrateg ically
Ġtar iff
Ġfeas ibility
Ġevalu ates
Ġlo ves
Ġ18 6
Ġpill ar
Ġr f
Ġreg ain
Ġhall s
Ġlu ke
Ġse as
Ġmar vel
Ġcr ashed
Ġch ol
Ġco d
Ġreinfor ced
Ġunders erved
ev ents
Ġrefin eries
Ġargent ine
a verage
Ġsl ides
Ġpack aged
mb tu
Ġconsist ency
s ars
Ġ} ;
Ġstat ue
dig ital
g age
Ġm uted
ac her
Ġout ages
Ġste ering
Ġep a
Ġlag ging
Ġque ue
or ns
Ġrecre ational
Ġsw ings
Ġrein fect
Ġkazakh stan
road s
Ġlu is
Ġinhib itors
Ġhas ht
Ġdis mant
Ġtype of
ust ed
Ġover ly
Ġins ol
Ġmat urities
Ġcast ing
Ġexceed s
Ġcater ing
Ġins ists
Ġha iti
Ġemb ar
osm ith
4 16
Ġth orn
Ġver ge
Ġbo ots
Ġpassion ate
ĠÃ©t Ã©
rx iv
+ .
Ġmar co
Ġz hao
Ġhol land
Ġcomb inations
lif ting
bour g
Ġastronaut s
Ñ ĸ
Ġpitts burgh
e uro
Ġto ken
ic it
20 17
Ġ19 3
Ġ| |
st ic
Ġte hran
Ġreopen ings
Ġind ians
ec k
Ġweek ends
Ġpar cel
Ġb ach
il ia
Ġh over
Ġ20 4
osmith kline
Ġan ecd
Ġinc omp
ant i
Ġapp li
Ġscr apped
p ot
Ġcas s
ov o
Ġc atherine
Ġn go
ir able
ab ad
Ġspr aw
Ġse ize
Ġvalid ated
Ġcompr ise
Ġjimm y
Ġy a
Ġform ulation
Ġvolunt arily
Ġedin burgh
Ġf ca
Ġsch w
Ġbar n
Ġcomment ing
step s
Ġpro min
Ġi pos
Ġaz ar
Ġhelicop ter
Ġwitness ing
Ġsucceed ed
Ġa est
Ġth irty
Ġ19 2
Ġ23 7
Ġ199 4
im ents
Ġpr one
Ġrecru ited
ard e
Ġman us
ĠØ ¯
Ġn ail
Ġbro s
Ġseg reg
Ġoverse eing
Ġtoler ance
Ġinn oc
Ġcol in
af ety
+ ,
Ġy ale
Ġmon ument
Ġ19 4
Ġkill ings
Ġgif ts
ow s
Ġfir ing
id al
Ġeurope ans
Ġred field
Ġoverse es
appropri ate
l ich
Ġrev ival
Ġme ghan
Ġimp aired
Ġdirect ive
Ġfavour able
Ġby pass
ch ar
inc luding
Ġper ipher
Ð» Ñı
Ġow ed
Ġj py
Ġprocess ors
Ġextr action
Ġprefect ure
Ġgrat itude
threat ening
Ġg owns
Ġprev ents
Ġguid ing
Ġlic ence
Ġobstruct ing
ay an
th ree
Ġinacc urate
Ġsusp ic
Ġdistribut or
Ġbe loved
ust ainable
Ġvp n
er te
w as
Ġh ailed
Ġrequest ing
Ġbi en
Ġfair ness
w i
â Ĥ¬
Ġm uc
Ġbuy back
Ġquant ity
Ġbern ard
Ġnest lÃ©
Ġsupervis ory
Ġma id
Ġtrip led
å ®
app o
Ġre eling
Ġprotest ing
ĠÐ½ Ðµ
it ated
sp ace
Ġampl ified
Ġforbear ance
ed uc
Ġstand still
pinned view
consolid ated
Ġmod ifications
Ġsmall est
Ġ27 5
Ġserb ia
Ġselect ive
Ġl ump
n as
Ġs ich
Ġ19 50
Ġdef aults
Ġdi jo
Ġlog ged
Ġimmun ology
ÐµÐ º
ard ed
Ġ ud
Ġhapp iness
Ġrhe umat
Ġfeder ally
Ġd osing
Ġinter f
Ġ21 3
f un
ag ger
f ired
Ġb s
ad ition
Ġnomine es
Ð¸Ð ·
h ift
Ġdist ressed
Ġda ughters
Ġsal iva
Ġd p
Ġoutperform ance
Ġinf ant
in ch
Ġl akh
Ġnet s
Ġto ys
Ġrecip e
Ġ Å
Ġstand alone
Ġseason ally
develop ment
127 3
ert y
Ġplat inum
l r
Ġst ip
Ġsuccess ive
Ġrespect s
b bl
Ġmy ri
Ġadminister ing
Ġout dated
Ġliqu ef
Ġs ang
er ie
Ġrent als
Ġjun k
Ġomn ichannel
Ġre affir
us able
10 16
Ġtroub ling
Ġpr Ã©
ok en
Ġfr ight
Ġaccompl ished
it as
Ġny mex
1 30
y ang
Ġproduct ions
iÃ¨ re
a ments
od ed
Ġmeta verse
ay ed
Ġtime frame
Ġcapital ized
Ġfidel ity
f iles
Ġg b
Ġor g
Ġout line
or ia
Ġre election
Ġoper a
Ġmaj ors
Ġsurv iving
amm y
Ġimmunocomp romised
Ġ19 1
Ġinstruct ed
Ġopio id
Ġsl ot
Ġsynthe sis
Ġcl ashes
Ġdefer ral
ul ates
j j
Ġl or
Ġlow e
Ġ19 8
m ov
ad ded
Ġcolumn ist
Ġcompliment ary
m ember
Ġpun ish
us a
Ġfin n
Ġmet e
c iÃ³n
Ġg astro
Ġsin ovac
Ġp umm
app le
Ġbroadcast ing
Ġh inder
ig ious
Ġk os
Ġce iling
Ġmus icians
Ġn z
Ġident ical
Ġunfort unate
Ġs ara
Ġd ancing
20 1
Ġactiv ated
Ġeasy jet
Ġsun shine
Ġroyal ties
b in
Ġ20 7
Ġal ien
Ġneg lig
de gree
Ġtreas urer
Ã ¸
cr itical
s ome
Ö Ģ
Ġbur ger
Ġconstit utes
Ġdiscip lined
mind ed
Ġc ans
Ġh ath
ll a
Ġneutral ising
Ġeb ay
Ġundermin ing
Ġrap port
v ak
us ers
Ġwe aken
olog ic
Ġreop ens
Ġd ressed
ib o
Ġcl ou
Ġpun ishment
Ãº n
Ġcooper ate
Ġsequential ly
Ġsh ine
Ġbi oc
if ty
uct ive
Ġincorpor ating
Ġdeleg ates
Ġin activ
Ġend points
Ġfront ier
Ġw re
Ġcub an
Ġbr ave
Ġrespons ive
Ġstat istically
Ġtiss ues
f h
Ġb illy
Ġm asters
Ġbr unt
ro v
fe ld
ĠØ§ÙĦØ Ń
Ġepidemi ologists
Ð°ÑĤ ÑĮ
Ġtim id
Ġis hares
Ð¾ ÑģÑĤ
equ ity
Ġrecon sider
wal k
n up
ie u
Ġcomm enced
Ġbus iest
depend ent
Ġper p
Ġkn ight
Ġbiom ark
Ġw aning
Ġd ian
Ġmod ify
Ġquant ify
ne ut
Ġmr s
d aily
Ġno i
Ġsty les
Ġl g
Ġcomm ander
am o
Ġsens ible
Ġbm w
© ×ľ
Ġb ard
om berg
Ġj os
Ġpe aks
Ġrele vance
Ġver mont
Ġhear ts
Ġrus hing
Ġboun ced
Ġburd ens
Ġv ogue
Ġpl ag
ĠÐ µ
Ġinflu ences
Ġam er
Ġspect acular
Ġsput nik
Ġcondition al
Ġital ia
Ġam n
è ¿
Ġshr imp
p ric
Ġdo ordash
Ġweek day
Ġlif ts
Ġp he
Ġobs c
im eter
Ġsu ited
Ġf m
Ġst upid
Ġsle w
Ġz el
Ġrece ption
Ġer adic
s ol
Ġgrand e
Ġgalax y
Ġs ands
Ġes ports
Ġrepay ments
Ġincl us
Ġow ning
Ġb har
Ġret aining
Ġsufficient ly
cnn next
Ġsp ite
he id
Ġsm ile
Ġunco ver
Ġex em
Ġed wards
Ġdist ill
Ġn cov
ad ay
Ġgate way
Ġabund ance
Ġghe bre
Ġfin ed
Ġund oc
Ġfant asy
Ġp unch
ish op
Ġd ax
bus ter
Ġenzy me
Ġamort isation
Ġmont ana
Ġ3 20
Ġpur ple
ĠØ ¬
35 3
Ġcro at
f ather
Ġbe irut
Ġactiv ation
Ġ199 2
Ġtim elines
Ġrein vest
Ġsla very
ow er
Ġb mo
ur d
Ġpriorit ized
Ġsp dr
Ġi as
Ġspect er
Ġbang kok
ad ores
Ġk ash
Ġwat ches
Ġ3 40
app y
Ġlight ning
Ġapprec iated
+ +
c re
Ġk et
Ġt ube
Ġy or
Ġcance ling
Ġlivest ock
Ġh ors
Ġev s
Ġhamp ered
Ġglax osmithkline
Ġest ados
Ġrout ines
ei ro
Ġn ab
iv os
Ġl anes
gen e
Ġhamp shire
ren s
sc ious
Ġ36 4
Ġkat ie
10 2
gu ards
Ġconst ell
Ġreplic ation
Ġfirefight ers
one ws
Ġemphas ize
Ġbacter ial
Ġundoc umented
w ave
Ġhe aling
Ġr bd
Ġfest ivals
Ġmyri ad
Ġexacerb ate
Ġg d
Ġboss es
Ġse ism
Ġear ners
cul os
Ġhill ary
if iers
Ġj c
Ġsa ke
Ġcommunic ated
Ġgl im
Ġple aded
enz ie
ĠpaÃŃ ses
Ġro oted
Ġmas on
Ġturn er
Ġarbit rary
Ġsiem ens
Ġappli ances
Ġreg ression
jo y
ici ary
Ġ'' );
Ġexpect ancy
10 7
Ġcapt uring
qu est
Ġla ud
Ã± a
Ġrep ub
Ġsub way
hen ko
Ġreb al
10 9
univers al
m and
ve t
so le
Ġdec k
Ġrest oring
Ġp b
Ġfr a
Ġ19 6
Ġset up
Ġseed s
nup iravir
m ag
by e
Ġwall ace
Ġpain ting
om on
oc ation
Ġlast ly
Ġseam lessly
amm ad
Ġstandard ized
ch art
ib e
Ġdr ied
Ġassist ing
Ġatl as
Ġpure ly
Ġtent ative
m us
Ä Ľ
Ġy ellen
Ġv uel
Ġfav ored
Ġtot als
Ġ20 8
Ġbar ring
Ġky r
Ġunderperform ed
/ .
Ġspot ted
Ġterm inated
Ġeduc ated
Ġreserv oir
Ġdrag ged
× ł
Ġinter ns
Ġexhib its
an Ã§
Ġad p
austr alia
Ġthere after
p iece
se pt
Ġcl ay
Ø± ÙĬ
Ġmoroc co
Ġg ly
Ġcurric ulum
Ġset backs
Ġunexpected ly
b io
j ee
r h
ent ions
Ġhe ights
Ġhost ile
Ġc ous
3 60
Ġquestion na
Ġfurlough s
Ġdigit ization
ch ron
Ġhar vey
Ġrede em
Ġbe ast
Ġse aled
Ġunder grad
Ġhar per
Ġjud iciary
wa it
Ġha em
Ġnar r
Ġrelax ing
Ġre semb
le v
Ġl ul
Ġit m
Ġsec ular
Ġjump s
isp here
ow ing
ah an
s late
v ax
Ġmed i
Ġbern stein
Ġbiosc iences
Ġx u
Ġkir k
yes us
Ġmid stream
Ġprec ip
Ġresist ed
Ġdiplom at
s ystem
Ġp oul
Ġst om
Ġdis puted
Ġunus ually
Ġt apped
e very
m und
ach t
Ġjac obs
Ġd irty
Ġop ting
Ġsu z
Ġdur ante
Ġpil ing
f ly
h ailing
Ġprec arious
Ġe rect
Ġwh is
ant o
rec ogn
Ġcargo es
Ġgrapp le
qu ery
Ġexp o
Ġbl air
Ġnord ic
Ġadoles cent
Ġl is
Ġch al
Ġ ï¿½ï¿½ï¿½ï¿½
Ġre id
ir th
Ġmon de
Ġfintech s
Ġstu art
j our
Ð¾Ð» ÑĮ
ĠÎ ¼
Ġghebre yesus
Ġrelax ation
Ġresched uled
he y
Ġin effective
el lo
Ġmol nupiravir
m ans
× ĵ
Ġpres erving
Ġbo asts
Ġvide ocon
reg ular
Ġscr ipt
Ġl ig
Ġsusp icious
Ġke ller
Ġbl ending
Ġp pt
ent re
Ġcr uel
Ġspec ulative
Ġje well
ì Ŀ
Ġweigh s
Ġdrug makers
Ġexist ential
hr w
Ġreass ure
Ġsque ez
Ġbiomet ric
or ously
Ġcon du
Ġsp ends
Ġap t
Ġquot es
Ġcoven ant
Ġs ier
rend ra
Ġref res
ph an
Ġinf ring
ac a
Ġkill er
Ġiq r
Ġhath away
ĠØ§ÙĦ ÙĤ
Ġins ert
Ġfil med
Ġp ang
stand ard
Ġauto immune
b urs
Ġm w
Ġh ij
ich i
Ġadm its
Ġhamm ered
Ġadhe rence
our l
Ġbuild ers
Ġmult ic
Ġrhin ovirus
Ġcase y
han i
ÑĢ Ð°Ð½
Ġintr ig
rell a
Ġwy oming
Ġbr yan
Ġundersco red
Ġ31 0
Ġweb b
Ġd b
Ġjo ke
Ġnom inal
Ġcomplement ary
s er
Ġmet hane
Ġmobile pinnedview
Ġaltern ate
Ġprincip ally
serv ices
Ġwear able
Ġlos ers
Ġcollabor ators
Ġestim ating
Ġwild fire
Ġbenefici ary
Ġoverlook ed
he art
Ġd m
Ġsw aps
Ġsuccess es
Ġjul ie
Ġcyp rus
Ġf ights
Ġquarant ining
Ġerup ted
Ġende av
x i
Ġf ared
Ġne o
Ġess ence
ĠØ§ÙĦØ ¥
Ġr iy
Ùħ Ø§
Ġrad iation
he ss
Ġins isting
Ġve ct
Ġinspect or
Ġgreg ory
f if
le ague
Ġmar io
Ġoverwhelming ly
so ever
Ġbid ding
Ġteles cope
Ġinhab it
Ġinvest s
Ġborrow ed
m ir
Ġfeed s
Ġthorough ly
Ġa uster
et e
ow itz
Ġimmun os
Ġcr ashes
Ġdimin ished
associ ated
o e
Ġnonwoven s
Ġt igr
Ġd y
Ġn ons
Ġist an
Ġn ud
Ġ19 7
Ġ× Ľ
Ġinterven e
Ġine os
fl ight
Ġassemb led
Ġrecip ient
Ġg az
Ġscr amble
Ġmod ules
Ġm ph
ren a
c ock
Ġir respons
Ġpetro l
ion i
se ek
ix on
Ġassess es
Ġ× ¢
Ġadv enture
Ġhead count
Ġtoug hest
0 20
Ġtrans act
Ġsm ash
r idge
Ġ ?
Ġabb vie
t reat
Ġauth ored
Ġlag ged
face book
Ġelement ary
Ġmete or
9 17
Ġsp encer
Ġtan z
u est
Ġout lines
14 7
amaz on
Ġl ined
Ġj ag
Ġdirect ing
verse ly
hen g
develop ed
Ġblock buster
Ġanalyz es
Ġinspect ions
Ġistan bul
Ġm ong
Ġne on
Ġcl ues
uc cess
Ġcustom ary
run ning
Ġdepr ived
Ġant hem
iat rics
Ġimag ined
Ġbl end
Ġclar ke
Ġinstit uted
Ġfem in
Ġall i
Ġsub jected
Ġed gar
Ġoccup ation
Ġcham bers
Ġsch ne
found ed
als h
Ġnon controlling
Ġgrand mother
sa fe
Ġgenet ics
Ġlibr aries
3 20
Ġacc red
Ġapp la
r in
Ġdisinfect ion
Ġcurtail ed
m un
ch t
Ġout patient
Ġk inder
Ġaut or
Ġsl ate
Ġcoord inating
Ġun met
Ġglobal ization
Ġafric ans
Ġx en
angu ard
Ġjul ia
Ġsecond ly
Ġswe at
Ġconstruct ive
Ġkle in
one xt
Ġdev oted
ate ur
Ġun worthy
Ġcont end
ĠÐ¾ ÑĤ
Ġcul min
Ñ Ħ
am ation
ear nings
Ġdes erves
Ġshop per
inflamm atory
Ġun related
Ġma har
Ġrebuild ing
Ġinterrup tions
ãĥ» ãĥ»
Ġaber de
cond ition
Ġneg otiation
Ġmoun ted
o a
Õ ¸
Ġcom ed
Ġng os
Ġr idge
Ġ8 44
Ġshut ter
Ġindustr ials
wr itten
5 26
Ġend ured
Ġsm e
Ġnav igation
Ġflood ed
isol ating
Ġapol lo
t ake
ke eping
Ġover d
o ct
Ġw end
Ġch il
Ġme gan
Ġjosh ua
Ġf iction
Ġis a
Ġglass es
Ġpleas ure
Ġre yn
Ġho ok
Ġts un
Ġbol stered
Ġbankrupt cies
Ġh ood
ex ist
Ġpress ured
Ġo g
ec hes
h ours
Ġg es
Ġcan al
Ġall ied
Ġro e
Ġbet h
Ġjewel ry
n orth
id ade
Ġpr ag
Ġtop s
Ġdifferent iated
Ġthought ful
Ġoffset ting
Ġrally ing
Ġbo f
re aching
Ġundersco res
Ġnear ing
Ġsan jay
own er
Ġtake out
Ġparad igm
t ent
Ġs f
Ġun int
Ġlaw maker
Ġdeb it
Ġq antas
Ġestablish ments
Ġsound ed
Ġtransport ed
Ġna rendra
Ġand r
ur ances
Ġneed le
Ġramp ant
Ġindones ian
p ared
Ġpr iest
Ġpier re
Ġup heav
Ġcred ited
Ġobserv atory
Ġlev y
Ġbarg ain
Ġconstell ation
Ġ \
Ġend ure
ur able
Ġste re
Ġflo ors
Ġash ley
b age
Ġper ceptions
pr ising
Ġdetect ing
Ġilleg ally
Ġwilliams on
invest or
Ġde i
h are
10 6
rec irc
Ġdevast ation
t otal
Ġcl a
ound ing
Ġdatas ets
Ġmarg aret
Ġdest ro
Ġj ill
Ġmay ors
Ġvi k
Ġtele graph
17 7
Ġresearch ing
Ġtim othy
Ġes per
ra it
Ġbur ied
Ġven ice
Ġshr ank
å Ī
Ġnational ism
Ġveter inary
it ers
Ġcrus hed
com mit
Ġts la
Ġelabor ate
Ġno ble
Ġferg us
h ost
Ġpro ves
Ġhere of
Ġwid ened
fe bruary
Ġactiv ism
ling ton
Ġ18 43
Ġvast ly
Ġskept icism
) )
v or
ens ively
Ġgen omics
Ġniger ian
Ġbache lor
Ġconcess ion
Ġrelent less
6 14
Ġk yle
de v
Ġconv inc
ro sis
ef ined
Ġjan et
bi Ã©n
Ġreferen ced
i ott
Ġk ud
Ġmer ced
Ġacknowled ges
Ġhur dle
Ġsqu awk
Ġconstruct ed
Ġauster ity
Ġne arest
05 9
Ġchr ys
st able
Ġmethod ologies
Ġoutperform ing
Ġtam biÃ©n
ge v
Ġbelong ing
Ġplung ing
Ġref resh
Ġinaug ural
Ġmark ers
Ġcalcul ating
Ġrefin ance
Ġlibert ies
Ġtunis ia
y ption
× ĺ
Ġd ir
Ġv anguard
Ġk hal
Ġdefe ated
Ġencr yption
Ġth ir
Ġv or
âĢ ĺ
Ġinv itation
Ġscr amb
Ġaram co
Ġsc am
Ġrevolution ary
oper ating
Ġevac uated
Ġgav i
Ġcontempl ated
ig ated
00 2
Ġpod ium
Ġst a
Ġreb el
Ġduc hess
ugg ish
Ġl acks
Ġla und
p rom
Ġl ions
ac om
Ġreg istry
Ġbl ake
Ġell is
Ġsimpl ify
Ġps aki
Ġnorthwest ern
4 50
Ġb ass
ic he
il o
vacc ination
Ġgear ing
Ġmembr ane
Ġdu o
m ia
im on
Ġpract icing
Ġc ine
pr ints
Ġcomput ational
ber y
Ġdign ity
2 20
m oney
Ġic is
Ġnort heastern
Ġple a
Ġperp etr
ash tra
Ġafter wards
ah i
em bers
Ġcomp act
Ġnot ices
Ùħ ÙĦ
Ġmer it
Ġfle e
ÐµÐ½ Ð¸Ñı
20200 7
Ġmg m
th y
Ġbot s
bu ilt
Ġp wc
Ġn t
id ity
Ġreg imes
Ġexerc ised
Ġn Ã£o
Ġpurs ued
Ġh omet
Ġsupp lements
Ġestim ation
Ġnan op
Ġus ability
Ġentr ants
iz a
Ġhond a
Ġ ern
ro t
Ġext ensions
Ġboost s
Ġden ies
Ġnov a
Ġad han
Ġqual ification
Ġric her
Ð¾Ð º
Ġcro s
Ġ Ã¡
Ġwal let
Ġid aho
Ġaw ful
2 25
Ġl m
Ġint ang
Ġmet er
Ġje ws
fr ance
Ġnaval ny
Ġn ou
tr acing
art ime
Ġmiscon duct
n v
Ġt aked
Ġour s
Ġbl aming
Ġinaug uration
nob iety
Ġadhan om
if a
Ġab ol
Ġmy ster
erv ice
net h
stit ution
Ġjohan nes
Ġethan ol
f ind
in tern
Ġinter vals
Ø§Ø ·
Ġoccasion ally
neut ral
g c
Ġs ink
en os
con f
Ġunfold ing
Ġviewer download
Ġo at
Ġorient ation
art en
Ġpr ix
acc ord
j er
et ti
Ġwork out
Ġms ft
Ġrespir ators
bl ind
Ġt fg
Ġpen ny
s qu
Ġl asts
Ġres umes
Ġ19 64
cast le
Ġdead lines
emb ered
Ġdeliber ate
o vers
Ġab ilities
Ġk i
Ġs Ã£o
Ġman uel
Ġ21 7
Ġmass ively
Ġharris on
Ġrot ation
Ġlegit im
Ġbe ings
Ġg ur
Ġmo dule
Ġmar ie
Ġrep airs
Ġsign atures
Ġpain ted
Ġrena ult
Ġdere k
Ġadvoc ating
a que
Ġh acking
mic ro
Ġhed ges
Ġscrut in
s ites
Ġun identified
Ġcontr a
Ġmet ast
Ġrespons ibly
Ġliberal s
Ġell iott
Ġcontam ination
Ġsear ched
Ġstr aw
Ġgar cia
a it
Ġj s
ab y
Ġarr anged
Ġx box
spread ing
Ġ] )
Ġvel onews
Ġre usable
Ġtr aced
od ing
els en
Ġpract ically
Ġgl imp
Ġworks hops
Ġarchitect ural
uls ion
Ġj query
Ġbr ace
Ġsc oot
Ġwr apped
pe z
Ġzo o
Ġrevers ing
Ġsid elines
Ġbath room
Ġnash ville
Ġglimp se
Ġs cept
Ġhe fty
Ġappe aled
Ġrum ors
Ġencr ypt
m mbtu
r ise
lo id
Ġfl a
Ġ21 1
Ġviol ate
Ġscreen ings
Ġdrag on
Ġsh i
Ġsc i
Ġpaper work
Ġbehavi ours
Ġch urn
ab e
d ow
r ange
Ġqu eries
Ġste er
Ġdeep est
Ġtick ed
Ġf og
Ġper ry
w en
op eration
Ġstockp iles
Ġpoul try
ge o
Ġab stract
app s
Ġc ep
Ġj air
Ġactiv ate
Ġreluct ance
Ġfron ts
Ġmahar ashtra
Ġmarginal ized
Ġsec rets
Ġlos es
Ġstock holm
Ġconsist ed
Ġ3 25
Ġ21 4
Ġexp ires
Ġi ata
Ġfle ets
10 5
Ġgrant ing
Ġsup rem
Ġarth ur
fif th
4 15
h m
Ġdigital ization
Ġexception ally
k it
for ces
Ġt apping
Ġr c
hous ing
f its
f inal
br as
Ġdef ender
ĠÐ »
) ?
Ġop p
Ġpen ney
priv ate
Ġgood bye
Ġmet all
1 40
o ise
ag ne
Ġsocial ist
Ġhotsp ot
Ġinteroper ability
ch r
Ġsince re
in ent
Ġe ts
Ġdemocr acies
Ġsummar ization
Ġaeros ol
Ġt n
Ġin jected
Ġl aps
Ġm ism
Ġsuc c
Ġconsolid ate
atl antic
Ġin sect
b est
Ġdef errals
Ð° Ñģ
Ġrational e
f red
Ġsuccess ion
head ed
Ġaddress able
Ġsepar at
Ġfle eing
Ġtransition ing
Ġprompt ly
Ġadj acent
Ġl ÃŃ
Ġpar s
Ġreal ization
ik h
pa rent
Ġken neth
Ġsmooth ly
ian i
Ġsl uggish
Ġsent ences
brit ain
1 21
in ant
Ġk aw
Ġbr acing
Ġtheat rical
Ġuns ure
Ġs isters
ich t
Ġansw ering
Ġexponential ly
he a
Ġd ana
Ġcon sole
Ġser op
Ġtourn aments
Ġoak land
Ġfoot ing
Ġpostpon ing
Ġfab rics
Ġreins urance
Ġworld tour
Ġmor bid
Ġeld er
sept ember
æ ĸ
Ġt and
Ġj as
Ġfinanc ed
Ġcost ing
c it
in as
Ġl loyd
Ġform ats
mar king
Ġprep ay
Ġexam ines
Ġs ist
Ġl oun
pt ive
Ġuns ur
Ġfort night
Ġintr aday
Ġpersu ade
Ġemotion ally
ro ots
Ġband width
Ġluk as
Ġe lic
el t
Ġsc are
Ġaug ment
Ġmakes hift
imic rob
Ġun fore
Ġk p
Ġtem pl
Ġfu elled
l as
Ġo we
av i
ard ing
pon sored
Ġbag gage
Ġprest igious
Ġrock y
Ġle ased
Ġuns ustainable
Ġinterrup ted
are rs
im age
at ics
Ġspe eches
Ġgrand parents
Ġclou ds
Ġwar mer
Ġc x
ord inated
ends late
Ġborrow er
Ġconfig obj
Ġc en
Ġhurric anes
Ġn ia
Ġen velop
aus s
Ġut ter
Ġmax well
Ġub iqu
it us
Ġhe ather
ter ms
Ġ29 0
ard i
olit ics
Ġout er
Ġinst inct
Ġ3 70
Ġdeep ening
amb ia
Ġmyst ery
Ġorg ans
Ġk icks
Ġread ings
Ġmerced es
Ú ©
Ġclass ics
Ġ} );
Ġsecure ly
Ġfro st
Ġremind s
Ġ20 9
Ġpo et
Ġunderstand able
Ġcu ando
Ġ ict
Ġin k
Ġreb ec
Ġtight ly
sens itive
l b
Ġsal on
t ag
Ġn hl
Ġc ios
Ġr alph
Ġmet h
Ġaffir m
Ġundermin ed
Ġin h
Ġcomp liant
az ione
Ġc ake
Ġgo b
Ġprevent ative
Ġwe ars
Ġj ake
Ġaberde en
Ġphr ases
Ġseism ic
Ġin appropriate
Ġbul ls
loc ation
Ġintang ibles
ÃŃ as
Ġexplo ded
er able
Ġk ings
Ġpat rol
Ġtim et
16 0
Ġshed ding
is i
Ġy ok
Ġar ctic
str ing
Ġident ities
Ġten et
Ġstress es
Ġmanus cript
c z
Ġn ull
Ġp eng
Ġind ul
Ġtur k
Ġneut r
Ġlivest re
Ã Ł
et ta
em ies
ro us
Ġv ague
Ġrec essions
Ġtre k
Ġfort unes
Ġpermit ting
Ġantibiot ic
Ġvin cent
Ġrebound ing
v ar
Ġd well
Ġch ant
ens en
Ġbor ough
ugg ing
Ġworks hop
Ġlad ies
Ġalli ances
Ġsomet ime
Ġr age
iment o
Ġfif ty
Ġsho e
Ġp am
Ġan om
Ġl inger
Ġj ihad
Ġequ ation
Ġbank er
position ed
es se
Ġr hyth
Ġve to
Ġaff air
Ġabd ul
am ine
eff ic
Ġsou p
Ġment ally
Ġconsum ing
Ġch unk
ï ¸
Ġv ax
ren ched
Ġstake holder
Ġreass uring
her ing
Ġbid s
Ġjan eiro
Ġcooper ative
Ġdivor ce
u vant
Ġtermin ology
g ap
Ġn gu
ir i
Ġtest ament
Ġassemb ling
Ġban ner
Ð°Ð» ÑĮ
Ķ Ģ
ket t
Ġ25 77
Ġj og
Ġkab ul
er ated
Ġauthor izing
åĽ ½
resist ant
Ġtamp a
Ġamn esty
Ġl ent
ain er
Ġmarket ed
Ġsc ans
Ġkey note
Ġwood ward
Ġhond uras
Ġsier ra
t arg
âĢ ľ
Ġbe ats
Ġmeaning fully
Ġbeh ave
Ø§Ø ¬
Ġhoc key
is rael
Ġ199 1
Ġmal ign
Ġpropos ing
ÐµÐ» ÑĮ
Ġbec k
s ponsored
her ic
Ġout wards
ast e
do ing
Ġdial ing
test ing
ol ar
Ġi ps
und ai
Ġwhere by
Ġpar as
Ġ3 80
Ġshort ened
50 1
yl ene
bl own
Ġf as
Ġst umb
Ġor b
con ference
Ġsub missions
Ġprovision al
ĠĠĠĠĠĠĠĠĠĠĠĠĠĠĠĠ ĠĠĠĠĠĠĠĠĠĠĠĠĠĠĠĠ
Ġentrepreneurs hip
Ġs lop
Ġlat ent
Ġ24 5
Ġbill ing
Ġh t
k ov
× Ĺ
en ess
Ġher tz
Ġ31 50
Ġgl uc
Ġconc urrent
Ġmad uro
Ġretal iation
Ġm ouse
Ġnew found
Ġblue print
and um
Ġmagnet ic
Ġsh arma
Ġinf ants
17 4
Øª Ùħ
Ġskyrocket ed
urge on
Ġterm inate
po ke
g ary
Ġo ught
Ġcomp osed
Ġdis place
Ġwith held
og ene
Ġem it
vir al
Ġph osp
Ġ22 2
Ġnas car
Ġcat tle
Ġonboard ing
is tries
Ġun idos
od ox
Ġamoun ting
Ġcro res
Ġescal ated
Ġwinds or
Ġad hes
Ġtw ins
Ġstep pe
in fo
br aska
Ġhospital isations
ins ights
be v
Ġster il
Ġch loroquine
Ġdis reg
Ġinf lic
Ġdisclaim s
Ġfergus on
Ġinc hes
Ġide ological
Ġacceler ates
Ġbraz en
Ġtend ency
Ġbas ics
Ġ21 6
ac qu
Ġgrad uation
Ġgraph ics
up loads
roll ing
Ġpresum ably
pf izer
3 30
un ited
Ġro ose
70 1
Ġb is
00 00
Ġround ing
Ġjans sen
Ġhand ing
ÃŃ tic
Ġec ological
l it
an na
Ġge o
medi ated
ĠÃ ¼
Ġadj uvant
b lock
ust omed
Ġsw ot
Ġillustr ates
Ġch au
Ġund et
Ġeurop a
Ġh ires
Ġal ger
Ġpat rons
c u
Ġpet e
18 0
Ġdownturn s
invest ment
Ġremark ably
mex ico
Ġser ge
Ġslo vak
Ġschne ider
Ġh ir
Ġf usion
Ġas x
Ġgr ub
Ġfil ip
Ġillustr ation
Ġs izable
Ġam anda
Ġemploy ing
Ġden ying
Ġnov ak
g erm
Ġm ant
Ġ' ;
Ġben e
Ġant imicrob
Ġprep ar
Ġess ay
Ġvertical s
et hyl
Ġsw ath
Ġwel sh
cop y
Ġdim ensions
Ġinoc ulation
Ġprot otype
Ð¸Ð ¹
Ġbillion aires
min ster
Ġpot ato
Ġhoney well
Ġh iding
Ġrandom ly
em bed
Ġam assed
Ġag r
Ġcas c
Ġrat t
ament o
f d
ond e
Ġir regular
Ġinteract ing
Ġw ards
Ġco ding
Ġpack ing
Ġbreak out
cont act
p ired
Ġjail ed
Ġabrupt ly
Ġkish ida
d led
20 16
Ġ19 84
13 5
Ġ× ķ
Ġcycl ist
Ġstag n
opin ion
Ġchang er
Ġsu v
Ġren owned
Ġendorse ment
Ġb ands
le ft
Ġj azz
Ġfear ful
Ġengage ments
Ġphotograp hs
Ġobr ador
Ġm um
ak r
Ġpa ired
Ġer p
Ġmer ge
10 3
Ġincons istent
Ġl ub
Ġoption al
Ġpriorit ise
Ġiraq i
Ġtact ical
Ġn ifty
Ġrec omb
Ġproject ing
Ġadequ acy
er res
Ġo v
Ġg ad
×ľ ×
Ġturbul ent
11 7
Ġzur ich
Ġexp edia
20 30
Ð½Ñĭ Ñħ
big gest
Ġcomm ute
Ġf res
al t
Ġe hr
11 1
Ù Ģ
Ġap is
Ġspar king
it os
Ġn k
Ġpres erv
Ġemerg ent
erson ic
Ġspraw ling
Ġoppos ing
Ġty ler
Ġr m
Ġne braska
Ġaf ore
Ġwhat soever
Ġjet blue
Ġt x
est inal
ess a
Ġle yen
Ġnur t
0 21
op ing
Ġoptim ized
Ġtsun ami
ï¸ ı
r anging
bo y
Ġfig uring
Ġinflu encing
Ġc res
com ings
Ġsw an
Ġphys i
Ġlux em
subs criptions
Ġad idas
ib b
Ġsup ers
Ġcr m
Ġdec ides
Ġ21 8
Ġcheck points
Ġaggreg ated
Ġcybercr iminals
? ?
ke ys
Ġobser ving
Ġku wait
Ġoutflow s
ter a
de ce
Ġstar ring
Ġnord strom
Ġr iv
Ġst ats
Ġterritor ial
Ġri ots
2 21
f y
Ġp ens
or ah
Ġ2 19
Ġrisk ier
Ġdel inqu
Ġdestr uctive
Ġhem isphere
Ġtum ult
Ġrebec ca
Ġbi ogen
Ġped ro
Ġnarrow ed
imp act
Ġrichards on
Ġper il
Ġgen oc
Ġdilem ma
Ġla z
Ġsupp orter
igue z
f et
ie g
ine z
Ġar row
Ġshort comings
imm un
Ġincom plete
ar rows
Ġcr acks
Ġste in
Ġcr Ã©d
Ġex agger
Ġor phan
ia go
Ġport ions
Ġib d
Ð° Ñı
Ġred irect
Ġd ug
Ġdown grade
Ġsw ung
Ġembarr ass
× ©
he ro
Ġg or
est r
vel t
b et
Ġbul lying
Ġpill ars
Ġknock ed
Ġconstitu ents
ar se
Ġnational ist
Ġvest ing
Ġrw anda
Ġf uk
Ġmo ck
Ġbelie ving
ĠÐ¿ Ð¾
d in
ç »
Ġinter fer
Ġrem embered
= -
g one
................................................................ ................................................................
Ġconvinc ing
Ġchrys ler
Ġp ard
Ġin gen
Ġleban ese
Ġafore mentioned
6 50
Ġsacrif ices
Ġunsur prising
Ġ19 87
Ġobser ver
Ġsurpass ing
Ġicon arrows
s l
Ġt read
Ġfor ty
Ġfa ire
blo omberg
Ġt in
ed u
med ical
tal k
Ġfinal ized
Ġreinfect ion
h ide
Ġt ig
ans on
rain e
j ama
Ġsub du
Ġpassword s
x x
Ġcor onav
Ġ4 30
Ġnews room
Ġmicro b
Ġlo oms
Ġconver ting
Ġmemor andum
Ġvibr ant
um i
Ġ`` ,
int end
jo in
Ġtank ers
Ġovershadow ed
ro d
Ġtradem ark
Ġ23 6
Ġdivid ing
Ġs Ã©
Ġno ah
Ġcent r
Ġdeep en
Ġpict ured
Ġbicy cle
Ġirrespons ible
ap or
12 4
Ġcirc les
Ġtrib al
zing a
Ġto oth
low er
Ġmoh amed
j am
p olic
Ġhand les
Ġtr iage
uss ions
Ġw alsh
Ġsc ales
americ ans
Ġvou chers
mov ing
Ġo y
is ite
neg oti
Ġp em
Ġsimpl er
ro c
Ġn er
Ġtechn icians
Ġflo ck
Ġinject ions
j un
Ġlear ners
Ġmad ison
Ġdeterior ating
Ġgut erres
Ġcampaign ers
Ġdow jones
Ġpsych iatric
Ġwithdraw ing
âĢ¦âĢ¦ âĢ¦âĢ¦
Ġder ail
Ġvuel ta
Ġt ense
ad an
Ġsan itis
Ġhaw kish
Ġjum bo
Ġg ases
Ġdom ains
Ġwound ed
ch os
Ġ19 30
10 4
Ġgl ut
Ã¤ n
zz i
Ġdispar ity
Ġinoc ulated
Ġhog an
qu ila
17 0
dece mber
tr acking
Ġnot ify
to o
Ġridic ulous
3 40
Ġle x
Ġval ent
ĠĠĠĠĠĠĠĠ ĠĠĠ
Ġformat ting
le an
Ġst ern
se at
Ġw c
Ġout s
ÙĦ ÙĬ
ar ro
Ġco ating
acc ess
Ġsim ulations
Ġhy undai
health care
g ie
Ġf om
ad v
Ġv oid
Ġse min
Ġun pro
Ġreflect ive
Ġcorrect ions
Ġgrav ity
m outh
Ġre its
and ro
Ġch ats
Ġme h
Ġvalid ate
r ie
ir an
Ġv ials
Ġ23 2
Ġgl ance
Ġaid ed
Ġles lie
Ġnom inations
Ġcontribut ors
b ach
Ġun used
11 8
Ġround up
Ġempow ered
Ġazerbai jani
Ġsher iff
Ġcem et
Ġupheav al
Ġpart e
Ġrem itt
Ġben zinga
Ġz w
uct ions
Ġpresent ly
36 9
Ġcroat ia
Ġin duce
are a
uck land
Ġmoz amb
4 33
Ġe ats
af rica
Ġda unting
Ġl anc
Ġv ie
ri que
s ale
Ġn un
Ġens ured
Ø¨ Ø±
Ġlod ging
z man
í ķ
Ġacc ustomed
com put
Ġra ft
Ġrepl en
Ġpip e
Ġpump ing
p d
Ġmon te
Ġmil der
Ð ¹
Ġwe in
op ping
Ø§ ÙĬ
Ġstap le
Ġtruck ers
ip linary
ugg ling
Ġnico le
Ä ħ
sc ient
Ð½Ð¾ ÑģÑĤ
Ġcorrid or
1 19
ä ½
Ġh fs
Ġsa iling
Ġle o
Ġmaterial ize
Ġcure vac
Ġrec ap
Ġass urances
Ġfr uits
Ġdeb orah
3 80
Ġrep erc
Ġtake aways
Ġdepr ivation
Ġs vp
be fore
Ġnaz i
Ġreyn olds
Ġa a
Ġa Ã±os
Ġth y
Ġtr ap
11 5
Ġrecre ation
Ġnit rogen
Ø§ Ùģ
Ġcrus hing
av an
ina i
17 5
Ġsn ack
Ġcommence ment
l ift
Ġfull er
Ġinstall ations
Ġharm on
Ġnightcl ubs
Ġin tra
Ġj ong
Ġsc ul
ress ing
cd c
Ġretros pect
Ġsubdu ed
Ġre intro
Ġar ds
ah l
Ġbre ached
Ġd eng
Ġtr ash
Ġrisk ing
Ġperson nes
ib u
Ġyear ly
Ġmem e
Ġcontest ed
Ġampl ify
Ġtelecom s
Ġawa it
Ġfoods ervice
with standing
Ġcur bing
Ġdistr ust
part isan
Ġaer ial
Ġtri umph
Ġextingu ishment
Ġpe w
gin s
10 8
Ġflow er
Ãª n
Ġd aly
Ġcl ause
ach i
Ġpay ers
e ves
j in
ol an
Ġ25 6
atic an
Ġhot test
26 4
Ġgenuine ly
Ġintu itive
Ġyor kshire
Ġriy adh
Ġroose velt
Ġt aper
te e
Ġbas el
Ġlegisl ators
Ġip ad
Ġseafood source
Ġdeterior ated
Ġhamp er
Ġco ors
Ġle ur
Ġdr ain
int endo
Ġsteven s
Ġdisadvant age
Ġstef an
Ġluxem bourg
Ġpeg ged
Ġst ub
12 3
Ġroche lle
at ched
Ġan i
Ġpe ac
Ġsl ots
Ġ22 4
Ġvac ancies
d ling
Ġsing les
Ġprem iere
Ġoptim izing
e gal
is y
Ġwork forces
Ġprogress ed
asp x
Ġconfron ting
Ġcr ist
Ġste wards
Ġalle ging
ĠÂ» .
Ġresid ual
Ġnot re
Ġcheck lists
Ùĥ ÙĨ
Ġenhance ment
vid ex
Ġro ok
Ġdownload s
Ġox ide
Ġreck less
Ġrecept ors
Ġdense ly
Ġmathemat ical
Ġprocess or
Ġgym n
Ġtrig gers
pay ing
b ud
d al
Å ¾
Ġosh a
Ġp ga
Ġm ens
Ġfor rest
Ġgl enn
Ġbrand ing
Ġpray ers
Ġstom ach
Ġwh ites
Ġnot withstanding
ak is
ĠÐ¸ Ð½
russ ia
estab lished
ic able
bo e
Ġrain bow
it ures
ch inese
Ġcor related
Ð¾Ð ¶
Ġpione ering
Ġe q
Ġsp un
olog ically
c all
ong o
Ġpers ec
Ġmanage able
Ġ199 3
×Ļ× ł
98 77
Ġtorn ado
Ġthe sis
Ġ× Ķ
Ġrav aged
Ġw ow
Ġoff ense
Ġdisplay ing
Ġbuoy ed
3 18
d ar
Ġp ag
Ġpres criptions
Ġc ir
ow een
Ġsk ies
Ø³ Øª
ax is
Ġflaw ed
Ġdiscrimin atory
Ġrodr iguez
w p
Ġ ion
Ġcommun al
Ġtip ping
Ġcow en
Ġte quila
lu ent
Ġblink en
Ġgi ul
Ġscan ning
y cle
Ġlo ading
Ġcompl ain
Ġtransl ates
govern mental
Ġconfron ted
Ġa uckland
Ġinter connected
Ġsafe guards
Ġincomp et
1 101
Ġco ve
Ãº blic
Ġconting encies
am pton
Ġfl own
Ġca fe
k om
Ġ22 7
Ġlater al
Ġliqu ids
Ġni elsen
Ġko hl
Ġcont ex
Ġcor rupt
Ġpers ists
Ġpost ure
Ġsl ashing
Ġdi y
Ġbre ed
Ġtrib un
Ġpuzz le
Ġbry ant
Ġinterfe re
Ġen rol
Ġ22 3
Ġshep her
Ġbackb one
2 80
Ġev ade
Ġretire es
artic les
Ġh ort
Ġpro gn
Ġag gr
Ġrespond s
Ġgreen er
Ġvirolog y
w ent
Ġl ia
Ġe k
Ġinit iation
Ġdiagn oses
Ġgeoff rey
Ġtanz ania
ethyl ene
al ign
Ġ22 6
Ġcorrect ed
Ġmyocard itis
pro ducing
15 2
Ġconven ed
Ġfitz g
el ong
Ġen rich
Ġapp rent
Ġ+ =
reg istered
Ġreass ess
ad ia
Ġde br
Ġaw k
Ġch asing
Ġoil field
s ocial
Ġs ans
Ġso ber
Ġcl aus
Ġbn p
Ġa ument
Ġre ef
Ġli k
Ġbo on
Ġvirolog ist
Ġgpt value
i ary
er ick
Ġst urgeon
Ġno on
Ġex cel
Ġmar l
Ġover time
Ġrestart ing
Ġreth inking
Ġmund o
t ank
et on
Ġch un
Ġfib re
Ã ¯
Ġsum s
Ġky iv
Ġm ell
Ġto ss
ĠĠĠĠĠĠĠĠ ĠĠĠĠ
Ġgrand father
Ġham mer
Ġal gun
Ġfin als
Ġbr ig
Ġprof iled
Ġtit el
Ġfacilit ated
Ġincon ven
Ġf ares
str a
ri ans
ĠÙħ Ø¹
Ġpermanent e
Ġlone ly
Ġin exp
Ġm az
Ġy o
Ġr if
Ġpe an
ism a
Ġinstall ing
Ġscar city
y our
Ġaud its
Ġwond ered
Ġsen egal
ator ial
Ġcompassion ate
Ġf ade
00 4
Ġmod ification
Ð¾Ð ·
Ġhorr ible
3 21
Ġt uc
Ġtr io
Ġplay off
lin er
Ġteen ager
Ġdav ies
Î ±
us ions
Ġcomp lying
iv able
Ġar n
Ġins ult
Ġfalse ly
r ice
Ġlog ical
Ġintr aven
Ġtw ist
Ġmal es
Ġfrag mentation
Ġillustr ate
Ġfried man
w ires
Ġpl aus
Ġla ure
b ond
Ġp ou
Ġj nj
oun ted
Ġ23 3
Ġbrows ing
Ġunco vered
Ġh ahn
Ġhe ine
Ġfl urry
Ġ24 6
Ġgrass roots
kele tal
Ġc erv
20 3
Ġ22 9
Ġunle ash
Ġun man
ren o
Ġbr akes
Ġsol ved
Ġhyp e
Ġnbc universal
Ġsh irt
Ġwhit mer
Ġad rian
ound ed
Ġsim m
Ġmineral ization
Ġug ly
Ġjes us
Ġbo red
Ġhall oween
Ġped iatrics
Ġupgr ading
Ġro de
Ġrel at
Ġwild ly
Ġsla ughter
m ot
Ġv atican
Ġ22 1
Ġgerm ans
nut r
Ġdifferent iate
Ġbre wing
Ġalexand ra
Ġin nings
as se
Ġposs ession
Ġbor ne
Ġfig ured
Ġbhar at
Ġinhabit ants
Ġc inc
Ġ31 7
Ġ22 8
Ġfriends hip
Ġdeleg ation
Ġoff s
Ġminim izing
ad vis
Ġrep aid
Ġwhist leb
appo inted
Ġm ald
Ġlaun dering
Ġlabel ed
Ġpr Ã©s
Ġstand off
Ġobst acle
ount ers
Ġc in
Ġbr u
ues e
ÐµÐ ³
Ġble eding
Ġcompat ible
Ġf ores
op ia
Ġle vi
Ġteam ed
b at
u ay
th ink
Ġun anticipated
Ġsh ak
Ġfact o
Ġenv oy
Ġfit ting
Ġparent al
Ġmir acle
Ġhover ing
2 40
Ġl um
Ġl ug
Ġab usive
Ð» Ð¸
Ġinfluenc er
re x
tr acted
Ġref rain
Ġmel inda
Ġaden ovirus
Ġcol ony
Ġenc ounters
Ġpool ed
Ġa ired
er ance
Ġdes ks
Ġrestr ucture
Ġaur ora
3 17
d ise
om er
Ġg ins
Ġal p
Ġpath ology
Ġtrav is
un ct
Ġhe ct
Ġappro ving
Ġauthor isation
Ġsuper intend
bre xit
Ġliquef ied
3 75
n als
Ġe con
Ġsh a
Ġdef lation
whe el
Ġdownload ed
Ġmus culos
Ġbuff alo
Ġp end
ch arg
au er
Ġhaz ards
Ġcasual ty
Ġexp orter
yp e
Ġkick ing
Ġkid n
Ġdell a
Ġgabri el
Ġher n
Ġur l
Ġmel an
Ġgoog l
am ic
cond itions
26 0
cn bc
Ġredes ign
Ġtaked a
Ġcarr ie
h c
Ġn ip
Ġpot ter
Ġfire works
Ġcaf eter
19 0
Ġpl ac
Ġextr acted
Ġunfore seen
Ġam gen
Ġbo j
Ġmy ers
11 6
gro wn
est re
Ġopen er
Ġadministr ations
Ġpip es
Ġpr ayer
wear y
p it
Ġt rough
Ġy as
est ate
dis c
anche z
n ect
Ġall ot
be k
Ġmoney ist
Ġlog ging
Ġp anc
ber ra
Ġhe ated
Ġright ly
Ġvect ors
Ġmusculos keletal
j as
Ġpat ric
Ġfa a
Ġd ass
Ġqu inn
Ġsy m
Ġsy ring
Ġplay offs
go ers
Ġpsych ologist
Ġhypothe sis
c as
ut ter
Ġup wards
cle ar
Ġsi xt
Ġtigr ay
Ġantimicrob ial
p ill
Õ ¶
Ġs ark
Ġimp ly
Ġcris pr
Ġtum ors
Ġs ino
Ġwe work
Ġaustr ian
af one
25 5
Ġkill s
Ġuns uccess
Ġflaw s
f ill
Ġv and
ange red
ule mon
Ġdelic ate
Ġbes poke
pric ed
cap tion
Ġmodest ly
Ġatmosp heric
Ġeleph ants
Ġprolif eration
Ġo val
at isf
ie ving
Ġpos ing
Ġdil ution
Ġgar ment
Ġdict ators
Ġb od
Ġhas t
Ġyour s
Ġscr ub
g ent
ac ious
Ġcomm uting
Ġkr ish
Ġtitel media
Ġt ib
Ġj v
Ġ8 88
Ġprop el
Ġinnov ators
Ġstream lined
Ġescap ed
Ġrhod e
Ġ3 75
Ġhed ged
Ġperpet ual
Ġe z
res our
Ġbr is
Ġset h
ĠdÃ© c
Ġto c
Ġd ic
Ġr r
Ġmon opoly
Ġcomment ators
Ġca ix
Ġak in
Ġsymb olic
Ġbj p
Ġm ing
Ġwas ted
Ġi phones
Ġca utions
Ġgenoc ide
Ġreperc ussions
Ġexem pl
Ġcafeter ias
c ion
Ġres ur
Ġpre jud
Ġ15 32
Ġel ites
Ġdist inction
Ġtask force
as is
Ġl akes
Ġstep hens
Ġprob ation
Ġfasc inating
Ġn airo
Ġn intendo
Ġdes de
Ġder by
m ax
Ġl ac
Ġbe e
Ġfl avor
Ġjud gments
r ights
Ġk un
Ġimmun o
Ġy oshi
Ġdis gr
Ġage ing
aug ust
Ġd read
Ġis o
Ġtrans itions
Ġway ne
Ġbroad en
ĠÃ º
Ġtrop hy
Ġunre ason
Ġintrig uing
Ġdetail ing
Ġexport ed
Ġoce ans
Ġsubur b
Ġsuspic ion
b ane
Ġsh un
rent ial
par k
Ġexplo iting
Ġbl az
Ġthank fully
Ġphotograp hy
Ġp oured
Ġd ine
Ġkur d
Ġreag ents
b led
Ġl ud
ent ry
ve hic
ind ustr
Ġant ig
Ġvari ability
Ġhasht ag
Ġl ighter
Ġen quir
Ġcr ying
Ġalex a
Ġlind a
Ġb ite
Ġv m
am ous
Ġ3 33
Ġcur ated
Ġoccas ional
on na
anc a
Ġ28 5
Ġpan ama
Ġredund ancies
Ġe ases
Ġhe t
olog ous
Ġabs urd
Ġweak est
ÑĨ Ð¸
Ġcom un
od us
Ġher bert
Ġnews wires
Ġalloc ations
Ġbulg aria
Ġjewell ery
Ġto ut
Ġreb ounds
Ġsib lings
Ġscramb led
Ġt ia
Ġo mar
im posed
Ġmo ss
off icial
Ġalign center
im ag
po x
Ġc mc
Ġd it
Ġn il
Ġne ural
sing le
Ġs izing
Ġe j
Ġspirit ual
Ġinters ection
p i
Ġfree zing
Ġinsur rection
Ġw reak
Ġb izar
ub ishi
Ġimp art
Ġfirst ly
Ġeduc ator
Ġsant ander
Ġt et
Ġwith holding
ap art
ub m
ll i
Ġman ila
Ġcand y
ĠÃ ¨
Ġsurpr ises
Ġseb astian
j ab
Ġm Ã©
Ġper ce
Ġpriv at
ÙĪ Ø¯
Ġconsequ ential
ops y
Ġmozamb ique
Ġus ps
og lob
Ġthan ked
Ġend angered
Ġ24 9
Ġblack stone
Ġdiscover ing
Ġawk ward
Ġa uctions
Ġhe mat
Ġj ared
Ġslow s
Ġbay er
Ġtank er
j ik
Ġr ation
Ġsl iding
b ot
f air
Ġc un
Ġcondition ing
i very
Ġe ine
and ers
Ġext ensively
Ġmic ron
Ġteen age
Ġovercrow ded
Ġin bev
Ġv ander
Ø§Ø Ń
Ġjak arta
Ġun author
Ġun esco
Ġdes cent
des ign
Ġlouis ville
q a
Ġtm ubm
Ġgob ier
Ġtmubm usd
Ġan z
Ġep stein
Ġwa ive
Ġhomet own
nutr ition
ug en
Ġout set
Ġem my
Ġart istic
Ġtimet able
Ġb aking
Ġstr angers
Ġquarter back
30 1
Ġol ive
Ġtransmiss ibility
v r
Ġdistingu ished
Ġd d
Ġmarket places
Ġ] ;
Ġlif ec
Ġdup lic
Ġc arg
Ġr b
Ġal to
Ġbusiness man
Ġbron x
Ġcl amp
Ġsus sex
Ġdiagn ose
Ġpin ned
Ġsurviv or
be e
amm ers
elect ed
Ġdele ted
ar ios
Ġv int
Ġco hes
Ġmos que
Ġl dp
Ġr Ã©s
Ġaz n
Ġpoly ethylene
Ġentrepreneur ial
te am
Ġdef enses
Ġpower house
Ġide ology
Ġgrad uated
Ġmalays ian
Ġap ology
Ġsc our
Ġnecess ities
48 4
Ġportug uese
Ġspat ial
Ġhors es
Ġunder went
ex per
Ġdead liest
Ġtes co
Ġt aps
Ġr anged
Ġroll er
Ġid c
Ġhas h
Ġcance lling
Ġrad ically
Ġnarrow ly
consum ing
Ġex cer
Ġmand ating
Ġ `
Ġdistr action
Ġlaund ry
ic os
Ġcheck point
Ġvill a
Ġr ings
Ġimpact ful
Ġvol can
Ġsustain ably
Ġmodern ization
Ġneutral ization
Ġdiscover ies
ar in
Ġunc le
Ġlean ing
Ġï¼ į
5 50
Ġun wind
Ġcal ibr
Ġgreen e
Ġscr ip
Ġmel issa
Ġfer ry
Ġcens orship
commit tee
r ina
Ġin bound
Ġl ars
Ġex odus
Ġcan berra
Ġimp ress
Ġallow ances
ple x
Ġque ues
f lo
Ġsub tle
14 8
Ġtransform ational
b inding
Ġo ems
Ġpa ed
Ġtreat s
rup ted
ik er
Ġpen ins
Ġphilipp ine
Ġd ong
Ġst oring
state ment
Ġtod os
inn ati
c ation
40 9
cent ral
ran ked
Ġumb rella
l ance
Ġne p
op y
Ġdifferent ial
Ġrac ed
ĠØ£ ÙĪ
Ġinactiv ated
Ġp ing
Ġte eth
Ġ25 5
Ġmanufact ures
Ñĥ Ð´
er na
le z
Ġdeterm ines
Ġrip ple
Ġbene ath
Ġky i
ce ls
11 4
Ġheine ken
Ġhas san
Ġ] ).
Ġsan itary
Ġ23 9
Ġpetrochem ical
Ġchil bl
11 2
Ġhin du
Ġest a
Ġpromin ence
ä ¼
Ġs ind
ak u
Ġmart inez
Ġcarol ine
Ġconven e
prem ise
Ġat hens
Ġtr anche
Ġnew castle
Ġdirect ives
Ġcustom ization
Ġgran ular
Ġth wart
Ġon wards
×Ļ× ª
g os
Ġp cs
Ġm uk
Ġsa o
er i
Ġal tr
ear ly
Ġreal m
Ġstat istic
Ġcauc us
r ising
u ke
Ġe id
cal if
Ġmention ing
Ġstockp iling
Ġneutr ality
f ashion
Õ ¥
Ġrich mond
Ġevol ves
Ġbizar re
0 50
Ġw es
Ġfor bid
Ġmor ale
Ġtext iles
Ġfra ught
Ġmorbid ity
Ġex tern
Ġ24 7
Ġprofess ors
Ġ× Ļ
Ġ< .
occ up
t b
um ble
Ġ7 87
Ġcath ay
Ġann ie
Ġfam ed
Ġgrap hs
Ġnic ola
Ġdian e
ange l
Ġhyp ersonic
Ġveget able
Ġmetast atic
âĢ Ĳ
Ġter ry
Ġnu est
Ġbiomet rics
Ġtransport ing
Ġchilbl ains
c ile
Ġwho ever
Ġsynd icated
Ġcorner stone
Ġunanim ously
Ġgr iev
Ġfur ious
Ġdan one
Ġko ch
Ġstabil ized
squ are
Ġfr y
Ġsw at
Ġtr u
Ġla wn
int ellig
Ġcommercial ize
ĠØ§ÙĦ Ùģ
Ġspeed y
Ġb d
15 5
Ġt ents
Ġk or
Ðµ Ñģ
Ġemb argo
Ġgrave l
Ġschw ab
å °
Ġdef enders
Ġra ab
Ġslo gan
Ġshin zo
n ar
Ġv all
19 9
6 25
Ġmillenn ium
oph ys
Ġpip er
Ġsex ually
Ġl c
19 6
Ġinfrastr uct
ape ut
def ault
Ġcatalyst s
Ġbras il
h art
Ġs way
Ġc ms
Ġun ter
Ġle ve
Ġinn ate
Ġw ade
st he
Ġev il
Ġur i
Ġtact ic
Ñİ ÑĤ
Ġfreel ance
æ ĺ
Ġdis hes
13 7
brit ish
Ġplag ued
Ġbut ler
Ġam Ã©
Ġcr ush
Ġspr ings
Ġaeros ols
Ġdist ances
Ġseason ality
Ġs ask
ac ion
set ting
80 1
Ġspeed ing
Ġqual comm
Ġjail s
f is
al uation
Ġn ca
Ġbr a
Ġafter ward
oll ah
Ġastr onom
b ott
is o
Ġl Ã³
Ġj ain
Ġwork loads
Ġpract ising
Ġwest minster
Ġrestart ed
sm ith
Ġdestro ying
Ġp Ãºblic
Ġm ba
Ġcl er
Ġcompan ion
Ġ23 4
Ġprem iers
Ġreact ing
q r
Ġn ed
Ġsu u
Ġreli ably
met re
fun ctional
i Ã³
Ġy td
Ġro ku
Ġevid enced
Ġmicrobi ology
Ġb end
Ġfam ously
Ġl ure
Ġass ists
urn ed
ient e
Ġhar bour
Ġtand em
Ġv ans
Ġal ban
ort ion
Ġpol ÃŃtic
Ġdata obj
Ġbi ases
mid t
Ġconced ed
Ġairpl ane
Ġnextvide ourl
re a
Ġf n
Ġf art
ol ia
ar ians
od ay
Ġrec laim
Ġthere to
we ighted
Ġcompet ent
Ġlot tery
, ...
er ative
Ġass ort
Ġjer ry
Ġmi xt
Ġrepub lished
Ġpenins ula
Ġf cc
Ġr d
Ġret iring
Ġge ared
Ġ{ :
Ġeleph ant
å Ĭ
Ġmon ster
Ġcit es
Ġlag os
2 30
Ġl und
Ġpl aza
Ġcontro ller
Ġrun ner
Ġsubs et
Ġbuy out
Ġdur ability
Ġillustr ated
Ġcoun se
Ġauthor ize
Ġlag arde
Ġlem on
Ġb aza
Ġh il
ey e
Ġposs ess
Ġam mon
se g
tr ial
Ġdisc rep
year s
Ġment ality
Ġalumin ium
Ġvod afone
Ġm olson
Ġent renched
pl at
Ġtravel s
Ġdom ino
mid dle
Ġsh aking
Ġconn or
Ġren dered
33 1
Ġrecomb inant
polic y
d at
l angu
Ġ( ).
ier on
Ġcomparative ly
Ø ¦
Ġc any
Ġb ing
Ġm cla
Ġmon d
Ġcl are
Ð¾Ð² Ð°Ð½
Ġdys function
Ġ23 8
m ill
w y
00 3
Ġcas a
Ġve loc
Ġgall on
Ġproport ions
vehic le
f ut
Ġro gan
per iod
inc re
Ġqual ities
Ġempow ers
Ġhesit ate
Ġsubstit utes
Ġfixt ures
Ġfitzg erald
Ġann um
Ġ24 2
Ġer os
Ġmis under
ma jor
Ġspecific ations
Ġfern andez
21 2
Ġtoler ated
Ġpsychiat ry
Ġf ighter
Ġhi king
Ġpers ever
Ġtrail er
ran ks
bro ok
m aster
s afety
Ġt j
Ġwe ibo
Ġout going
Ġdis com
Ġbl acks
Ġcal gary
14 5
Ġtrain er
Ġsafeguard ing
b ie
Ġout lining
Ġinf in
Ġz a
per cent
pos ing
Ġthank ful
Ġpilgr ims
d ong
Ġpiv oted
Ġtum ble
Ġrup ees
Ġmits ubishi
Ġlukas henko
Ġh od
less ness
Ġaccommod ations
ce o
pro cess
Ġspecific s
Ġintention ally
Ġg ust
Ġv ix
Ġhand washing
Ġcaps ule
Ġue fa
Ġo le
Ġr iley
Ġfr ail
Ġprefect ures
Ġhut ch
e ly
id y
Ġdoub les
Ġclick ing
Ġdiarr hea
Ġjohannes burg
Ġt ata
Ġkim ber
le aning
12 8
fir med
at hetic
Ġfree z
Ġbrand on
Ġelev ate
Ġegypt ian
Ġreorgan ization
m g
u o
Å ¡
Ġw ig
or f
ist as
Ġapp ra
Ġke ir
ĠØ ´
loc ated
Ġdim ension
intern ational
m os
Ġs ow
âĢ ĳ
the se
pr a
Ġâ Ĺ
Ġsupervis or
n l
Ġp airs
Ġro cks
Ġlist ened
Ġattr actions
Ġlivest ream
Ġallerg ic
ke es
Ġsp iking
Ġspecific ity
ĠlÃ³ pez
n or
Ġk ush
Ġup hold
Ġcre m
tt en
Ġ26 5
Ġt ir
Ġ4 20
Ġstr anger
Ġve gan
Ġreward ed
Ġdivest itures
s ix
Ġ urs
Ġs anchez
Ġst iff
Ġass ass
az il
Ġgam ers
Ġceremon ies
Ġprivile ged
Ġc ared
st ay
Ġsol omon
Ġgames beat
Ġphilip pe
Ġquad r
claim ed
langu age
Ġn io
id el
Ġk raft
Ġ3 95
Ġdeb uted
Ġselect ing
Ġshir ley
Ġdec is
Ġaff luent
Ġoil s
Ġut most
load ed
Ġencrypt ed
Ġcinc innati
d uty
uk a
Ġsun ny
ren ds
Ġi br
Ġ7 75
Ġround table
Ġcat alog
Ġsequ el
k al
ot es
se ction
Ġac re
Ġpar ked
itud inal
Ġlens es
Ġinsol vency
s av
le ton
Ġr ust
Ġsuff ers
ĠØ§ÙĦ ÙĨ
Ġrecon cile
del ivery
Ġbrad ley
Ġaspir ations
Ġmelt down
Ġets y
Ġun acc
ag as
Ġec mo
Ġun bel
are z
Ġrepurch ased
Ġprohib it
sed ar
Ġmicrobi ologist
Ġex ited
Ġsp ared
Ġattend ants
Ġadvoc ated
vi ol
Ġguang zhou
it ious
ain ment
out break
Ġcollabor ated
Ġlatin os
Ġfly nn
Ġre ver
Ġunder valued
Ġhar ms
Ġdavid son
Ġdispos als
Ġiv an
Ġabort ions
Ġcolumb us
Ġc ette
Ġpres crib
Ġq e
Ġlombard y
b ay
Ġs ot
Ġcl aire
Ð¸ Ñģ
m arg
Ġqual ifications
Ġinter cept
ri um
Ġdesp air
de ath
Ġsupposed ly
Ġster oid
ass et
ah im
Ġhistor ian
hand le
Ġempower ment
Ġimmers ive
n ames
Ġt us
are th
ok er
Ġsch a
Ġbl ended
vention al
Ġfert ility
Æ °
fore st
Ġcar pet
Ġsett ling
Ġunle ashed
Ġlul ulemon
h ou
Ġcl ara
Ġ25 3
Ġflo at
Ġstabil ization
Ġundergrad uate
Ġus da
Ġmon arch
12 9
Ġfif a
Ġch lor
Ġve in
Ġtrad itions
88 8
report ocean
Ġtail or
bal t
Ġj ung
Ġprox ies
Ġferr ari
Ġâĸ ł
ï ¬ģ
ant ib
Ġbnt x
Ġreward ing
5 29
et ric
Ġoverwhel m
Ġentr ies
Ġsid el
Ġcasual ties
Ġconcert ed
Ġpig s
Ġdi as
Ġglim ps
4 60
ad vert
Ġwid en
Ġngu yen
Ġover coming
Ġstr ipped
Ġbas f
Ġx x
z b
Ġj ol
Ġbr ush
umb ered
Ġlou ise
Ġsed ar
Ġw ings
uch i
Ġ31 2
Ġretail ing
ik i
ters on
. /
8 77
up ply
Ġintr ins
Ġvit ro
tr ue
Ġover due
ond o
Û Ĵ
lo oks
ance l
Ġfl out
Ġdet r
Ġmir r
Ġr yst
Ġsc oop
Ġunder pinned
30 8
Ġgir lf
Ġm im
Ġv ault
Ġwith hold
Ġdr illed
Ġenc losed
Ġopt omet
Ġwa ivers
Ġclean ed
ĠpaÃŃ s
Ġenthusi astic
Ġunbel iev
Ġc z
Ġd mit
im port
el ig
ri k
Ġforecast ers
Ġtrail s
Ġassign ment
Ġp ine
Ġrel ieve
Ġrev ital
Ġever core
Ġshoot ings
Ġtun ed
neg ative
Ġgriff in
Ġconfed erate
c ert
t zer
× Ĳ
Ġwh ip
Ġmed itation
Ġwind ing
Ġfranch ises
2 10
Ġsm s
Ġ25 7
Ġquestionna ire
/ /
are tt
Ġarab ian
Ġaggr av
ic oster
ist e
Ġfear ing
Ġspir al
Ġbuc king
Ġtrans itory
Ġgr asp
Ġval e
Ġminister ial
Ġgou vern
Ġg ucci
Ġim balance
Ġmin er
Ġmoder ately
Ġenjo ys
fin ance
t ur
ian z
uk raine
Ġdisp atch
Ġlaud er
t ree
Ġsh ack
Ġam it
Ġens uing
Ġheath row
Ġus b
Ġinv iting
Ġgovern ed
Ġsal man
Ġel le
ĠØ§ÙĦØ ¯
Ġryst ad
p acking
Ġa um
at hed
Ġh off
Ġsh ark
Ġ3 90
Ġxen ophob
Ġfor ge
Ġgr ind
Ġsacr ific
e lement
n ature
Ġr ains
Ġlif elong
Ġwal lets
Ġpumm els
ac ency
dr ug
Ġpal mer
m il
he on
20 5
Ġhous ed
Ġsubmit ting
Ġpaus ing
Ġskyrocket ing
Ġdraf ted
Ġh iat
Ġmark os
Ġdes irable
Ġnum er
Ġsne ez
ĠÑĩ ÑĤÐ¾
as aki
Ġn l
13 1
Ġshap es
Ġab normal
pr ime
Ġ25 2
Ġcompl aining
Ð¸Ñĩ Ðµ
Ġbaza ar
re ra
Ġprop hyl
âĢ¦ .
Ġ38 4
h aw
Ġh ugh
Ġ19 88
Ġsit u
Ġbur k
Ġphil ips
Ġgar age
Ġhorr ific
Ġbour la
su ite
Ġbris bane
en as
Ġr bi
ph il
Ġ24 4
Ð½Ñĭ Ðµ
Ġinters ect
Ġprop on
Ġhot line
Ġdepos itary
Ġunknown s
Ġzh ou
ĠØ¨ Ø§ÙĦ
r ine
Ġre nal
Ġtre vor
14 4
Ġround ed
Ġexpans ions
æľ ī
Ġdeploy ments
un ion
Ġx l
35 8
Ġdump ing
Ġhiat us
b iz
c io
s che
ĠâĢ Ļ
ip er
Ġsw elling
Ġlisten ers
Ġp ax
Ġas ean
Ġdel ight
Ġlock ing
Ġmid field
Ġubiqu itous
Ġd ai
Ġval or
ĠÎ¼ g
Ġn ass
Ġem an
infl ation
Ġturbul ence
Ġd iana
res ident
crip ts
36 5
inte gr
ĠØ¹ ÙĨ
Ġnarr atives
a head
Ġp acks
Ġb uch
ent in
Ġvict ories
health y
c ases
Ġsp here
li an
Ġsec re
Ġcar ls
Ġhalf way
Ġclim bs
or o
ear lier
Ġfib ers
Ġbr ib
market report
Ġintens ify
Ġnim ble
Ġc ay
Ġref urb
18 5
Ġemb ark
Ġreject ion
i ac
et z
st ering
00 6
Ġshop lifting
27 0
Ġdia geo
Ġgr aves
Ġreimag ine
8 50
l ayer
v able
Ã ¹
Ġm v
Ġac ids
19 5
Ġacad emia
Ġquot as
sing apore
Ġk ot
Ġcl aw
Ġover dose
Ġ25 8
Ġ24 8
Ġinvestig ative
Ġreserv ation
Ġquad rup
Ġrenov ation
Ġscul pt
Ġk om
Ġdet rim
Ġtrust ee
Ġbed room
Ġescal ate
Ġevac uate
rele vant
Ġcomp ute
op e
Ġcomb ust
Ġoccup ations
Ġreject ing
m any
Ġp ts
awa ited
Ġwend y
Ġdebr is
12 6
yl an
Ġo man
Ġg t
Ġv ine
Ġnotor ious
Ġlegitim acy
g om
Ġh atch
Ġhead aches
40 7
Ġsimpl ified
cour t
. ),
in is
Ġc ables
Ġth umb
Ġserv ants
ov an
ins ured
Ġred ef
ob iles
Ġbrief ed
Ġtaiwan ese
Ġgil bert
Ġwork load
Ġdiscre te
Ġbelong s
Ġret reated
ph arm
Ġdisney land
Ġresc ued
Ġintrodu ces
Ġ Ú©
Ġth under
Ġser ial
Ġpo le
Ġhur ts
Ġnic olas
y sis
Ġrecon struction
Ġ{: .
ib as
ip h
Ġcelebr ates
Ġdut erte
Ġimplic it
Ġft c
Ġevolution ary
Ġunequ al
Ġunreason able
ĠÐ² Ñĭ
Ġcort icoster
Ġst aging
Ġint ub
ok o
Ġdec imated
Ġ24 3
17 3
Ġliqu or
research andmarkets
Ġmerc y
Ġdump ed
Ġgins burg
ad min
Ġes a
Ġarg us
loc ks
Ġgar bage
Ġredistr ibuted
Ġfertil izer
Ġord in
Ġlove ly
Ġelectr ification
Ġk Ã¶
Ġ19 82
Ġbur ge
Ġram ifications
Ġdealers hips
meas ures
Ġplaus ible
Ġs ket
Ġb air
el ed
Ġenv is
70 2
Ġt ue
Ġdep rec
Ġble w
contin ental
c ale
s ay
Ġjour nals
prop erty
3 90
Ġ ics
al ian
Ġall ison
Ġmed ics
Ġext inction
Ġsucc umb
Ġdetrim ental
Ġn ak
Ġcar o
br anded
Ġunderstand ably
Ġexacerb ating
d an
en i
Ġrep os
Ġcontin ents
13 9
Ġfo am
Ġmig uel
Ġprepar atory
en berg
Ġ× ©×ľ
Ġloos ening
s ales
Ġt ories
Ġcare rs
Ġlight weight
Ġbehaviour al
Ġmul an
m obil
Ġref uses
Ġjud ged
ba um
ial e
aw at
Ġabr ams
Ġmerr ill
b irth
Ġbi ased
Ġmater nity
Ã¡ l
Ġdisapp ro
effect s
j ah
Ġf ent
Ġsens ing
Ġnav arro
Ġsupervis ors
Ġstell ar
Ġw artime
an za
Ġrec al
Ġanim ated
Ġ38 5
Ġbol ton
Ġhann ah
Ġf ue
Ġm eng
Ġr ipped
Ġle eds
med rxiv
18 6
29 0
is ans
ur st
Ġde joy
Ġbal d
ograp h
Ġworks pace
jan uary
Ġinf r
Ġir a
Ġsent iments
Ġfulf illed
Ġto es
Ġav al
Ġhuman a
Ġut tar
Ġconc ise
ull ah
Ġrefer ral
Ġinter state
Ġmed ically
ival ent
Ġtrust worthy
å Ĳ
Ġa vert
Ġs inking
it Ã©s
Ġm ou
og r
ost ic
Ġbot sw
Ġ26 6
Ġver bal
Ġdiv isive
Ġcirc ulated
do ctor
Ġworth y
Ġfem ales
Ġpersever ance
re place
Ġc ull
an ium
Ġl s
Ġn acional
Ġper vasive
20 15
Ġkar l
intellig ence
x ual
Ġg ian
Ġex h
Ġpe aking
Ġstart ers
Ġcat hed
Ġfem a
Ġvac ations
8 75
end e
anth a
Ġstretch ing
ac art
os ys
Ġcr ashing
Ġno st
27 5
Ġacce pts
Ġarch ives
Ġcorn ell
Ġuncom mon
Ġbr ains
com b
Ġve z
Ġcompl acency
4 12
Ġrel ay
Ġdiscour age
å ¹
al cohol
Ġl umber
Ġth u
st ates
lo d
Ġ26 7
Ġcruc ially
Ġneighbourhood s
Ġh int
Ġop h
Ġback yard
Ġcheck out
Ġthr ust
Ġware housing
Ġtumult uous
ent h
Ġat op
Ġperipher al
11 3
Ġhi ro
Ġslo ven
gener ating
i able
es a
Ġre ap
Ġgl en
ĠÃ ª
Ġcerv ical
Ġa e
Ġto do
Ġ26 1
Ġlands cap
Ġathlet ics
Ġbanc o
pro duction
Ġfib rosis
Ġcany on
Ġcongress man
imens ional
Ġmar r
Ġ28 3
Ġinher ited
Ġfost ering
Ġj al
ag her
Ġdis mal
Ġz ambia
Ġcomplex ities
Ġk j
ag g
Ġcar maker
4 21
Ġy un
Ġben z
05 8
×Ļ ×ķ×ª
Ġhat ters
25 6
Ġmal ta
Ġif n
Ð¾Ð ¿
Ġplaint iffs
gev ity
0 30
Ġun sc
Ġout age
Ġover r
Ð°Ð ±
Ø³ Ø±
Ġpun ished
Ġtub es
Ġbron ze
m ask
Ġre he
ir al
Ġorganiz es
aud ible
Ġcemet ery
and i
xt on
rel ations
re ed
ary n
Ġback ward
Ġest Ã¡n
Ġnas cent
40 5
44 2
Ġhatters ley
Ġt ui
st y
ard en
Ġtravel er
erc ial
Ġ24 1
che ns
13 4
Ġgar nered
Ġwh opping
lo cal
Ġle aks
ĠÃ¼ ber
Ġbe ans
19 8
Ġsc ammers
Ġsystem atically
Ġ19 79
Ġsan ct
Ġextraord inarily
av o
Ġ26 8
bor ough
Ġsurf aced
Ġconfront ation
Ġbotsw ana
Ġs z
Ġp ren
Ġin audible
ind ra
Ġunt apped
Ġ89 3
ite ch
Ġmed als
Ġ25 1
Ġjud ging
Ġjackson ville
oca ust
Ġte aches
Ġshow er
Ġ26 2
Ġlight ly
ĠdÃ© cl
Ġcolomb ian
Ġbo oth
Ġmark er
Ġimag ination
Ġchand an
Ġab ide
ia o
Ġdigital isation
c ust
in vasive
est ic
Ġsil va
Ġplate au
Ġgest ure
Ġs inai
Ġrum ours
Ġpear son
Ġdownplay ed
Ġtrac ers
Å Ļ
Ġun consolidated
Ġexp ir
Ð½ Ð¾Ð¹
12 2
13 3
Ġtex ts
Ġrein stated
Ġmotor cycle
plan ned
Ġreclass ified
industr ial
ic c
Ġcase load
Ġmarked ly
Ġlect urer
Ġhazard ous
Ġb mi
Ġrel ieved
Ġnutrition al
Ġpatric ia
Ġy um
Ġcomm e
Ġluc as
Ġboy friend
Ġexped ite
Ġcoronav ac
Ġit a
Ġal ison
ub le
Ġk av
Ġ31 5
pro spect
Ġden ounced
Ġid le
Ġincl ined
Ġell en
enh agen
Ã ½
Ġvers at
Ġenhance ments
Ġ4 15
20 7
Ġmiss es
Ġdur ham
Ġrain fall
Ġsant os
Ġaccr ual
st ory
Ġcontr ace
Ġdiff ering
Ġuncon ventional
Ġprag matic
Ġmarl ins
s ports
00 7
Ġar cher
99 9
cor ing
Ġmobil ize
s al
Ġc ib
Ġed ges
Ġautom obiles
13 2
ĠcrÃ©d it
Ġp ond
im er
Ġj ed
os ity
Ġ26 4
Ġpled ging
Ġn j
Ġn ive
Ġr pa
Ġsp ans
Ġ4 40
fl u
Ġhighs nobiety
Ġkir by
Ġroc kets
Ġj aw
Ġfin anz
Ġear marked
Ġplay ground
Ġhum idity
Ġstory t
Ġconflic ting
Ġfest ive
Ġcorrid ors
Ġy og
Ġimp ending
Ġpop ped
ten ess
Ġhol ocaust
Ġcompar ability
3 25
c ort
Ġwe iss
Ġdo j
Ġaut ocr
uit ton
Ġsav vy
hand ed
t aking
Ġps y
Ġfix ing
Ġzo on
sp oken
Ġcurfe ws
acon ian
Ġslovak ia
Ġd ame
Ġun sett
Ġlib eration
Ġpro tracted
Ġcons oles
Ġman eu
Ġshe ff
Ġins ured
Ġprop elled
14 9
Ġil s
Ġlabel ing
Ġgrub hub
× ¢
in als
Ġle vers
ix is
Ġunt urned
Ġgall eries
Ġpar ibas
Ġelev ator
Ġgang s
Ä ±
Ġex ert
ec o
Ġless en
Ġrun off
ĠØ ®
time out
Ġeditor ials
Ġjudge ment
Ġcycl one
ĠØª Ùħ
Ġcher ry
Ġpreserv ation
Ġt ac
Ġins urg
Ġbal con
Ð½ Ð¾Ð³Ð¾
Ġinterpret ations
Ġmaur it
u ir
Ġl ays
Ġappro ves
Ġanth rop
Ġw oke
Ġv uitton
act or
omet ers
19 2
Ġacc use
Ġro u
Ġshould ers
Ġstock ed
21 3
Ġyan kees
th ru
act ors
Ġperform er
Ġmid term
Ġmont gom
Ġbuc ket
Ġf end
Ġman n
Ġdem ol
Ġmat s
Ġmargin ally
Ġrecover able
Ġpean ut
Ġhe ls
Ġex its
ace y
Ġsim p
Ġ39 7
comp liance
Ġrival ry
Ġsl ice
15 9
resp onse
Ġtra its
Ġbol stering
Ġwhit ney
Ġimmunos upp
ill as
Ġtut or
p oc
od a
Ġenh ances
Ġpsych os
Ġintens ifying
Ġredund ancy
Ġnairo bi
Ġgirlf riend
Ġcom ic
Ġrem edy
Ġ11 00
Ġfranc o
0 16
Ġreb els
Ġball s
Ġintention al
pol ice
Ġon content
Ġch rom
Ġind ict
ra mento
Ġ29 9
Ġsold ier
Ġends late
Ġunn amed
Ġstress ing
Ġt into
Ġac i
Ġres idency
Ġbr ac
Ã© g
Ġebit d
Ġexam iner
Ġlever ages
Ġglo ss
d uring
Ġg and
Ġsp ouse
Ġfr aser
Ġfl ames
Ġsand le
Ġsel tzer
Ġultr as
Ġfixt ure
Ġinterfer on
Ġc ite
Ġre ct
ill on
Ġsa ves
Ġind y
Ġbr ighter
ient es
Ġpolit ico
ÐµÐ ·
Ġneglect ed
Ġk ant
Ġro i
pl aced
Ġmid w
employ ment
Ġsn apped
Ġfacilit ates
Ġdetermin ants
Ġne ur
Ġ4 80
27 3
Ġwa ived
Ġment ions
Ġtheore tical
Ġc cc
Ġre use
ĠâĢĿ :
Ġdr aconian
20 9
Ġfl ux
Ġmass es
Ġcit adel
Ġforg iven
en er
Ġv om
Ġal ice
Ġcall ers
Ġincarcer ated
Ġf Ã©
Ġd hs
Ġg ul
ad ata
Ġha jj
Ġgrand children
Ġvig orously
Ġbund es
Ġflatten ing
2 35
Ġb ert
is al
Ġmin istries
Ġaggress ion
Ġsanit izers
Ġtumb ling
ä ¹
Ġcle ver
Ġbor ing
Ġprem ise
Ġsick ness
Ġobject ions
Ġoblig ed
Ġrock ed
9 50
an as
Ġcon versely
Ġr app
20 4
Ġmaj e
Ġrom antic
Ġlid ar
Ġb se
Ġsh aken
21 5
pat ients
Ġunderwr iters
e pt
j ar
Ġb its
00 9
Ġprinc eton
Ġaccum ulation
Ġi w
und ing
Ġcomple teness
Ġstre amed
Ġlifec ycle
Ġfol k
man ia
Ġtal ents
Ġshr ug
Ġbom bs
Ġsuperintend ent
Ġwe ld
Ġtr iang
16 6
15 6
Ġpul p
Ġwel comes
Ġalternative ly
Ġgeograph ically
aph osa
Ġshortfall s
re lease
on der
it Ãł
Ġn aming
Ġanim ation
sp ot
z ed
Ġm ink
lo dy
Ġsp urs
cr y
val ence
ĠÐ¸ Ð·
Ġnons ense
- ,
w aves
ect in
Ġafter market
Ġopportun istic
Ġsyn chron
ÐµÐ ²
Ġpublis hes
n bc
Ġh inted
Ġimmun otherapy
Ġpoll ut
Ġvenezuel an
Ġmyster ious
Ġnost alg
at on
an men
Ġb ame
ot hes
ul se
Ġout sized
Ġinst acart
Ġelect orate
Ġ25 4
Ġdecl ares
21 4
Ġber ry
Ġgard a
Ġwarrant y
al ie
Ġre bo
Ġad r
Ġeros ion
Ġf izz
Ġbre aching
Ġtit res
Ġcomfort ably
r n
s pl
Ġc ada
Ġst ems
ol ism
qu in
Ġpr ada
Ġlo osen
Ġplan ners
Ġhal ved
Ġmess i
Ġpark inson
Ġly on
Ġax is
Ġmerc ury
Ġcoinc ided
Ġdeple ted
burs ed
d ade
i ating
Ġre agan
Ġsh im
Ġfin ishes
Ġparent ing
Ġoph thal
b ird
v ine
lo op
Ġcor r
15 4
Ġassist ive
Ġconfig uration
Ġadmit ting
Ġinnoc ent
am il
th ia
Ġorgan ising
Ġeduc ating
Ġ26 3
Ð¸Ð ´
Ġch or
ale z
Ùħ Ø©
Ġund isc
Ġvac ant
Ġsant iago
Ġspac s
Ø§Ø³ Øª
on line
Ġin patient
id u
Ġst icks
Ġprogress ives
Ġdest abil
Ġfuneral s
Ġpix el
Ġcounse ling
Ġb ore
Ġclar ified
Ġbak u
Ġkash mir
3 44
00 8
Ġam l
br azil
Ġrele g
Ġexplo ited
Ġgar ner
Ġrheumat oid
Ġrook ie
Ġburge oning
Ġn ause
Ġmut ually
Ġlands l
ĠrÃ© g
Ġmontgom ery
Ġbu ilder
Ġlong itudinal
.... .
Ġbill ed
Ġspecial izing
45 2
Ġdress ing
p od
Ö Ĥ
Ġsecur it
sh op
Ġplay station
Ġsubst ances
ë ĭ
Ġ20 35
Ġslip ping
Ġredund ant
prem ises
Ġtian anmen
Ġdiscom fort
Ġco ke
Ġcl aud
16 5
Ġlog istic
Ġunders coring
prot ected
Ġjos Ã©
Ġtribun al
Ġpet erson
24 6
13 6
Ġram aphosa
Ġcathed ral
h un
l iving
ot le
Ġconver gence
Ġphilanthrop ic
Ġairpl anes
m ass
il io
Ġ'' ;
Ġme yer
americ a
Ġdun can
Ġkap lan
4 39
24 9
Ġwealth ier
Ġremo ves
it zer
Ġ25 9
Ġlin ux
Ġfo rens
Ġlie u
Ġexplan ations
Ġplaint iff
g erman
it ate
Ġpe rez
Ã¡ ri
Ġnom ura
Ġalexand ria
Ġwyn n
n ick
Ã ¥
Ġrev amp
Ġconv oy
elig ible
Ġam ino
Ġla x
20 6
Ġtyp ho
13 8
22 2
33 3
Ġamb ig
Ġchurch ill
Ġdispar ate
Ġam ber
Ġall ianz
Ġgrow ers
Ġperform s
Ġprevent able
99 0
Ġalber to
r it
Ġj bs
Ġci ud
ØŃ Ø¯
Ġeco ch
eral a
Ġav iv
que z
Ġer ik
Ġmal nutrition
Ġarm our
Ġ39 6
Ġang le
Ġd itch
Ġgr am
36 7
Ġex iting
Ġdis burse
Ġgu er
Ġdev ops
ann on
Ġca es
Ġer in
ir s
30 7
Ġ26 9
av ia
Ġser a
Ġlatin x
åľ ¨
Ġrhyth m
prospect us
p able
Ġshort s
de z
14 3
Ġcp g
Ġcyberatt ack
Û ģ
ent ures
Ġde gr
Ġgen omes
Ùħ ÙĨ
coun ter
Ã©m ie
Ġa ster
Ġcont re
Ġ30 5
Ġcop enhagen
ĠØ§ÙĦØ ¨
Ġresh ape
ill ary
ac are
Ġun stable
da vid
ÙĦ Ùĥ
Ġexhib ited
Ġbullet in
Ġunpro ven
arett es
Ġl al
Ġam ateur
Ġpublic ity
Ġot ros
Ġdiscip lines
dec ade
Ġgentle men
q s
orm an
Ġprov oked
24 3
Ġab used
21 1
Ġcapt ures
Ġbout ique
Ġecoch unk
a er
Ġcomp elled
Ġant agon
yp d
14 6
Ġaven ues
re b
Ġst yl
19 1
man aged
24 5
ÐµÐ½ ÑĤ
Ġs j
Ġin qu
Ġmar in
int estinal
22 8
Ġdeport ation
Ġgluc ose
at che
Ġf ang
Ġm istr
Ġfact oring
Ġb ast
Ġm izu
Ġwas hed
Ġear s
Ġ27 3
Ġhier archy
â ĪĴ
Ġco balt
Ġbo o
Ġpar adox
Ġsn y
Ġunlock ing
Ġcollaps ing
Ġnia id
Ġv ista
Ġ20 40
16 4
Ġclean ers
Ġexpans ive
Ġha it
Ã¨ re
wr iter
Ġcytok ines
Ġdisplace ment
Ġre negoti
names e
Ġmo ist
Ġsw ir
Ġplant ing
Ġta ip
ĠÃª tre
Ġh g
Ġsa g
Ġbl essing
Ġt iers
Ġo em
Ġf ence
ou i
Ġ3 23
ted ance
15 3
Ġ38 3
Ġjes se
e ren
ut ch
Ġque er
Ġgl am
Ġtherap ist
Ġtra umatic
t ors
Ġm ast
Ġst atic
Ġse ated
Ġj ug
Ġqu ota
Ġstr ides
Ġstock ing
Ġtur bo
Ø± Ø©
Ġlon gevity
Ġpresum ptive
oise ach
Ġstub born
Ġvint age
g ates
Ġb ancel
Ġman ually
cl iffe
ĠÑ Ħ
Ġfart her
4 20
7 80
Ġcol um
ins pired
Ġdev ote
Ġ27 1
Ġmillenn ial
Ġbureaucr acy
Ġshort en
Ġhor iz
Ġcow ork
Ġunw anted
0 80
Ġhas s
Ġpar ity
Ġma i
Ġ27 9
Ġhay es
Ġdwind ling
Ġthreshold s
Ġflip board
ab ank
Ġk ios
Ġ3 35
Ġro we
Ġur anium
ob a
Ġlyn n
ĠÑį ÑĤ
Ġmass acre
15 7
Ġimag ery
Ġzh u
law s
Ġconscious ness
æ Ķ
Ġw and
ig a
ill ips
Ġhe w
Ġ30 1
Ġel astic
arm ing
par alle
Ġsout heastern
Ġang lo
ut t
ick en
Ġflo ated
Ð¸ÑĩÐµ ÑģÐº
ul ators
int el
Ġbill ings
Ġreason ing
Ġbirth s
ðŁ ĩ
Ġw af
Ġmarket able
Ġdown time
Ġmack enzie
Ġmour ning
Ġunh appy
qual ified
Ġa al
Ġj okes
Ġi ver
Ġhead wind
public ations
0 10
Ġd ing
un c
Ġun aware
Ġpl ains
Ġout sk
Ġnormal ize
Ġmal i
Ġrecy cl
Ġtip ranks
Ġais le
es k
Ġgro cers
Ġcar p
Ø³ Ø·
Ġbrook field
dise ase
Ġ( .
ho e
urg ical
Ġsouthwest ern
Ġon site
Ġhigh ways
Ġcar lson
by n
15 1
Ġcompound ing
m igr
Ġby tedance
ĠØ§ÙĦØª ÙĬ
ĠÙĩ Ø°
germ any
Ġundisc losed
f ur
Ġm j
ous es
ne x
23 7
direct or
Ġman o
Ġblo ody
Ġyield ed
b w
Ġin gr
Ġsh am
Ġprim aries
Ġyield ing
Ġblock ade
Ġtoler ate
b ush
t em
Ġif r
Ġpat terson
Ġback ers
15 8
Ġf ancy
st ad
Ġdispos ition
Ġscand als
l v
Ġne ces
Ġco ins
any a
Ġsw ine
Ġunders core
Ġjoy ce
Ġc to
Ġl up
Ġcart oon
bm j
p ite
Ġs log
ut i
Ġtr an
Ġsch midt
Ġest r
Ġmill ones
Ġquestion able
Ġmes a
un ted
Ġ8 77
20 23
Ġ19 81
25 9
Ġoutsk irts
å į
Ġgener ators
Ġ× ©×
Ġdiabet ic
Ġstag gered
dia gn
es is
ver ts
Ġrun ners
Ġjob keeper
16 7
Ġsand ra
Ġamort ized
Ġmin s
Ġautom ating
reg ulated
Ġrecon nect
Ġlee way
Ġauthentic ating
Ġnad al
w u
con scious
Ġsupp ressed
Ġel isa
Ġfound ational
Ġsin opharm
Ġprud ential
k at
as ure
Ġz ar
22 3
Ġclar ion
Ġstewards hip
0 11
2 27
ph ot
Ġarch ived
ÙĤ Ø¯
4 14
Ä Ļ
ber ger
gr ande
Ġfre eman
Ġhol low
Ġaw es
Ġprofound ly
Ġdistur b
c ro
Ġm ull
Ġl ira
et o
est ed
all a
Ġreport able
ink i
ÙĦ Ø©
Ġsharp est
Ġelectron ically
Ġforum s
âĢĭ âĢĭ
Ġwarrant ed
Ġhorizon tal
im iento
Ġopen ness
18 8
Ġbox ing
Ġw ax
Ġn is
Ġst acked
ong yang
29 9
Ġrig id
Ġremed ies
Ġende avor
Ġde lete
oc aly
Ġnew born
der ived
Ġ4 25
Ġstat ues
Ġhom em
22 9
Ġmist aken
Ġther mo
Ġwhit ty
Ġtransf erring
Ġunderest imate
2 26
Ġcontact ing
b ol
p el
Ġper f
Ġgood man
Ġemphas izing
Ġkit chens
Ġethiop ian
fact or
Ø ¥
Ġ7 77
Ġsub committee
Ġ28 2
18 9
Ġbard a
Ġline age
Ġstret ches
Ġsidel ined
Ġpsychos ocial
Ġn ach
Ġ3 24
to ok
Ġ27 6
Ġwood en
z bank
m ac
u ania
Ġm mt
Ġfor c
Ġ4 16
Ġprev ail
Ġconv entions
Ġchat ter
0 60
0 70
Ġpl ates
Ġfil ib
load ing
orig inal
8 33
d ress
en ow
Ġh ints
Ġcan opy
Ġmult id
Ġjeopard y
z el
Ġw ishing
Ġg Ã©n
Ġk od
Ġ19 40
Ġes pa
30 5
Ġshar on
85 9
Ġintraven ous
pill ar
c ence
k il
é Ļ
Ġre semble
Ġv il
Ġun inter
og ram
Ġcol der
Ġ28 1
Ġber k
eff ler
Ġluc y
e w
× ¤
et us
Ġtr aces
Ġinf il
25 3
Ġles b
Ġecho ing
sup port
Ġunsc athed
f illed
ris ome
Ġcou pon
Ġluck ily
Ġsuscept ibility
or rh
Ġh ulu
str apped
Ġdiscour aged
Ġrevis it
q i
Ġthe or
Ġin ov
un icef
Ġr ho
Ġne iman
Ġad hering
Ġpub l
Ġclass ical
Ġvac ancy
Ġsanitis er
Õ «
Ġa uch
Ġg um
Ġcomp uted
Ġ19 86
bo ost
Ġserious ness
Ġshelter ing
Ġmultip les
Ġsqueez ed
Ġunint ended
Ġkush ner
Ġrepe ating
Ġbh p
Ġstif el
oc o
Ġser ological
Ġ19 67
Ġ27 4
Ġsac ramento
Ġperm issions
Ġsep sis
Ġup ends
Ġmed tech
Ġliquid ation
Õ¸ ÖĤ
Ġn pr
Ġst ones
Ġexp elled
Ġ3 46
Ġout cry
Ġvacc in
Ġrem embers
Ġground ing
fall s
Ġj i
19 4
Ġequ in
imm igr
Ġbreakthrough s
Ġapolog ize
Ġmyth s
Ġmizu ho
5 75
r ial
ĠÐ ¶
Ġdiff ers
Ġhon ors
infect ion
Ġdisinfect ants
0 25
Ġan al
Ġwor risome
Ġ3 99
Ġme a
Ġport rait
Ġemp res
Ġinequ ity
Ġcontrad ict
in ck
Ġw ir
Ġd v
Ġpartic le
ph ase
Ġcert ifications
Ġreinfor cing
marg in
0 15
3 10
Ġsa gan
Ġfr ames
Ġgear s
Ġmixt ure
st ed
Ġde af
tr on
ud s
Ġen emies
Ġram adan
Ġol iv
Ġsom alia
Ġawes ome
Ġrep s
doc uments
Ġgastro intestinal
Ġse iz
Ġbar nes
Ġbur berry
Ġincub ation
Ġnca a
is able
Ġre ais
Ġk erala
Ġ30 6
Ġcamp ing
Ġcounter fe
Ġmu eller
Ġac k
ep s
Ġconsult ed
Ġarbitr ation
Ġgonz alez
Ġantig ens
Ġimp osition
Ġjust ification
app lic
Ġmic roph
Ġ27 8
Ġsul ph
p ages
Ġ90 8
Ġrepur posed
m ount
Ġch ron
tr onic
opl ay
Ġmanip ulation
Ġnucle ic
Ġre fe
Ġe h
Ġgenet ically
Ġislam ist
Ġfisher men
Ġd aw
Ġe leg
Ġg tt
Ġpro ct
so ver
Ġlo ving
uff ed
Ġenzy mes
Ġcaro lyn
m ut
Ġac orns
21 8
23 2
Ġft p
Ġlev ine
Ġpy ongyang
Ġabund ant
Ġpert aining
Ġbiomark ers
Ġrefres hing
Ġg in
Ġst o
Ġind em
Ġsu ing
Ġprim er
Ġexpl or
cur rency
th ly
Ġ7 47
17 1
Ġground breaking
Ġhabit at
×¨× Ĳ
p ound
Ġh ain
ident al
Ġgu ill
Ġnon partisan
Ġ29 5
Ġpret end
Ġchau vin
Ġinexp ensive
n h
Ġy i
Ġunder represented
Ġtest ify
the med
Ġsoph ie
Ġc ues
Ġg ould
un it
Ġcas os
itor ies
des pite
wr ite
Ġl akers
Ġun paralle
Ġpet r
ÙĪ ÙĤ
Ġsand ler
Ġregistr ations
Ġconcept ual
4 75
h ara
x ico
Ġp j
Ġin active
Ġus eless
Ġdece ased
Ġnegoti ators
Ġcommer zbank
Ġcontex ts
Ù ĳ
ic z
if ted
Ġac a
Ġimp lying
Ġcust od
omm ission
tech nology
26 9
Ġwrong doing
Ġspl ash
Ġincumb ents
Ġnew com
Ġ4 70
35 5
cor por
05 3
Ġtransact ional
Ġtia a
on al
Ġgr as
che l
Ġconstr ued
Ġrespir ator
Ġcous in
4 38
ç Ķ
ust ing
Ġma e
18 3
Ġalloc ating
Ġoutp acing
Ġtaip ei
h at
in clusive
Ġres ins
Ġsp ree
pro ject
Ġpush back
Ġremind ing
Ġl il
21 6
Ġi z
Ġinv esco
Ġsk ype
Ġdor sey
ch annel
Ġde w
Ġad ss
Ġk ang
Ġstr ives
Ġbre eding
Ġder ive
Ġele ven
Ġpod r
Ġmaje ure
Ġa ka
Ġw oo
Ġd g
24 8
29 3
Ġcompens ated
Ġvolunte ering
russ ian
Ġaest hetic
a ids
Ġd uck
Ġcont enders
Ġqu ell
Ġfin ale
Ġbol t
Ġinspect ors
l itz
Ġit v
Ġunder gone
Ġ28 8
Ġterr ifying
Ġtweet ing
Ġexhib itors
Ġjen ny
Ġdepth s
Ġc ott
Ġr v
est hes
ab stract
Ġk end
Ġout n
Ġmas h
Ġcal am
Ġ35 5
Ġchrist ina
Ġkinder g
Ġst ab
Ġdev ise
Ġstrict est
Ġanonym ously
Ġreloc ate
Ġguang dong
Ġurs ula
on o
Ġc Ã³
Ġst ain
21 7
Ġdismiss ing
3 27
im arc
Ġis is
Ġsc attered
Ġlat am
Ġkind ness
Ġey eing
Ġded uction
comp etitive
Ġrom a
fund ing
ãĢ ģ
Ġcripp ling
Ġparalymp ic
Ġw ifi
Ġspec imens
23 6
Ġsof ter
i ative
................................ ................
Ġhung arian
! )
our se
Ġ4 60
Ġsc ler
fe ed
Ġmal awi
23 9
Ġtom my
Ð¸ÑĤ ÑĮ
Ġdecarbon ization
imon thly
5 60
ar ial
Ġrec up
Ġpre fe
Ġvar ad
Ġpump ed
Ġfred die
Ġencompass ing
b ling
d l
Ġt Ã©
Ġb imonthly
Ġmar ched
Ġhal o
Ġ27 7
Ġorig ination
29 2
Ġol ig
ter ror
Ġcl ue
Ġstock holder
Ġalle ges
Ġmotiv ate
product ive
4 17
x iv
Ġin secure
Ġcomp ress
red o
Ġ8 90
25 8
16 3
Ġdistinct ive
Ġcolum ns
Ġm am
Ġlith uania
Ġdere chos
ben ef
Ġunparalle led
Ġd irt
Ġhand y
Ġsuper hero
Ġvest ed
Ġsulf ur
a ul
ul atory
Ġj ah
Ġout spoken
Ġsw orn
Ġgrapp les
0 22
Ġt l
Ġb erman
24 7
Ġextr adition
Ġcease fire
Ġkimber ly
tr avel
Ġmid lands
Ġny u
Ġmc g
Ġsepar ating
fund me
Ġl ur
Ġun well
ÙĬ Ø§
Ġwithdraw als
eval uate
Ġargentine an
Ġunsurprising ly
u j
at able
20 14
pec ified
16 8
18 4
Ġment or
Ġextrem ist
Ġtig ers
Ġw rought
Ġp is
Ġf iji
se mit
Ġne ars
Ġadd itive
Ġsheff ield
Ġir res
Ġflu ids
Ġcs l
h ist
t ec
× ŀ×
Ġge omet
Ġattr ibute
Ġho arding
Ġimpris on
0 12
4 30
ate red
Ġaut ost
Ġ30 7
Ġtim ber
Ġtor res
Ġhect ares
atche wan
0 40
Ġever grande
Ġalger ia
Ġ3 26
Ġte resa
ĠØ º
Øª Ø´
Ġos lo
Ġremed iation
Ġbureaucr atic
Ġto l
19 7
Ġspecial ised
Ġgl or
Ġmen os
Ġfit ted
Ġhein z
i ya
m ectin
Ġa ar
Ġv ive
Ġne l
Ġj ian
Ġmer its
Ġclar ification
Ġharvest ing
Ġanch ored
Ġhels inki
poc ket
7 43
it em
Ġv iz
qu ito
ĠØ Į
let te
Ġprotest er
28 5
Ġconclud ing
Ġsd gs
aret te
n b
Ġs x
if s
und ers
Ġviet namese
Ġunderest imated
Ġfilib uster
ð Ŀ
Ġpl ight
Ġam r
Ġacc laim
Ġel bow
Ġcollect s
Ġna ive
Ġhardship s
0 45
æ Ĺ
26 6
Ġrecip es
Ġdin ers
Ġsd g
Ġhp v
Ġinh aled
apeut ics
f ac
h k
Ġd anny
Ġke e
Ġmeas urable
Ġsw all
17 9
ob ject
85 5
cor ruption
l iness
Ġs ung
Ġc ic
Ġw ie
Ġwa its
Ġcritic izing
Ð°Ð ´
Ġyoshi hide
b ike
Ġco erc
Ġwork day
ep loy
Ġcountry side
min i
Ġshr unk
Ġincorpor ation
Ġbay ern
Ġrail road
ing ing
ad ian
Ġsub mar
Ġbar ber
Ġgov t
Ġwid ow
Ġplumm et
d ro
Ù ı
Ġh ust
30 3
Ġsort ing
Ġplumm eting
Ġoutp aced
Ġfren zy
p ath
ar ag
Ġis m
Ġauthor itative
ier a
sup ported
g ain
Ġi ke
Ġsur real
34 8
Ġsask atchewan
Ġj pg
be ijing
Ġprotest ed
Ġ36 9
Ġfal con
Ġdiscour se
Ġassign ments
Ġisa ac
4 10
th ood
Ġchop py
Ġinfrastruct ures
33 9
Ġreass urance
Ġpept ide
Ġloun ge
Ġbe am
Ġwe i
op tim
Ġaf l
Ġair field
Ġroll outs
Ġpoly mers
Ġsanction ed
le en
est e
Ġgo fundme
aff e
Ġ28 4
Ġ27 2
Ġpul ls
Ġsqu ats
Ġgal actic
Ġcool er
spe aking
am y
Ġup held
Ġag n
Ġsouth ampton
Ġmor ales
ann ual
Ġshut tle
not es
t age
Ġs ights
Ġr ies
Ġself ish
14 2
28 9
Ġbun ker
Ãªn cia
0 27
Ġn olan
we et
Ġident ifiable
ios ity
Ġpriorit ised
gro ups
Ġdiscoun ting
Ġglimps es
an ks
Ġh oll
Ġi x
Ġclos ings
Ġschol z
40 4
Ġmaxim izing
Ġv ag
Ġgr a
Ġ] ),
Ġinfl ated
ash a
Ġ28 9
Ġrev oked
Ġsolic it
Ġfinn ish
Ġkud low
Ġirres pective
Ġe up
Ġmo g
Ġlo oting
Ġinter rog
Ġret ains
Ġpar ole
Ġlim bo
Ġ50 1
Ġmc d
Ġmusic ian
Ñĥ ÑĤ
Ġmerg ed
Ġvalid ity
Ġnik ola
Ġsteep est
5 70
Ġinf lection
Ġsub ordinated
Ġ30 2
Ġden ominated
Ġgard ner
il er
Ġal loy
Ġsh ores
Ġcomm uters
az i
Ġimport ers
Ġsubs ides
17 6
Ġovers upply
Ġenf ants
Ġaston ishing
br on
erb ai
Ġproportion ate
Ġmu y
blo od
ed es
ad en
Ġas ians
Ġr ams
ant on
Ġres ale
Ġsch ul
Ġ34 9
fl ash
Ġoverse en
Ġcyn thia
Ġp aving
ens on
18 7
Ġboun cing
Ġmoh ammad
Ġk re
Ġpat ented
aur a
uff le
iy ev
Ġpad s
he ed
Ġsa ga
Ġdo v
Ġgroup e
Ġsmall pox
35 2
Øª Ø³
oh ama
Ġorth op
e ks
Ġc ups
Ġval ve
Ġincorpor ates
ĠĠĠĠĠĠĠĠĠĠĠĠĠĠĠĠ ĠĠĠĠĠĠĠĠĠĠ
Ġinhib it
Ġdimin ish
p ac
y les
Ġd aim
Ġres ent
Ġimp r
Ġps a
200 9
Ġital ians
Ġtransl ating
Ġfro ome
Ġinterf aces
0 13
b ilt
Ġfor ged
ir ical
Ġnew ton
Ġinnov ating
28 7
Ġr aff
Ġ7 193
ater ial
Ġcontent id
Ġearn est
Ġtot alled
Ġshout ing
Ġdece ler
ung s
44 9
Ġbaker y
Ġbund le
s il
Ġg low
18 1
26 5
×ķ× ¨
Ġshield ing
os o
Ġcash less
Ġiniti ating
26 7
Ġneuro science
ä¸ Ģ
Ġindefin ite
Ġpall adium
n ove
Ġp ared
Ġcan ned
Ġneg atives
Ġ28 6
28 4
Ġreput ational
ĠÐ± Ñĭ
Ġscal ability
emerg ency
3 70
ich ael
Ġimp rop
Ġcar b
aut oplay
Ġfather s
Ġcv pid
pinned player
Ð¾ÑĤ Ð¾ÑĢ
Ġcet era
Ġzw ift
Ġhas ta
Ġche ering
25 4
Ġcommission ing
Ġmc en
Ġbioc hem
ab el
li o
Ġrap ha
Ġah mad
Ġrober to
gy z
accord ing
Ġin hal
Ġas a
Ġinv ented
Ġconsum m
Ġarch ae
Ġrodr igo
Ġbren nan
¡ ×ĺ
Ġun affected
Ġab original
Ġgl ory
29 8
Ġc ct
Ġl ighth
Ġab norm
Ġste aling
ÑĢ Ñĥ
Ġincorrect ly
il ation
Ġend ow
Ġbas eless
Ġdeb ated
play ing
Ġnotice able
Ġtouc hes
auth ors
c aus
h p
Ġpat ron
Ġ30 3
26 8
person al
Ġarm strong
rend an
Ġru in
Ġremitt ances
Ġunauthor ized
t oday
ut er
ul ator
Ġk t
Ġk kr
Ġbr icks
ric ted
Ġanaly sing
ck er
ra f
Ġstar ter
ĠØ§ÙĦØ ¬
Ġclot ting
Ġmagaz ines
Ġunp op
Ġintrins ic
Ġunbeliev able
as ers
Ġpro d
ib i
Ġbr ake
Ġar che
Ġprogress ively
Ġ38 2
5 12
Ø ¤
å ¯
Ġcons erve
Ġ9 11
str y
40 8
Ġcounter measures
Ġgall agher
Ġecho es
Ġfranchise es
ere r
Ġre active
Ġe book
Ġk um
Ġk ane
Ġen ric
Ġsc or
its u
30 6
ï¼ ī
Ġabsor bed
Ġbrun o
Ġank ara
Ġb ucks
Ġconsum ables
Ġdeb entures
Ġiver mectin
Ġw ished
un ity
Ġv icious
Ġv ivo
se vere
her ty
Ġperiod ically
Ġmat uring
23 1
Ġt p
ic ation
ion age
Ġrec urrent
ake ven
33 6
Ġsh attered
Ġ3 200
Ġpow ering
Ġbol ivia
Ġinstall ment
Ġsod ium
Ġapprent ices
us hing
Ġday time
46 5
Ġtempl ate
9 19
Ġw ounds
Ġp orn
ant z
Ġu z
Ġra id
27 4
Ġfundra iser
Ġcondem n
Ġinher it
Ġpolymer ase
Ġultras ound
0 90
4 80
w el
im i
Ġover flow
Ġpers isted
Ġfun nel
Ġconduct s
ban ks
met er
6 80
f da
Ġ5 883
Ġjac qu
Ġhug o
Ġtransmit ting
w d
Ġl ips
ric an
Ġver b
Ġcross ings
wom en
Ġsant Ã©
Ġgenes is
Ġlaugh ing
Ġhypothe tical
r ar
Ġ4 12
Ġmathemat ics
0 14
n ba
Ġsh akes
Ġle urs
Ġfr amed
17 2
17 8
Ġapolog ized
Ġkurd ish
Ã »
ar ts
Ġtrans missions
Ġoccup y
Ġaz d
Ġtok ens
Ġenquir ies
nove mber
Ġcor al
Ġdec ommission
Ġev angel
Ġcash flow
Ġnov o
Ġdisclos ing
Ġc ider
Ġbe a
20 8
Ġhapp ier
Ġprov oc
Ġapprox imate
Ġdivers ifying
âĦ¢ ,
Ð½Ñĭ Ð¼
bott om
Ġn ypd
ex pl
Ġnormal ization
kins on
Ġta oiseach
4 40
6 11
Ġas semble
Ġimport ing
Ġ29 3
Ġindepend ents
Ġcult urally
Ġga ug
inf opro
Ġvas cular
Ġcounterpart ies
am iento
Ġch ow
Ġconf ection
Ġfac etime
Ġunanim ous
a jo
Ġcompet ence
Ġlearn t
ush ima
Ġtire lessly
v ari
Ġed itions
az o
ĠĠĠĠĠĠĠĠ ĠĠĠĠĠ
Ġdepend ency
gu ided
Ġpharmac ists
Ġphilanthrop y
Ġfp nv
Ġperce ive
Ġveloc ity
Ġp ich
ib us
Ġmus h
Ġindian apolis
Ġsam antha
Ġmemor able
Ãª me
Ġsegreg ation
Ġassort ment
3 26
Ġin und
Ġout looks
me eting
cc iÃ³n
30 9
55 5
Ġpour ing
à¤ ¾
8 44
Ġt rent
Ġa aa
th on
ast ed
Ġu al
Ġmarch ing
be h
ann ah
27 7
Ġmit igated
hel ial
Ġcripp led
Ġdaim ler
3 28
in it
Ġp ud
Ġor ban
Ġfl ame
osp i
Ġgre eted
Ġmunicip ality
ĠÐ´ Ð»Ñı
Ġpear l
4 36
re rs
Ġw mt
ic ting
Ġgu itar
24 2
Ġfranc s
Ġsequ enced
Ġnich t
=- =-
6 46
w right
Ġto sh
Ġn ing
Ġro sa
Ġkey board
Ġsimilar ities
18 2
Ġfu elling
Ġaccred ited
Ġin efficient
Ġsupp ose
Ġzh ong
Ġdigit isation
Ġtent h
Ġlifes aving
Ġanecd otal
0 19
n ier
Ġd umb
Ġbl ues
get own
Ġill icit
Ġrecogn ising
Ġdia z
Ġe a
Ġimp etus
Ġar bery
ose c
az erbai
Ġma o
man ufact
Ġexter ior
att i
Ġho ax
Ġdefic iency
Ġol ivia
Ġtheore tically
Ġincarcer ation
Ġsixt y
Ġnause a
Ġe ther
um en
Ġinval id
Ġcommem or
3 46
s im
Ġw ik
ang a
Ġbroad est
Ġaud iting
Ġweb page
Ġtouch less
Ġshoot s
Ġrestrain t
Ġlm ics
Ġimpart ial
Ġunpop ular
Ġde er
Ġtr iv
min s
29 6
ÂĢÂ ľ
ar is
Ġl ags
Ġat omic
Ġest onia
Ġge ological
Ġoptim ise
Ġwear ables
Ġturb ine
Ġyok ohama
and ra
Ġaut os
Ġav i
Ġbl a
Ġexch anged
Ġtransition al
Ġlau rent
Ġunic orn
ab i
ign ment
Ġvi i
Ġmess y
Ġsil k
Ġpain ts
0 17
c m
Ġteam mate
23 8
Ġoliv ier
6 60
s yn
Ġg ild
ect a
Ġexp edited
Ġcar cin
sc ore
ming ton
Ġsand wich
oh oo
4 70
Ġv w
ÂĢÂ Ŀ
Ġreinfor ces
Ġencompass es
Ġraf ael
m atch
r ists
Ġo usted
Ġin action
Ġg ens
Ġst ave
ie va
Ġper imeter
Ġwar fare
Ġnorm an
29 5
Ġiv ory
Ġsh apps
Ġ31 4
Ġorganiz er
Ġreferen cing
Ġembar ked
re tion
Ġsh u
Ġattr action
Ġflo cked
sk a
Ġcosmet ic
Ġle y
Ġqu ery
Ġfr aming
Ġunder water
Ġeven ly
ĠÂ ±
Ġsanit izing
Ġglo ve
Ġdeple tion
d ened
ĠâĢĿ ;
Ġout str
Ġdr ift
Ġrep ression
Ġmy el
Ġche fs
0 95
le igh
Ġde ux
Ġdr ake
Ġref ine
Ġfav ors
Ġbag hd
Ġasc ertain
auth ored
5 90
Ġ ê
ar am
ou x
cy cl
Ġintegr ations
Ġexcer pt
7 67
p ad
or ox
Ġdon t
Ġread justed
Ġstream lining
Ġale j
Ġbair d
5 40
h ns
en ic
Ġb aked
Ġch ung
Ġun healthy
Ġ202 9
Ġrep osition
Ġent ret
Ġche ered
Ġtick ing
Ġsad ness
Ġom ni
Ġdeterior ate
Ġoc asio
3 19
Ġ %)
Ġp iled
Ġb rendan
Ġl ime
ent es
Ġu cla
Ġ28 7
16 1
Ġtrib e
Ġunderperform ance
erg er
Ġmet re
Ġrein state
sup p
Ġpredecess ors
Ġpersec ution
Ġarn old
0 18
Ġqu entin
Ġopt ics
Ġtrace ability
d iv
h ir
u Ã©s
Ġn ct
Ġis g
res ults
Ġco sm
ie ves
uc le
Ġche s
Ġinterview ing
Ġer ad
Ġamen ities
Ġpr izes
Ġtest ified
Ġ19 76
27 2
Ġgl ac
14 1
Ġdial ysis
Ġcomprom ising
Ġdress es
Ġuninter rupted
c ollar
Ġ Ï
Ġbet ray
23 4
Ġmut ate
Ġpaed iatric
con firmed
Ġsol vency
Ġground work
Ġbroadcast ers
Ġfreel ancers
Ġpersonal ised
Ġrail ways
Ġalign ing
Ġlis bon
Ġtw itch
Ġsch aff
Ġbl izz
Ġeas iest
38 5
Ġexam inations
estab lish
Ġfr anÃ§
br ien
27 1
Ø§Ø ¶
Ġbase ment
Ġky odo
mc f
Ġimpl ant
am ily
ain ted
Ġco bb
Ġgo ve
Ġqu iz
Ġgen ius
Ġpar cels
get element
by id
Ġber nal
Ġpin point
getelement byid
3 15
Ġ erg
Ġa rose
re v
Ġun just
Ġcomp art
ist ar
Ġmoder ation
Ġred eploy
Ġ29 1
Ġa il
Ġ3 44
Ġz ika
ry st
Ġsing ular
Ġmor ph
Ġovers aw
Ġtrim med
Ġf um
Ġup sk
Ġed mund
Ġflo rence
Ġproced ural
Ġregistr ant
Ġventure beat
Ġmos ques
Ġdiver ted
Ġnotor iously
Ġheter ogene
Ġa ires
Ġin advert
um an
Ġbr its
old ers
Ġform id
des k
Ġlifest yles
Ġerad icate
h ia
Ġpro state
Ġk atherine
Ġu y
Ġbr ien
Ġeu rom
Ġsurge ons
33 2
Ġad ler
Ġsp ro
Ġcle ans
Ġdi ary
25 2
28 6
Ġange ls
Ġsue z
Ġpar ish
Ġref ocus
ex istent
Ġnom bre
Ġantivir als
Ġdispers e
Ġprescrib ing
s ided
Ġn b
Ġform ulations
Ġchrist ie
47 8
Ġmatt ress
Ġdol ph
Ġvoy age
Ġadhes ives
Ġgobier no
cort ez
×¨×Ĳ ×ľ
0 75
ch arged
li k
Ġren ted
33 7
Ġna omi
l ights
ow e
Ġal umn
ie ren
Ġz en
Ġrisk ed
27 9
Ġmur dered
imarc group
7 20
ion a
Ġde grad
Ġcon se
Ġclin ician
Ð° ÐµÑĤ
Ġwealth iest
run ner
ÐµÐ½ Ð¸Ðµ
roy ce
onym ous
Ġd ab
Ġ3 36
20 28
Ġgr ains
Ġz m
Ġ40 4
38 6
Ġdesc end
Ġunsuccess ful
Ġth irds
Ġr ica
Ġsh it
Ġcl ashed
Ġover re
Ġthem atic
Ġorgan ise
37 3
Ġcraf ts
Ġh outh
Ġar d
Ġben ign
Ġren der
26 2
Ġsize able
Ġkat z
Ġmerc ado
Ġsimultane ous
Ġassert ed
Ġdisreg ard
ĠâĹ ı
ou los
Ġk ris
Ġdem o
str ike
Ġdevelopment al
oct ober
m ain
Ġrem inis
Ġav ian
Ð° ÑģÑĤ
45 5
Ġdoubt ful
Ġfox conn
Ġsymb ols
Ġsa k
og gi
Ġmin ors
Ġdeb ating
Ġability lab
Ã¤ r
Ġang us
Ġbull ion
an an
Ġd iving
Ġh osp
Ġauthor izations
ale ment
pay ment
Ġenvelop e
Ġvm ware
Ġd ots
Ġmar ty
Ġdis g
sh ort
Ġcha ired
Ġcart el
Ã©t Ã©
it ating
Ġinc ap
str ateg
Ġmis use
Ġchrist ians
vent us
Ġfraud sters
2 88
Ġw fh
Ġch u
und i
Ġbul lets
Ġevalu ations
×Ļ× ©
ht m
Ġchan el
e ight
Ġsa x
Ġcur iosity
par able
Ġavoid ance
80 9
05 7
Ġinhib iting
Ġexhaust ion
Ġcomed ian
Ġr ang
ul ing
Ġab st
Ġev an
Ġsm bs
Ġ39 2
48 1
Ġstrengthe ns
Ġskin care
Ġhans en
Ġforrest er
ur ys
ill ow
Ġsp ont
Ġstr ings
Ġob am
Ġdistr act
Ġcentral ised
Ġdeliver oo
Ġmut ated
Ġleon ard
Ġpedest rian
Ġgd pr
Ġhoriz ons
2 19
Ġse mb
ia k
Ġ9 50
ins ky
ĠØ§ÙĦ Ø±
70 5
Ġprint ers
Ġcep i
3 22
m ol
Ġkn ife
Ġ19 85
Ġpost ers
Ġbre akeven
44 5
leg al
34 7
Ã§ a
Ġgar c
check out
Ġentre v
Ġblast ed
Ġdowngr ades
ad ors
oun g
Ġu i
Ġrem ar
ĠÃ© ta
def ined
Ġrepatri ation
Ġpued e
Ġc ures
Ġag on
og o
Ġloc ate
Ġcontro llers
Ġmeat packing
6 40
r av
Ġk ron
Ġk ospi
Ġbu enos
Ġfur y
Ġpast a
Ġbn pl
Ġneon atal
0 24
3 11
f w
u is
Ġk ard
Ġper due
Ġstr auss
sc ott
amed ia
Ġtransition ed
Ġcircumst ance
Ġrs v
Ġske wed
hop e
3 14
3 13
f ing
m ines
Ġm imic
st ant
Ġlib er
n rt
at tering
Ġcur ves
Ġaut res
Ġlocal ized
Ġmag gie
Ġno od
Ġunder performing
Ġoil price
Ġgre et
38 7
Ġepic entre
Ġformid able
Ġal armed
Ġam mun
Ġbl own
Ġholiday makers
Ġts a
Ġrehe ars
7 47
Ġt ires
Ġpract icable
Ġml n
ĠÑĢ Ð°Ð·
Ġwars aw
Ġextrem ism
Ġpars ons
Ġpeac ock
Ġimprison ment
f rench
t ouch
Ġd ior
Ġtw inges
Ġz omb
Ġ30 8
Ġtempt ing
treat ment
3 45
Ġno aa
tt i
Ġorder ly
Ġcoll ision
35 7
Ġcater pillar
Ġpv t
Ġc out
Ġaf gh
Ġed ison
Ġmag dal
Ġlay out
report ing
Ġig m
Ġtoil ets
Ġlad der
Ð° ÑĨ
Ġreb ell
Ġfellow ship
ii i
Ġnavig ator
Ġmultif amily
0 23
Ġhe p
Ġne at
Ġco herent
ag i
Ġdr um
Ġdem ise
Ġje ans
Ġsubstant ive
Ġrom ney
Ġnu anced
Ġdesert ed
uba ix
pub med
Ġnast y
Ġh ats
Ġk ai
Ġ5 10
cc a
Ġir relevant
Ġapart heid
Ġsir ius
Ġlect ures
Ġancest or
6 34
Ġg aut
Ġencourage ment
v ig
Ġan te
Ġn ir
ould er
Ġ3 37
Ġ30 9
Ġdig ging
40 1
reg ulation
28 2
Ġmigr ate
ÐµÐ ¶
Ġjac ket
Ã¶ r
Ġammun ition
Ġc ue
Ġimp over
cr it
sw ick
Ġfoot fall
Ġattract iveness
Ġcast ro
Ġrestr aining
Ġandre as
Ġscholars hip
0 36
c redit
n ative
s uch
Ġh ib
and ex
Ġrev iving
Ġsent in
Ġmetab olic
4 24
Ġro oft
lic ity
Ġtreas urys
Ġjun ta
Ġmerc ant
Ġrip e
Ġmaur ice
plat form
0 35
3 16
Ġc w
iv ities
ant ir
Ġ31 3
Ġ29 7
Ġemer itus
Ġexxon mobil
Ġm oms
as cript
ren der
Ġ4 10
Ġemphas izes
Ġpersist ence
stud y
[...]
