{
  "!": 1,
  "!!": 11800,
  "!!!": 28839,
  "!!!!": 37494,
  "!)": 22045,
  "!),": 46761,
  "!).": 41844,
  "!,": 34866,
  "!âĢĻ": 28842,
  "\"": 2,
  "#": 3,
  "$": 4,
  "%": 5,
  "%!": 42450,
  "%%": 44087,
  "%)": 2232,
  "%),": 6285,
  "%).": 8520,
  "%)..": 30691,
  "%):": 35737,
  "%);": 32522,
  "%,": 1909,
  "%.": 1923,
  "%:": 48701,
  "%;": 13346,
  "%?": 48208,
  "&": 6,
  "'": 7,
  "'.": 39338,
  "'d": 26074,
  "'m": 32692,
  "'re": 1599,
  "'s": 449,
  "'t": 1057,
  "(": 8,
  ")": 9,
  ")%": 10597,
  ")'": 37445,
  "))": 17160,
  ")).": 27874,
  "));": 36526,
  "),": 986,
  ").": 1081,
  ")..": 25995,
  ")...": 47967,
  "):": 4479,
  ");": 3491,
  ")?": 17498,
  ")âĢĻ": 42535,
  "*": 10,
  "+": 11,
  "+)": 33757,
  "++": 16537,
  "++)": 24767,
  "+,": 16145,
  "+.": 16066,
  "+/": 48409,
  ",": 12,
  ",%": 35559,
  ",,": 37446,
  ",.": 34497,
  ",...": 19615,
  ",âĢĻ": 8170,
  ",âĢĻâĢĻ": 29241,
  "-": 13,
  "-%": 38302,
  "-,": 21016,
  ".": 14,
  ".%": 44706,
  ".'": 9553,
  ".)": 3731,
  ".),": 20286,
  ".).": 26645,
  ".+": 45080,
  ".,": 1594,
  ".-": 6660,
  "..": 586,
  "...": 2040,
  "....": 1019,
  ".....": 21131,
  "......": 23979,
  ".......": 30148,
  "........": 1761,
  "................": 2913,
  "........................": 34457,
  "................................": 4815,
  "........................................": 34838,
  "................................................": 22043,
  "........................................................": 33461,
  "................................................................": 8656,
  "................................................................................................................": 44908,
  "................................................................................................................................": 18176,
  "./": 19997,
  ".:": 13648,
  ".;": 15642,
  ".?": 35351,
  ".|": 33172,
  ".âĢ¢": 26908,
  ".âĢ¦": 36644,
  ".âĢĭ": 25079,
  ".âĢĶ": 36220,
  ".âĢĺ": 26214,
  ".âĢĻ": 5313,
  ".âĢĻâĢĻ": 39556,
  ".âĢł": 46762,
  ".âĸł": 46582,
  "/": 15,
  "/)": 40411,
  "/-": 30595,
  "/.": 16649,
  "/...": 46009,
  "/....": 46639,
  "//": 20055,
  "////": 37038,
  "/?": 12415,
  "0": 16,
  "00": 441,
  "000": 816,
  "0000": 17915,
  "00000": 46539,
  "00000000": 49195,
  "0001": 14887,
  "0005": 43312,
  "001": 10377,
  "002": 17222,
  "003": 19685,
  "004": 18743,
  "005": 12684,
  "0050": 33566,
  "0055": 38754,
  "006": 20230,
  "007": 20713,
  "008": 21115,
  "009": 20978,
  "01": 5025,
  "010": 21452,
  "011": 21570,
  "012": 22152,
  "013": 22443,
  "014": 22666,
  "0140": 45750,
  "015": 21792,
  "016": 20867,
  "017": 22874,
  "018": 22991,
  "019": 22805,
  "02": 5988,
  "020": 16918,
  "021": 18071,
  "022": 22106,
  "023": 23404,
  "024": 23323,
  "025": 21775,
  "026": 24307,
  "027": 22330,
  "028": 25554,
  "029": 24653,
  "03": 5868,
  "030": 20570,
  "031": 24399,
  "032": 24066,
  "033": 24857,
  "034": 24308,
  "035": 23474,
  "036": 23456,
  "037": 23498,
  "038": 24383,
  "039": 23801,
  "04": 5767,
  "040": 22161,
  "041": 25685,
  "042": 24835,
  "043": 24316,
  "044": 23684,
  "045": 22216,
  "046": 23599,
  "047": 24384,
  "0470": 25845,
  "048": 25072,
  "049": 24145,
  "05": 4107,
  "050": 19440,
  "051": 24093,
  "052": 25333,
  "053": 21936,
  "054": 25502,
  "055": 25165,
  "056": 25027,
  "057": 23248,
  "058": 20561,
  "059": 17186,
  "05913": 43550,
  "06": 5147,
  "060": 21658,
  "061": 27053,
  "062": 25069,
  "063": 25723,
  "064": 25503,
  "065": 24664,
  "066": 26365,
  "067": 25004,
  "068": 25734,
  "069": 24890,
  "07": 5282,
  "070": 21659,
  "071": 24701,
  "072": 25784,
  "073": 25877,
  "074": 25275,
  "075": 23133,
  "076": 26163,
  "077": 23543,
  "078": 25362,
  "079": 24897,
  "08": 5544,
  "080": 21396,
  "0800": 29505,
  "081": 27363,
  "082": 26391,
  "083": 24799,
  "084": 26109,
  "085": 24915,
  "086": 25353,
  "087": 25663,
  "088": 25526,
  "089": 25609,
  "09": 5032,
  "090": 22637,
  "091": 25827,
  "092": 25411,
  "093": 26764,
  "094": 26291,
  "095": 22934,
  "096": 26003,
  "097": 25659,
  "098": 24798,
  "099": 24834,
  "1": 17,
  "10": 1802,
  "100": 5421,
  "1000": 14813,
  "1001": 41338,
  "1002": 41865,
  "1007": 45752,
  "101": 9959,
  "1016": 16282,
  "102": 16560,
  "103": 18023,
  "1038": 26271,
  "104": 18284,
  "105": 17479,
  "1056": 41022,
  "106": 17119,
  "107": 16600,
  "108": 18466,
  "109": 16609,
  "1093": 34582,
  "11": 2401,
  "110": 15568,
  "1100": 48733,
  "1101": 18617,
  "111": 18049,
  "1111": 36896,
  "112": 19398,
  "1126": 41589,
  "113": 20525,
  "1136": 41198,
  "114": 19390,
  "115": 18419,
  "116": 18941,
  "117": 18039,
  "118": 18341,
  "119": 18396,
  "12": 2585,
  "120": 12284,
  "121": 17549,
  "122": 20662,
  "1222": 25061,
  "123": 18503,
  "1231": 26146,
  "124": 18235,
  "125": 14768,
  "126": 20273,
  "1266": 29737,
  "127": 11430,
  "1273": 16263,
  "1275": 35032,
  "128": 19768,
  "129": 19950,
  "13": 2791,
  "130": 16290,
  "131": 20127,
  "132": 20722,
  "133": 20663,
  "134": 20603,
  "135": 18002,
  "136": 21159,
  "137": 19534,
  "138": 21202,
  "139": 20384,
  "14": 2787,
  "140": 17504,
  "141": 23013,
  "142": 22326,
  "143": 21250,
  "144": 20165,
  "145": 19725,
  "146": 21295,
  "147": 16935,
  "148": 19351,
  "149": 20779,
  "15": 2616,
  "150": 12575,
  "151": 21477,
  "152": 18668,
  "153": 21354,
  "154": 21082,
  "155": 19492,
  "156": 20995,
  "157": 21414,
  "158": 21506,
  "159": 20847,
  "16": 2514,
  "160": 17698,
  "1600": 42918,
  "161": 22981,
  "162": 9770,
  "163": 22087,
  "164": 21330,
  "165": 21151,
  "166": 20994,
  "167": 21547,
  "168": 22130,
  "169": 13334,
  "17": 2670,
  "170": 18292,
  "171": 21877,
  "172": 22671,
  "173": 20331,
  "174": 17856,
  "175": 18426,
  "176": 22385,
  "177": 17132,
  "178": 22672,
  "1780": 31860,
  "179": 22231,
  "18": 2675,
  "180": 17939,
  "181": 22464,
  "182": 22795,
  "183": 21949,
  "184": 22131,
  "185": 20224,
  "186": 20429,
  "187": 22407,
  "188": 21601,
  "189": 21638,
  "19": 458,
  "190": 18934,
  "191": 21299,
  "192": 20819,
  "193": 15517,
  "194": 21761,
  "195": 20242,
  "196": 19513,
  "197": 22172,
  "198": 20610,
  "1980": 47031,
  "199": 19506,
  "1990": 35020,
  "2": 18,
  "20": 882,
  "200": 3823,
  "2000": 25686,
  "2001": 35837,
  "2003": 35906,
  "2004": 39436,
  "2005": 41739,
  "2006": 49528,
  "2007": 44064,
  "2008": 32686,
  "2009": 22438,
  "201": 16349,
  "2010": 29748,
  "2011": 31855,
  "2012": 30942,
  "2013": 27147,
  "2014": 22128,
  "2015": 20475,
  "2016": 18000,
  "2017": 16079,
  "2018": 12396,
  "2019": 3671,
  "202": 15560,
  "2020": 3653,
  "20200": 8702,
  "202007": 17271,
  "2020070": 28355,
  "2020070900": 49841,
  "2020080": 43281,
  "2020090": 31003,
  "2021": 5260,
  "20210": 44959,
  "2022": 11449,
  "2023": 21533,
  "2024": 8494,
  "2025": 14613,
  "2026": 10974,
  "2027": 4790,
  "2028": 23161,
  "203": 18786,
  "2030": 18042,
  "2031": 33585,
  "204": 20966,
  "205": 20113,
  "2056": 41014,
  "206": 21200,
  "207": 20700,
  "208": 22691,
  "209": 20928,
  "21": 2066,
  "210": 20051,
  "211": 21287,
  "212": 19708,
  "2125": 45915,
  "213": 20824,
  "214": 21041,
  "215": 20972,
  "216": 21961,
  "217": 22022,
  "218": 21859,
  "219": 23276,
  "22": 2984,
  "220": 17255,
  "221": 18108,
  "222": 21203,
  "223": 21567,
  "224": 23533,
  "225": 17306,
  "226": 21624,
  "227": 21571,
  "228": 21307,
  "2284": 49178,
  "229": 21618,
  "23": 3191,
  "230": 19632,
  "231": 22607,
  "232": 21860,
  "233": 24246,
  "234": 23021,
  "235": 20947,
  "236": 22040,
  "237": 21489,
  "2373": 28412,
  "238": 22877,
  "239": 22051,
  "24": 2767,
  "240": 18865,
  "241": 23867,
  "242": 22783,
  "243": 21285,
  "244": 24122,
  "245": 21301,
  "246": 21158,
  "247": 22109,
  "248": 21979,
  "249": 21176,
  "25": 2392,
  "250": 12421,
  "251": 23620,
  "252": 23110,
  "253": 21699,
  "254": 22499,
  "255": 18994,
  "256": 20564,
  "257": 23690,
  "258": 22086,
  "259": 21535,
  "26": 2722,
  "260": 18924,
  "261": 24152,
  "262": 23181,
  "263": 23657,
  "264": 18479,
  "265": 22465,
  "266": 22218,
  "267": 22471,
  "268": 22540,
  "269": 21928,
  "27": 2272,
  "270": 20232,
  "271": 23042,
  "272": 23011,
  "273": 20920,
  "2733": 30048,
  "274": 22631,
  "275": 20494,
  "276": 23649,
  "277": 22763,
  "278": 25001,
  "279": 23145,
  "28": 3375,
  "280": 18645,
  "281": 23563,
  "282": 23440,
  "283": 24438,
  "284": 22481,
  "285": 22197,
  "286": 23111,
  "287": 22449,
  "288": 23233,
  "289": 22327,
  "29": 3188,
  "290": 20430,
  "291": 24427,
  "292": 22072,
  "293": 21980,
  "294": 24198,
  "295": 22905,
  "296": 22849,
  "297": 24887,
  "298": 22521,
  "299": 21607,
  "3": 19,
  "30": 1892,
  "300": 6555,
  "301": 19253,
  "3010": 31755,
  "3011": 45802,
  "302": 23582,
  "303": 22263,
  "304": 23865,
  "305": 21677,
  "306": 22590,
  "307": 21239,
  "308": 20014,
  "309": 22750,
  "31": 4071,
  "310": 21793,
  "311": 23324,
  "312": 23759,
  "313": 23338,
  "314": 23337,
  "315": 23060,
  "316": 23475,
  "317": 18884,
  "318": 18585,
  "3184762": 39098,
  "319": 22973,
  "32": 4502,
  "320": 16974,
  "321": 18747,
  "322": 23285,
  "323": 24385,
  "324": 24433,
  "325": 20754,
  "326": 22745,
  "327": 22024,
  "328": 22768,
  "329": 25005,
  "33": 3085,
  "330": 17910,
  "331": 19666,
  "332": 23105,
  "333": 21204,
  "334": 23890,
  "335": 23694,
  "336": 22613,
  "337": 23137,
  "338": 23630,
  "339": 22291,
  "34": 3674,
  "340": 18298,
  "3406": 48139,
  "341": 23539,
  "342": 26107,
  "343": 24648,
  "344": 21114,
  "345": 23381,
  "346": 22833,
  "347": 23293,
  "348": 22277,
  "349": 24671,
  "35": 3015,
  "350": 14543,
  "351": 14873,
  "352": 22421,
  "353": 16513,
  "354": 24974,
  "355": 21934,
  "356": 24104,
  "357": 23386,
  "358": 20172,
  "359": 23859,
  "36": 3501,
  "360": 16678,
  "361": 25282,
  "362": 24626,
  "363": 24612,
  "364": 25383,
  "365": 20198,
  "366": 24627,
  "367": 21230,
  "368": 23513,
  "369": 18354,
  "37": 3471,
  "370": 22486,
  "371": 23951,
  "372": 24413,
  "373": 23175,
  "374": 24708,
  "375": 18898,
  "376": 23957,
  "377": 23875,
  "378": 24005,
  "379": 24795,
  "38": 3629,
  "380": 18407,
  "381": 25499,
  "382": 25500,
  "383": 25068,
  "384": 23660,
  "385": 23037,
  "386": 23165,
  "387": 23354,
  "388": 24113,
  "389": 23530,
  "39": 3789,
  "390": 20367,
  "391": 24719,
  "392": 24143,
  "393": 24430,
  "394": 24007,
  "395": 24178,
  "396": 25680,
  "397": 24500,
  "398": 25258,
  "399": 24187,
  "4": 20,
  "40": 2678,
  "400": 4732,
  "401": 23438,
  "402": 24782,
  "403": 24570,
  "404": 22344,
  "405": 20593,
  "406": 24436,
  "407": 20283,
  "408": 22577,
  "409": 19367,
  "41": 5290,
  "410": 22287,
  "411": 25849,
  "412": 20503,
  "413": 24419,
  "414": 21575,
  "415": 17484,
  "416": 16059,
  "417": 22080,
  "418": 25271,
  "419": 24872,
  "42": 5276,
  "420": 21384,
  "421": 20558,
  "422": 25006,
  "423": 25316,
  "424": 23465,
  "425": 23760,
  "426": 24491,
  "427": 24482,
  "428": 25208,
  "429": 23517,
  "43": 4825,
  "430": 22153,
  "431": 26075,
  "432": 25464,
  "433": 18360,
  "434": 24318,
  "435": 24317,
  "436": 22778,
  "437": 25647,
  "438": 21945,
  "439": 21175,
  "44": 3153,
  "440": 22704,
  "441": 24412,
  "442": 20594,
  "443": 23631,
  "444": 23826,
  "445": 23291,
  "446": 24611,
  "447": 24647,
  "448": 24377,
  "449": 22459,
  "45": 3263,
  "450": 17239,
  "451": 24428,
  "452": 21134,
  "453": 23848,
  "454": 24295,
  "455": 23199,
  "456": 24670,
  "457": 25125,
  "458": 23944,
  "459": 25308,
  "46": 3589,
  "460": 19977,
  "461": 25871,
  "462": 25770,
  "463": 25283,
  "464": 23827,
  "465": 22623,
  "466": 25127,
  "467": 25549,
  "468": 25898,
  "469": 24171,
  "47": 3974,
  "470": 22889,
  "471": 23945,
  "472": 25102,
  "473": 25988,
  "474": 26888,
  "475": 21910,
  "476": 23699,
  "4762": 38699,
  "477": 26465,
  "478": 23125,
  "479": 25622,
  "48": 4000,
  "480": 22638,
  "481": 23258,
  "482": 24474,
  "483": 24994,
  "484": 19295,
  "485": 24891,
  "486": 24353,
  "487": 24649,
  "488": 24604,
  "489": 23982,
  "49": 4008,
  "490": 23765,
  "491": 26356,
  "492": 24731,
  "493": 25225,
  "494": 25360,
  "495": 24179,
  "496": 23893,
  "497": 25482,
  "498": 25361,
  "499": 23761,
  "5": 21,
  "50": 1846,
  "500": 4318,
  "501": 17824,
  "502": 24311,
  "503": 24945,
  "504": 26158,
  "505": 24471,
  "506": 24089,
  "507": 25120,
  "508": 25256,
  "509": 24102,
  "51": 7757,
  "510": 23492,
  "511": 25476,
  "512": 22571,
  "513": 24368,
  "514": 26492,
  "515": 23709,
  "516": 25981,
  "517": 24951,
  "518": 26215,
  "519": 27508,
  "52": 7772,
  "520": 23685,
  "521": 26394,
  "522": 25637,
  "523": 25136,
  "524": 26533,
  "525": 24866,
  "526": 17028,
  "527": 24759,
  "528": 27756,
  "529": 19967,
  "53": 7404,
  "530": 24581,
  "531": 26180,
  "532": 27602,
  "533": 26831,
  "534": 25279,
  "535": 26539,
  "536": 26814,
  "5369": 35700,
  "537": 23779,
  "538": 26493,
  "539": 26954,
  "54": 7410,
  "540": 22958,
  "541": 26658,
  "542": 26861,
  "543": 27057,
  "544": 25648,
  "545": 25610,
  "546": 26565,
  "547": 26366,
  "548": 25927,
  "549": 23600,
  "55": 4433,
  "550": 19331,
  "551": 24660,
  "552": 26407,
  "553": 26236,
  "554": 26630,
  "555": 22751,
  "556": 26570,
  "557": 26000,
  "558": 25334,
  "559": 26225,
  "56": 5903,
  "560": 22056,
  "561": 26408,
  "562": 25922,
  "563": 27020,
  "564": 25473,
  "565": 26141,
  "566": 24724,
  "567": 23746,
  "568": 27036,
  "569": 25638,
  "57": 5574,
  "570": 22372,
  "571": 26963,
  "572": 26313,
  "573": 26342,
  "574": 25227,
  "575": 21768,
  "576": 27169,
  "577": 25726,
  "578": 27123,
  "579": 26395,
  "58": 6034,
  "580": 23813,
  "581": 26191,
  "582": 26857,
  "583": 26498,
  "584": 24702,
  "585": 24154,
  "586": 27657,
  "587": 25190,
  "588": 26540,
  "589": 24543,
  "59": 5307,
  "590": 22943,
  "591": 25215,
  "592": 26903,
  "593": 26108,
  "594": 26204,
  "595": 26216,
  "596": 27018,
  "597": 26358,
  "598": 26440,
  "599": 25137,
  "6": 22,
  "60": 2959,
  "600": 7925,
  "601": 25585,
  "602": 24499,
  "603": 25606,
  "604": 23495,
  "605": 25014,
  "606": 25241,
  "607": 25732,
  "608": 26712,
  "609": 24560,
  "61": 8424,
  "610": 24803,
  "611": 22705,
  "612": 24010,
  "613": 26379,
  "614": 17168,
  "615": 25477,
  "616": 26367,
  "617": 15763,
  "618": 26955,
  "619": 24563,
  "62": 8534,
  "620": 24319,
  "621": 24452,
  "622": 25391,
  "623": 27379,
  "624": 24836,
  "625": 19507,
  "626": 26332,
  "627": 27732,
  "628": 26038,
  "629": 26333,
  "63": 8272,
  "630": 24928,
  "631": 25737,
  "632": 26150,
  "633": 27253,
  "634": 23428,
  "635": 26477,
  "636": 25834,
  "637": 26345,
  "638": 24095,
  "639": 26659,
  "64": 7253,
  "640": 23314,
  "6400": 45620,
  "641": 28611,
  "642": 28263,
  "643": 27612,
  "644": 25800,
  "645": 26242,
  "646": 22788,
  "647": 27457,
  "648": 28064,
  "649": 26745,
  "65": 3812,
  "650": 18183,
  "651": 25481,
  "652": 25203,
  "653": 26489,
  "654": 25951,
  "655": 25332,
  "656": 24338,
  "657": 24388,
  "658": 23891,
  "659": 24464,
  "66": 4104,
  "660": 22879,
  "661": 25501,
  "662": 26527,
  "663": 27247,
  "664": 26161,
  "665": 25687,
  "666": 25015,
  "667": 24396,
  "668": 25410,
  "669": 23925,
  "67": 4304,
  "670": 23578,
  "671": 25321,
  "672": 24839,
  "673": 25274,
  "6736": 46331,
  "674": 25461,
  "675": 23747,
  "676": 26889,
  "677": 25289,
  "678": 25771,
  "679": 25772,
  "68": 5475,
  "680": 22647,
  "681": 24613,
  "682": 26017,
  "683": 27600,
  "684": 26695,
  "685": 25057,
  "686": 27317,
  "687": 24929,
  "688": 27695,
  "689": 24086,
  "69": 4421,
  "690": 25594,
  "691": 26438,
  "692": 26975,
  "693": 26341,
  "694": 26822,
  "695": 28273,
  "696": 25204,
  "6969": 38700,
  "697": 23712,
  "698": 26162,
  "699": 26604,
  "7": 23,
  "70": 3016,
  "700": 8285,
  "701": 17913,
  "702": 20358,
  "703": 26932,
  "704": 24571,
  "705": 23282,
  "706": 25522,
  "707": 25091,
  "708": 24625,
  "709": 26045,
  "71": 8202,
  "710": 24843,
  "711": 26088,
  "712": 28051,
  "713": 24299,
  "714": 26754,
  "715": 26444,
  "716": 25810,
  "717": 27922,
  "718": 26111,
  "719": 28065,
  "72": 8372,
  "720": 23148,
  "721": 27380,
  "722": 27875,
  "723": 26755,
  "724": 27255,
  "725": 24898,
  "726": 27254,
  "727": 27458,
  "728": 27544,
  "729": 25762,
  "73": 7870,
  "730": 24837,
  "731": 27903,
  "732": 26688,
  "733": 26217,
  "7331": 44180,
  "734": 27342,
  "735": 25169,
  "736": 27392,
  "737": 26380,
  "738": 27803,
  "739": 27381,
  "74": 8414,
  "740": 25517,
  "741": 26832,
  "742": 27104,
  "743": 22190,
  "744": 27525,
  "745": 24087,
  "746": 28209,
  "747": 23363,
  "748": 27902,
  "749": 27172,
  "75": 3125,
  "750": 13579,
  "751": 24437,
  "752": 26713,
  "753": 25257,
  "754": 26437,
  "755": 25348,
  "756": 27533,
  "757": 26594,
  "758": 26537,
  "759": 27686,
  "76": 6187,
  "760": 23585,
  "761": 26551,
  "762": 28221,
  "763": 26441,
  "764": 26164,
  "765": 24989,
  "766": 26297,
  "767": 22950,
  "768": 25290,
  "769": 28946,
  "77": 3599,
  "770": 23499,
  "771": 25041,
  "772": 27117,
  "773": 24947,
  "774": 24572,
  "775": 23899,
  "776": 27062,
  "777": 24212,
  "778": 26618,
  "779": 26276,
  "78": 6337,
  "780": 21385,
  "781": 27199,
  "782": 28271,
  "783": 26716,
  "784": 26097,
  "785": 24978,
  "786": 27904,
  "787": 27024,
  "788": 27979,
  "789": 26687,
  "79": 4938,
  "790": 26862,
  "791": 25633,
  "792": 27599,
  "793": 27192,
  "794": 26070,
  "795": 25506,
  "796": 25523,
  "797": 25989,
  "798": 25681,
  "799": 24760,
  "8": 24,
  "80": 2901,
  "800": 6741,
  "801": 19547,
  "802": 25866,
  "8023": 33705,
  "803": 25855,
  "804": 25162,
  "805": 25460,
  "806": 25620,
  "807": 25710,
  "808": 23538,
  "809": 23247,
  "81": 8562,
  "810": 24011,
  "811": 25688,
  "812": 25861,
  "813": 23579,
  "814": 24444,
  "815": 24128,
  "816": 26782,
  "817": 25862,
  "818": 27066,
  "819": 26849,
  "82": 8581,
  "820": 25047,
  "821": 26781,
  "822": 24513,
  "823": 27625,
  "824": 26168,
  "825": 24180,
  "826": 28438,
  "827": 26624,
  "828": 25928,
  "829": 27077,
  "83": 8655,
  "830": 24737,
  "831": 27588,
  "832": 29055,
  "833": 21664,
  "834": 27445,
  "835": 26112,
  "836": 26588,
  "837": 27329,
  "838": 26317,
  "839": 29268,
  "84": 7707,
  "840": 25217,
  "841": 28016,
  "842": 29321,
  "843": 27560,
  "844": 22754,
  "845": 27207,
  "846": 28179,
  "847": 27757,
  "848": 24899,
  "849": 27025,
  "85": 3882,
  "850": 20236,
  "851": 27119,
  "852": 23505,
  "853": 26887,
  "854": 25244,
  "855": 22233,
  "856": 26425,
  "857": 28101,
  "858": 25964,
  "859": 21679,
  "86": 4762,
  "860": 23766,
  "861": 26001,
  "862": 26582,
  "863": 25746,
  "8630": 25965,
  "864": 26962,
  "865": 27091,
  "866": 23605,
  "867": 24357,
  "868": 26002,
  "869": 26746,
  "87": 4411,
  "870": 25031,
  "871": 27215,
  "872": 26845,
  "873": 26047,
  "874": 27300,
  "875": 20486,
  "876": 25900,
  "877": 19998,
  "878": 28188,
  "879": 27442,
  "88": 3181,
  "880": 24209,
  "881": 25841,
  "882": 25668,
  "883": 15971,
  "884": 26068,
  "885": 25040,
  "886": 26233,
  "887": 26820,
  "888": 19955,
  "889": 26807,
  "89": 4415,
  "890": 24188,
  "8900": 25872,
  "891": 27725,
  "892": 28738,
  "893": 27817,
  "894": 26667,
  "895": 24420,
  "896": 26870,
  "897": 26329,
  "898": 28394,
  "899": 28161,
  "9": 25,
  "90": 3512,
  "900": 9965,
  "901": 27325,
  "902": 25330,
  "903": 27815,
  "904": 27440,
  "905": 26190,
  "906": 27609,
  "907": 27554,
  "908": 25153,
  "909": 25986,
  "91": 8867,
  "910": 26422,
  "911": 24996,
  "912": 27368,
  "913": 26501,
  "914": 25032,
  "915": 24930,
  "916": 24952,
  "917": 16930,
  "918": 28052,
  "919": 22625,
  "92": 9678,
  "920": 24745,
  "921": 27237,
  "922": 25404,
  "923": 25907,
  "924": 25850,
  "925": 24605,
  "926": 27733,
  "927": 27105,
  "928": 26863,
  "929": 27092,
  "93": 9198,
  "930": 24704,
  "931": 27526,
  "932": 28398,
  "933": 28843,
  "934": 27257,
  "935": 26981,
  "936": 26305,
  "937": 29088,
  "938": 28358,
  "939": 27603,
  "94": 9222,
  "940": 26956,
  "941": 26053,
  "942": 28236,
  "943": 27281,
  "944": 28778,
  "945": 26243,
  "946": 27942,
  "947": 26466,
  "948": 27851,
  "949": 27561,
  "95": 3519,
  "950": 20962,
  "951": 28063,
  "952": 27198,
  "953": 26714,
  "954": 26808,
  "955": 27017,
  "956": 27071,
  "957": 27661,
  "958": 24853,
  "959": 25842,
  "96": 7768,
  "960": 24114,
  "961": 29213,
  "962": 26741,
  "963": 29031,
  "964": 28310,
  "965": 28586,
  "966": 29354,
  "967": 28895,
  "968": 29665,
  "969": 28807,
  "97": 7149,
  "970": 27256,
  "971": 27940,
  "972": 25437,
  "973": 27413,
  "974": 29067,
  "975": 25887,
  "976": 27562,
  "977": 28612,
  "978": 26998,
  "979": 29374,
  "98": 6686,
  "980": 24146,
  "981": 28791,
  "982": 27100,
  "983": 28155,
  "984": 28103,
  "985": 25996,
  "986": 28471,
  "987": 27545,
  "9877": 18576,
  "988": 27280,
  "989": 27318,
  "99": 3293,
  "990": 21213,
  "991": 25669,
  "992": 28761,
  "993": 26791,
  "994": 27643,
  "995": 23504,
  "996": 25999,
  "997": 25711,
  "99701": 30646,
  "998": 27016,
  "999": 20715,
  ":": 26,
  "::": 34759,
  ";": 27,
  ";.": 35310,
  ";:": 46066,
  "<": 28,
  "<|endoftext|>": 0,
  "=": 29,
  "=-": 18174,
  "=-=-": 22787,
  "=-=-=-": 33193,
  "==": 713,
  "====": 1094,
  "========": 1816,
  "================": 2957,
  "================================": 4812,
  "================================================": 10563,
  ">": 30,
  "?": 31,
  "?!": 35038,
  "?)": 26670,
  "?).": 49847,
  "?,": 27632,
  "?.": 24346,
  "?...": 48342,
  "?:": 46640,
  "??": 18095,
  "???": 41932,
  "?âĢĻ": 12852,
  "@": 32,
  "A": 33,
  "B": 34,
  "C": 35,
  "D": 36,
  "E": 37,
  "F": 38,
  "G": 39,
  "H": 40,
  "I": 41,
  "J": 42,
  "K": 43,
  "L": 44,
  "M": 45,
  "N": 46,
  "O": 47,
  "P": 48,
  "Q": 49,
  "R": 50,
  "S": 51,
  "T": 52,
  "U": 53,
  "V": 54,
  "W": 55,
  "X": 56,
  "Y": 57,
  "Z": 58,
  "[": 59,
  "\\": 60,
  "\\!": 49496,
  "\\/": 34867,
  "\\\\": 27482,
  "]": 61,
  "^": 62,
  "^^": 30357,
  "^^^^": 43776,
  "_": 63,
  "`": 64,
  "``": 485,
  "a": 65,
  "aa": 9778,
  "aad": 33076,
  "aan": 37977,
  "aap": 2376,
  "aas": 37688,
  "aat": 48767,
  "ab": 394,
  "aba": 6274,
  "abad": 16105,
  "abag": 48585,
  "abakh": 34335,
  "abal": 25825,
  "aban": 25084,
  "abank": 21405,
  "abas": 38069,
  "abay": 40187,
  "abb": 38590,
  "abc": 41570,
  "abd": 29834,
  "abe": 17447,
  "abel": 22503,
  "aber": 39387,
  "abet": 4244,
  "abeth": 8750,
  "abh": 23911,
  "abi": 22868,
  "abies": 41854,
  "abil": 5958,
  "abili": 49817,
  "abilia": 42343,
  "abilidad": 49672,
  "abilities": 2307,
  "ability": 1368,
  "abilitÃ©": 48837,
  "abine": 42870,
  "abit": 42121,
  "abl": 32154,
  "able": 533,
  "abled": 9085,
  "ablen": 29038,
  "ables": 2855,
  "abling": 31676,
  "ably": 1988,
  "abo": 33308,
  "abody": 43992,
  "abolic": 41441,
  "abor": 2737,
  "aborne": 40567,
  "abortion": 33541,
  "about": 13154,
  "abouts": 28461,
  "abr": 41263,
  "abria": 43940,
  "abric": 30909,
  "abs": 7106,
  "absor": 43015,
  "abstract": 22004,
  "abu": 48648,
  "abul": 32280,
  "abulary": 35848,
  "abus": 49943,
  "abuse": 42221,
  "aby": 17403,
  "abytes": 34440,
  "ac": 358,
  "aca": 16797,
  "acad": 24769,
  "academia": 31617,
  "acar": 36352,
  "acare": 21267,
  "acart": 20490,
  "acas": 27185,
  "acc": 652,
  "acceler": 28182,
  "accept": 13047,
  "access": 18311,
  "acci": 40522,
  "acco": 12672,
  "accord": 17348,
  "according": 22509,
  "account": 33042,
  "accounted": 46825,
  "accr": 29331,
  "accrual": 31118,
  "ace": 598,
  "acea": 31903,
  "aced": 3099,
  "acell": 30395,
  "acellular": 34114,
  "acency": 20108,
  "acent": 11787,
  "acenter": 34930,
  "acer": 32153,
  "acerb": 7185,
  "aces": 1987,
  "acet": 39541,
  "aceted": 35754,
  "aceutical": 3712,
  "acey": 20841,
  "ach": 729,
  "acha": 41819,
  "achal": 42960,
  "ache": 6267,
  "ached": 3040,
  "achella": 38490,
  "acher": 16031,
  "acherous": 44570,
  "achers": 25741,
  "aches": 3656,
  "achi": 18471,
  "aching": 5435,
  "achment": 12388,
  "acho": 44985,
  "acht": 16723,
  "achtas": 45293,
  "achus": 8465,
  "achusetts": 8474,
  "achy": 48540,
  "aci": 26756,
  "acia": 23695,
  "acial": 38040,
  "acic": 34331,
  "acid": 31983,
  "acies": 8062,
  "acific": 3358,
  "acing": 3320,
  "acio": 30360,
  "acion": 19545,
  "acionais": 41420,
  "acional": 13960,
  "aciones": 12115,
  "acious": 19022,
  "acity": 15917,
  "aciÃ³n": 6327,
  "ack": 543,
  "acked": 9713,
  "acker": 28854,
  "acking": 6569,
  "acks": 1832,
  "ackson": 8682,
  "acle": 7538,
  "acles": 11161,
  "aco": 12166,
  "acom": 17232,
  "acon": 12102,
  "aconian": 20768,
  "acons": 44041,
  "acoronavirus": 41716,
  "acp": 32520,
  "acqu": 17903,
  "acquire": 45181,
  "acquired": 32112,
  "acquisition": 34803,
  "acr": 31965,
  "acre": 15507,
  "across": 44661,
  "acry": 49783,
  "acs": 24944,
  "act": 443,
  "acta": 38110,
  "actable": 37907,
  "acted": 6155,
  "acter": 3718,
  "acterial": 24429,
  "acters": 13192,
  "actic": 14474,
  "actical": 33157,
  "acting": 11684,
  "action": 2204,
  "actions": 3119,
  "activ": 12240,
  "activated": 36663,
  "active": 5110,
  "actively": 13133,
  "activity": 25051,
  "actor": 20817,
  "actors": 20827,
  "actory": 13873,
  "acts": 26116,
  "acu": 38172,
  "acular": 15454,
  "acute": 26545,
  "acy": 1477,
  "acyt": 49050,
  "ad": 336,
  "ada": 4315,
  "adal": 37904,
  "adala": 38961,
  "adam": 39140,
  "adamente": 36449,
  "adan": 18275,
  "adas": 9919,
  "adata": 20941,
  "aday": 16496,
  "adays": 11460,
  "add": 11887,
  "addclass": 35377,
  "added": 16325,
  "adder": 36562,
  "addition": 38294,
  "address": 31915,
  "addressed": 49827,
  "addy": 45141,
  "ade": 760,
  "aded": 4853,
  "adeh": 28767,
  "adel": 8196,
  "adelph": 9759,
  "adelphia": 9791,
  "aden": 22395,
  "adena": 39305,
  "adequ": 10791,
  "ader": 24069,
  "aders": 30919,
  "ades": 2468,
  "adesh": 8258,
  "adeshi": 30422,
  "adex": 47710,
  "adh": 14611,
  "adha": 33471,
  "adhes": 45629,
  "adi": 12221,
  "adia": 18677,
  "adian": 22254,
  "adic": 11939,
  "adid": 37982,
  "adiene": 45763,
  "ading": 4610,
  "adis": 37416,
  "adish": 46592,
  "adition": 16244,
  "adium": 6688,
  "adj": 44276,
  "adju": 48278,
  "adjust": 48277,
  "adjusted": 12367,
  "adjuvant": 48469,
  "adle": 36477,
  "admin": 20337,
  "administered": 32910,
  "administration": 35696,
  "ado": 3334,
  "adobe": 36600,
  "adoc": 27854,
  "adol": 42997,
  "adona": 43592,
  "ador": 5200,
  "adora": 28395,
  "adoras": 50193,
  "adores": 16530,
  "adors": 23300,
  "ados": 6485,
  "adow": 6721,
  "adox": 11810,
  "adpause": 35358,
  "adriatico": 40024,
  "ads": 13617,
  "adsection": 43502,
  "adv": 18317,
  "advance": 32555,
  "advanced": 47951,
  "advancemarketanalytics": 41518,
  "advant": 10137,
  "advert": 19978,
  "advice": 41797,
  "advis": 18833,
  "advised": 41168,
  "advisor": 24652,
  "advisors": 43188,
  "ady": 4929,
  "ae": 6037,
  "aea": 47256,
  "ael": 3684,
  "aer": 21291,
  "af": 2211,
  "afa": 24644,
  "afe": 10749,
  "afee": 35082,
  "afely": 47130,
  "afen": 47794,
  "afer": 38599,
  "afety": 16144,
  "aff": 1298,
  "affe": 22306,
  "affected": 14540,
  "affiliated": 39590,
  "affir": 15395,
  "afghan": 43112,
  "afi": 30086,
  "afia": 48436,
  "afin": 48664,
  "afone": 18993,
  "afort": 45319,
  "afp": 15997,
  "afredo": 29028,
  "africa": 18362,
  "african": 29002,
  "afrost": 44790,
  "aft": 3167,
  "afta": 26855,
  "afted": 46199,
  "after": 9381,
  "aftern": 45320,
  "afternoon": 45416,
  "afts": 24588,
  "ag": 517,
  "aga": 14545,
  "agad": 49044,
  "again": 25512,
  "against": 34787,
  "agan": 12320,
  "aganza": 48063,
  "agar": 26259,
  "agas": 19878,
  "agate": 38895,
  "agawa": 27797,
  "age": 508,
  "ageable": 50024,
  "aged": 2460,
  "agel": 33608,
  "agem": 37908,
  "agement": 10454,
  "agen": 8804,
  "agence": 49869,
  "agency": 24598,
  "agent": 39076,
  "ager": 6711,
  "agers": 12061,
  "ages": 1393,
  "agg": 20556,
  "agger": 16241,
  "aggio": 50249,
  "aggress": 39113,
  "aggs": 47980,
  "agh": 15191,
  "aghan": 34453,
  "agher": 20551,
  "agi": 23408,
  "agic": 35097,
  "aging": 2132,
  "agio": 41490,
  "agm": 39351,
  "agn": 23903,
  "agna": 39700,
  "agne": 17506,
  "agnostic": 48693,
  "ago": 4192,
  "agold": 44237,
  "agon": 8880,
  "agonia": 39546,
  "agos": 28691,
  "agoya": 41786,
  "agr": 3303,
  "agra": 27886,
  "agram": 5101,
  "agre": 46907,
  "agree": 48359,
  "ags": 4020,
  "agu": 48039,
  "ague": 2986,
  "agues": 4529,
  "agul": 27515,
  "agulation": 29327,
  "agwa": 48534,
  "ah": 1532,
  "aha": 15146,
  "aham": 8593,
  "ahan": 16702,
  "ahar": 43316,
  "ahead": 20202,
  "ahi": 17263,
  "ahim": 19923,
  "ahl": 18443,
  "ahn": 11233,
  "aho": 13574,
  "ahoe": 33555,
  "ahon": 36231,
  "ahoo": 7460,
  "ahr": 49519,
  "ahu": 13040,
  "ai": 1715,
  "aias": 31172,
  "aic": 36406,
  "aid": 6288,
  "aids": 21985,
  "aign": 2268,
  "aik": 48548,
  "ail": 556,
  "aila": 47106,
  "ailability": 32195,
  "ailable": 14423,
  "ailand": 7321,
  "ailed": 10556,
  "ailing": 9459,
  "ails": 10982,
  "aily": 1922,
  "aim": 1801,
  "ain": 390,
  "aina": 41853,
  "ainability": 42273,
  "ainable": 14130,
  "aind": 37802,
  "aine": 10104,
  "ained": 1512,
  "ainer": 17790,
  "aines": 26913,
  "aining": 1860,
  "ainment": 19893,
  "ains": 1521,
  "ainsbury": 28186,
  "aint": 5664,
  "ainted": 23049,
  "aints": 5995,
  "air": 1045,
  "airbnb": 46489,
  "aire": 7777,
  "aired": 14479,
  "aires": 10941,
  "airline": 47178,
  "airlines": 39311,
  "airo": 14131,
  "airs": 4699,
  "airy": 10577,
  "ais": 9230,
  "aise": 27382,
  "aisle": 46450,
  "ait": 17401,
  "aj": 14245,
  "ajo": 22720,
  "ajor": 43689,
  "ak": 488,
  "aka": 8018,
  "akable": 43258,
  "akami": 45208,
  "akan": 34124,
  "akar": 38822,
  "akash": 27651,
  "ake": 622,
  "aked": 7554,
  "aken": 2138,
  "aker": 2613,
  "akers": 2450,
  "akes": 1711,
  "akesh": 40528,
  "akeven": 22612,
  "akh": 8127,
  "akhand": 48424,
  "aki": 8811,
  "akin": 27396,
  "aking": 963,
  "akings": 35332,
  "akinra": 42755,
  "akis": 18555,
  "ako": 26867,
  "akos": 43210,
  "akov": 33700,
  "akr": 18019,
  "akrishnan": 26894,
  "aks": 3133,
  "aksa": 38157,
  "akt": 30922,
  "aku": 19404,
  "akumar": 49716,
  "aky": 44889,
  "al": 282,
  "ala": 7475,
  "alach": 28144,
  "alam": 49709,
  "alan": 50160,
  "aland": 5077,
  "alando": 39516,
  "alas": 48480,
  "alcohol": 20507,
  "alcoholic": 25262,
  "ald": 2711,
  "aldi": 35884,
  "aldo": 48549,
  "alds": 44182,
  "ale": 1538,
  "aleaf": 25936,
  "aled": 3613,
  "alee": 35800,
  "aleigh": 31584,
  "alement": 23215,
  "ales": 6918,
  "alex": 30258,
  "aley": 32888,
  "aleya": 38809,
  "alez": 21094,
  "alf": 7386,
  "alg": 15505,
  "algo": 30241,
  "ali": 10059,
  "alia": 10856,
  "alian": 20369,
  "alid": 33343,
  "alidomide": 47474,
  "alie": 21045,
  "align": 18663,
  "aligned": 29436,
  "alina": 38378,
  "aling": 4931,
  "alis": 25340,
  "alities": 5542,
  "ality": 1546,
  "alk": 29651,
  "all": 475,
  "alla": 21589,
  "allah": 28184,
  "alle": 8860,
  "alled": 3754,
  "allen": 45512,
  "alli": 37694,
  "alliance": 38507,
  "alling": 7306,
  "allink": 49098,
  "allocation": 48963,
  "alls": 32830,
  "ally": 633,
  "almost": 33488,
  "alo": 14364,
  "alog": 10865,
  "alon": 32175,
  "alone": 12314,
  "along": 31422,
  "aloo": 37769,
  "alore": 30138,
  "alos": 45421,
  "alous": 35441,
  "alow": 41619,
  "alp": 36348,
  "alph": 15285,
  "alpha": 39817,
  "als": 1065,
  "alsh": 16968,
  "also": 25492,
  "alt": 18047,
  "alta": 35970,
  "alth": 596,
  "altham": 50176,
  "although": 28387,
  "aluation": 19552,
  "alveolar": 46475,
  "aly": 737,
  "alys": 33366,
  "alysis": 48285,
  "alytics": 48105,
  "am": 365,
  "ama": 3172,
  "amab": 38782,
  "amai": 29218,
  "amal": 43840,
  "aman": 14664,
  "amar": 25913,
  "amation": 17005,
  "amaz": 15785,
  "amazon": 16936,
  "amb": 4751,
  "amba": 36622,
  "ambia": 17647,
  "amble": 15737,
  "ambling": 9518,
  "amc": 44981,
  "ame": 709,
  "amed": 3262,
  "ameda": 31158,
  "amedia": 23331,
  "amedov": 45433,
  "amel": 36746,
  "ament": 3306,
  "amente": 13210,
  "amento": 17985,
  "amentos": 32184,
  "aments": 16294,
  "amer": 8948,
  "americ": 7081,
  "america": 21172,
  "american": 9060,
  "americans": 18249,
  "americas": 47316,
  "ames": 1912,
  "amesh": 40192,
  "amet": 43354,
  "ameth": 13863,
  "amethasone": 13999,
  "ami": 10443,
  "amic": 18922,
  "amics": 29551,
  "amid": 24059,
  "amide": 29294,
  "amiento": 22715,
  "amientos": 48892,
  "amil": 21087,
  "amiliar": 23526,
  "amily": 23048,
  "amin": 8292,
  "amine": 17753,
  "aming": 3323,
  "amins": 27356,
  "amm": 3542,
  "ammad": 16630,
  "amment": 31984,
  "ammer": 46965,
  "ammers": 19274,
  "ammy": 16310,
  "amo": 16436,
  "amol": 42033,
  "amon": 32786,
  "among": 39542,
  "amort": 36745,
  "amos": 14380,
  "amoto": 24762,
  "amount": 27186,
  "amous": 19128,
  "amp": 829,
  "amped": 13452,
  "ample": 1866,
  "amples": 4324,
  "amps": 29235,
  "ampton": 18621,
  "ams": 2758,
  "amt": 46417,
  "amu": 49156,
  "amura": 35823,
  "amy": 22314,
  "amÃ©": 46123,
  "an": 274,
  "ana": 3771,
  "anal": 46013,
  "analy": 9779,
  "analyses": 47807,
  "analysis": 12921,
  "analyst": 36519,
  "analytics": 23565,
  "anan": 23211,
  "anas": 20963,
  "anaugh": 27534,
  "anc": 562,
  "anca": 19133,
  "ance": 534,
  "anced": 2699,
  "ancel": 20007,
  "ancer": 15365,
  "ancers": 14823,
  "ances": 2009,
  "ancet": 7058,
  "anch": 4987,
  "anche": 9616,
  "anches": 10575,
  "anchez": 18954,
  "anchor": 45534,
  "ancia": 27593,
  "ancial": 12311,
  "ancies": 8751,
  "ancing": 2117,
  "anck": 48041,
  "anco": 15089,
  "ancouver": 12742,
  "ancy": 3487,
  "and": 368,
  "anda": 5739,
  "andan": 25109,
  "ande": 15094,
  "anded": 10365,
  "andemic": 630,
  "ander": 5690,
  "anders": 19222,
  "andes": 31406,
  "andex": 23461,
  "andez": 14762,
  "andi": 20585,
  "anding": 24585,
  "andmarkets": 6986,
  "ando": 7650,
  "andon": 7402,
  "andong": 28424,
  "andowski": 34764,
  "andra": 22860,
  "andran": 46770,
  "andre": 48893,
  "andrew": 40794,
  "andro": 18326,
  "ands": 1006,
  "andum": 17852,
  "andy": 26556,
  "ane": 2803,
  "aneous": 14942,
  "aneously": 30457,
  "aner": 46473,
  "anes": 7502,
  "anet": 37768,
  "aney": 31365,
  "ang": 744,
  "anga": 22836,
  "angagwa": 48843,
  "angan": 46424,
  "angana": 38179,
  "ange": 863,
  "anged": 6320,
  "angel": 19462,
  "angelo": 34997,
  "anger": 10053,
  "angered": 19000,
  "angering": 28515,
  "angers": 12969,
  "anges": 7787,
  "angi": 39997,
  "angible": 5777,
  "anging": 5349,
  "angle": 24193,
  "angled": 30053,
  "angling": 28692,
  "ango": 15751,
  "angu": 4205,
  "anguard": 16991,
  "ani": 3567,
  "ania": 5055,
  "anian": 26057,
  "anie": 49501,
  "anied": 10771,
  "aniel": 24206,
  "anim": 12016,
  "animal": 43023,
  "animated": 41417,
  "animatedown": 43568,
  "anin": 31081,
  "anine": 40466,
  "aning": 10477,
  "anity": 40250,
  "anium": 20471,
  "anix": 39535,
  "anj": 43933,
  "ank": 2090,
  "anka": 11269,
  "ankar": 28276,
  "anke": 48477,
  "anks": 22339,
  "anmar": 9899,
  "anmen": 21032,
  "ann": 2205,
  "anna": 17922,
  "annah": 22762,
  "annals": 49458,
  "annas": 44557,
  "anne": 13803,
  "annel": 11564,
  "anni": 24877,
  "annie": 25398,
  "anno": 39767,
  "annon": 21235,
  "annou": 50120,
  "announce": 46198,
  "announced": 32484,
  "announces": 31069,
  "annual": 22319,
  "anny": 14660,
  "ano": 6441,
  "anol": 41139,
  "anon": 14289,
  "anor": 39418,
  "anos": 28587,
  "another": 32783,
  "anov": 46073,
  "anova": 39947,
  "ans": 491,
  "ansa": 14832,
  "ansas": 8563,
  "anse": 44884,
  "anshu": 38532,
  "ansion": 40307,
  "ansk": 46304,
  "anski": 34501,
  "ansky": 39271,
  "anson": 18203,
  "ansson": 33267,
  "answer": 30749,
  "ant": 445,
  "anta": 4733,
  "antan": 29073,
  "antanamo": 48628,
  "antas": 15856,
  "ante": 8348,
  "antech": 50169,
  "anted": 13129,
  "antes": 15259,
  "anth": 8830,
  "antha": 20488,
  "antham": 43870,
  "anthony": 45990,
  "anthrop": 12543,
  "anti": 16096,
  "antib": 19964,
  "antibodies": 34784,
  "antibody": 28084,
  "antic": 6481,
  "antically": 38448,
  "anticip": 14324,
  "anticipated": 14959,
  "antigen": 46181,
  "antir": 23478,
  "antis": 10451,
  "antly": 7473,
  "anto": 16735,
  "anton": 22398,
  "antry": 46964,
  "ants": 1123,
  "antuan": 48484,
  "anty": 48650,
  "antz": 22628,
  "anu": 43785,
  "anus": 36945,
  "anvi": 50013,
  "anx": 38679,
  "any": 481,
  "anya": 21514,
  "anyahu": 13989,
  "anye": 25802,
  "anyl": 29179,
  "anz": 11282,
  "anza": 20418,
  "anze": 42168,
  "anzee": 48452,
  "anÃ§": 16658,
  "anÃ§a": 38229,
  "ao": 10500,
  "ap": 415,
  "apa": 27473,
  "apac": 31567,
  "apagos": 35778,
  "apal": 43146,
  "apan": 1915,
  "apart": 19183,
  "apartheid": 35148,
  "apat": 40102,
  "apaz": 36255,
  "ape": 2703,
  "apeake": 24934,
  "aped": 10085,
  "apen": 39182,
  "aper": 2568,
  "apers": 11258,
  "apes": 36023,
  "apest": 24656,
  "apeut": 19515,
  "apeutic": 46946,
  "apeutics": 22224,
  "apf": 47978,
  "aph": 7928,
  "aphazard": 41603,
  "aphil": 28338,
  "aphilippe": 29204,
  "aphosa": 21000,
  "api": 31221,
  "apia": 30485,
  "aping": 14616,
  "apiti": 49159,
  "apnews": 15899,
  "apo": 29632,
  "apol": 8047,
  "apoli": 32356,
  "apolis": 9195,
  "apolog": 48716,
  "apor": 18234,
  "apore": 3870,
  "aport": 26787,
  "app": 1062,
  "appa": 29221,
  "appe": 29612,
  "apped": 5179,
  "appen": 42328,
  "apper": 14501,
  "appers": 44680,
  "apping": 5898,
  "appings": 42279,
  "apple": 16337,
  "applic": 21830,
  "application": 41798,
  "applications": 28727,
  "appo": 16206,
  "appoint": 36757,
  "appointed": 18836,
  "appointment": 44968,
  "apprec": 33020,
  "appreciated": 34948,
  "appro": 12454,
  "appropri": 14108,
  "appropriate": 16157,
  "approval": 37343,
  "approved": 15042,
  "apps": 17462,
  "appy": 16534,
  "apr": 25509,
  "april": 13101,
  "aprio": 41364,
  "apro": 38618,
  "aps": 2558,
  "apse": 6177,
  "apt": 3735,
  "apur": 37944,
  "apy": 35423,
  "aq": 7039,
  "aque": 17385,
  "aques": 24738,
  "ar": 285,
  "ara": 3704,
  "arab": 28915,
  "arad": 33647,
  "araderie": 35412,
  "arag": 22269,
  "araj": 48667,
  "arajan": 44617,
  "arak": 41361,
  "aram": 22945,
  "araman": 30502,
  "aran": 12783,
  "arant": 4128,
  "arat": 13583,
  "aration": 6074,
  "arations": 10849,
  "aratnam": 32361,
  "arb": 43493,
  "arbeit": 42028,
  "arbon": 12175,
  "arc": 10060,
  "arcer": 14225,
  "arch": 3659,
  "arching": 24463,
  "archive": 30713,
  "archy": 14552,
  "ard": 493,
  "arde": 16134,
  "arded": 16232,
  "arden": 20598,
  "ardi": 17641,
  "arding": 17609,
  "arditis": 33413,
  "ardo": 11781,
  "ards": 2300,
  "ardson": 27232,
  "are": 507,
  "area": 18357,
  "areas": 28709,
  "ared": 934,
  "arek": 38475,
  "arel": 8753,
  "arella": 41673,
  "arelli": 36508,
  "arem": 47849,
  "arent": 6088,
  "arer": 10530,
  "arers": 17617,
  "ares": 1247,
  "aresh": 35832,
  "arest": 13720,
  "aret": 12424,
  "areth": 19930,
  "arett": 20056,
  "arette": 22200,
  "arettes": 21274,
  "aretz": 30688,
  "arex": 45636,
  "arez": 19881,
  "arf": 25765,
  "arg": 871,
  "arge": 1228,
  "arged": 11677,
  "argent": 33043,
  "argentina": 43484,
  "argo": 4884,
  "argon": 38537,
  "arh": 38854,
  "ari": 5155,
  "aria": 7305,
  "ariable": 29967,
  "arial": 22057,
  "arian": 4773,
  "arians": 19608,
  "arias": 29904,
  "ariat": 24386,
  "ariate": 30680,
  "aric": 33781,
  "aried": 29604,
  "aries": 3054,
  "arily": 2264,
  "arin": 19327,
  "aring": 1744,
  "ario": 6861,
  "arios": 19277,
  "arious": 15613,
  "aris": 22851,
  "arise": 43203,
  "arity": 8813,
  "ariz": 44329,
  "ark": 2752,
  "arket": 25375,
  "arkets": 40023,
  "arko": 35689,
  "arks": 4970,
  "arlo": 40413,
  "arm": 1679,
  "arma": 12409,
  "armed": 14990,
  "armer": 13941,
  "arming": 21426,
  "arms": 15245,
  "arn": 10661,
  "arna": 28194,
  "arnation": 42980,
  "arney": 31423,
  "arnished": 15200,
  "aro": 6432,
  "aron": 9281,
  "aroom": 31303,
  "aroor": 43177,
  "around": 9433,
  "arounds": 33282,
  "arov": 30322,
  "arr": 8851,
  "arra": 39383,
  "array": 24483,
  "arrest": 46074,
  "arro": 18309,
  "arrows": 18137,
  "ars": 1291,
  "arse": 18162,
  "art": 439,
  "arta": 15266,
  "arte": 33671,
  "arted": 26701,
  "arten": 17346,
  "artered": 10400,
  "arters": 4276,
  "arth": 10603,
  "arthritis": 42697,
  "arthur": 33641,
  "arthy": 14559,
  "arti": 34900,
  "artic": 10145,
  "article": 13610,
  "articlepage": 39781,
  "articles": 18648,
  "artient": 49445,
  "artime": 17315,
  "artis": 13132,
  "artner": 12809,
  "arto": 46180,
  "arton": 30574,
  "arts": 22676,
  "arty": 26757,
  "artz": 38966,
  "aru": 28069,
  "arus": 11377,
  "ary": 593,
  "arya": 26403,
  "aryn": 20589,
  "aryng": 49307,
  "aryngeal": 24518,
  "arÃ¡": 28729,
  "arÃ©": 27614,
  "arÃŃa": 45732,
  "as": 294,
  "asa": 13511,
  "asaki": 20125,
  "asan": 31405,
  "asant": 27294,
  "asc": 9820,
  "ascio": 49472,
  "asco": 42169,
  "ascript": 23484,
  "ase": 526,
  "ased": 684,
  "asek": 30045,
  "aser": 14101,
  "asers": 22564,
  "ases": 1526,
  "ash": 1663,
  "asha": 22350,
  "ashed": 6389,
  "asher": 40252,
  "ashes": 9659,
  "ashi": 13587,
  "ashing": 6453,
  "ashion": 3851,
  "ashire": 30142,
  "ashoggi": 23547,
  "ashtra": 17261,
  "asi": 13007,
  "asia": 11524,
  "asian": 14738,
  "asim": 37414,
  "asing": 1553,
  "asinghe": 46838,
  "asio": 9560,
  "asion": 6411,
  "asis": 19066,
  "asive": 12725,
  "ask": 3586,
  "aska": 8711,
  "askowski": 42478,
  "asl": 45245,
  "asley": 36000,
  "asm": 32404,
  "asny": 34234,
  "aso": 48833,
  "ason": 1334,
  "asone": 13832,
  "asong": 49221,
  "asonic": 24435,
  "asons": 3600,
  "asp": 10574,
  "aspx": 18519,
  "ass": 712,
  "assa": 30505,
  "assad": 35505,
  "asse": 18820,
  "assed": 14710,
  "assee": 48531,
  "assem": 45468,
  "assemb": 32477,
  "assen": 38593,
  "asser": 37663,
  "asses": 30277,
  "assess": 27549,
  "assessment": 32089,
  "asset": 19922,
  "assets": 13680,
  "assi": 33610,
  "assian": 39701,
  "assic": 36413,
  "assies": 33385,
  "assing": 31802,
  "assis": 30796,
  "assist": 33203,
  "assisted": 31987,
  "assium": 40560,
  "asso": 42861,
  "associ": 14852,
  "associated": 16887,
  "association": 41974,
  "asson": 45039,
  "assurance": 43600,
  "assy": 11103,
  "ast": 465,
  "asta": 26398,
  "astair": 49866,
  "aste": 17813,
  "asted": 22758,
  "aster": 2871,
  "astern": 12269,
  "asters": 8142,
  "asth": 46075,
  "astian": 14817,
  "astic": 4314,
  "astically": 12435,
  "astics": 9578,
  "asting": 33522,
  "aston": 33651,
  "astr": 13023,
  "astra": 46897,
  "astrazeneca": 15043,
  "astro": 10598,
  "astrop": 8179,
  "astrous": 15628,
  "asts": 3013,
  "asty": 29498,
  "asure": 21565,
  "asx": 25022,
  "asy": 11591,
  "asylum": 44230,
  "asys": 35547,
  "asz": 29605,
  "aszczuk": 41173,
  "at": 268,
  "ata": 4758,
  "atable": 22127,
  "atal": 13700,
  "atan": 31796,
  "atar": 8841,
  "atari": 27907,
  "atas": 44825,
  "atch": 1643,
  "atche": 21310,
  "atched": 18505,
  "atches": 31540,
  "atchewan": 22160,
  "atchi": 47507,
  "atching": 33121,
  "ate": 362,
  "atec": 36129,
  "atech": 40834,
  "ated": 478,
  "ateful": 9453,
  "ateg": 1109,
  "atek": 44149,
  "atel": 12267,
  "atell": 7509,
  "atellite": 44691,
  "ately": 1945,
  "atemal": 12480,
  "aten": 35257,
  "ateness": 45419,
  "ater": 912,
  "ateral": 6446,
  "atered": 22154,
  "aterial": 22452,
  "aterials": 30943,
  "aters": 35703,
  "ates": 599,
  "atet": 41048,
  "ateur": 16999,
  "ateurs": 25766,
  "atever": 6076,
  "ath": 1007,
  "atha": 44158,
  "atham": 26419,
  "athan": 6599,
  "athe": 36889,
  "athed": 20094,
  "ather": 1365,
  "athered": 24684,
  "atherine": 12837,
  "athering": 42379,
  "athetic": 19770,
  "athi": 34815,
  "athic": 34338,
  "athing": 27272,
  "athletes": 37196,
  "athlon": 31924,
  "athom": 30798,
  "athon": 11537,
  "athons": 41956,
  "athy": 8178,
  "ati": 8076,
  "atia": 41665,
  "atial": 36300,
  "atible": 30861,
  "atic": 1705,
  "atica": 48662,
  "atically": 4977,
  "atican": 18477,
  "atics": 17619,
  "atie": 45892,
  "atif": 44271,
  "atin": 28996,
  "ating": 695,
  "atinib": 44424,
  "ation": 325,
  "ational": 730,
  "ationally": 9619,
  "ations": 516,
  "atis": 36533,
  "atisf": 19011,
  "atism": 37224,
  "ativa": 26823,
  "ativas": 27934,
  "ative": 851,
  "atives": 2403,
  "ativo": 29909,
  "ativos": 35675,
  "atiya": 47663,
  "atl": 15003,
  "atlanta": 46522,
  "atlantic": 17523,
  "ato": 6748,
  "atography": 41483,
  "atoire": 50135,
  "aton": 21031,
  "ator": 1680,
  "atore": 32369,
  "atoria": 35023,
  "atorial": 18740,
  "atories": 8235,
  "atorio": 44160,
  "atorium": 10229,
  "ators": 1750,
  "atory": 1597,
  "atos": 12962,
  "atr": 29090,
  "atra": 28511,
  "atre": 39108,
  "atri": 11729,
  "atro": 31981,
  "ats": 1845,
  "atson": 13833,
  "atsu": 28441,
  "att": 4094,
  "atta": 26171,
  "attachment": 33925,
  "attachmentng": 48332,
  "attack": 32331,
  "attacks": 26947,
  "attan": 9841,
  "atte": 40339,
  "atter": 27394,
  "attered": 14271,
  "attering": 23345,
  "atters": 48962,
  "atti": 22821,
  "attis": 36544,
  "attisgarh": 49026,
  "attled": 25816,
  "atto": 35917,
  "attr": 26672,
  "atu": 28967,
  "atur": 37661,
  "atural": 33539,
  "ature": 3242,
  "atures": 6600,
  "atus": 48581,
  "atz": 24255,
  "au": 2869,
  "auc": 10725,
  "aucr": 12668,
  "aud": 3157,
  "audi": 25213,
  "audible": 20583,
  "audio": 47185,
  "audited": 6251,
  "audits": 45864,
  "aued": 41218,
  "auer": 18909,
  "auff": 35366,
  "aug": 8483,
  "aught": 47221,
  "august": 19086,
  "aul": 22100,
  "ault": 4874,
  "aults": 13686,
  "aun": 14301,
  "aur": 2417,
  "aura": 22412,
  "aus": 705,
  "ausch": 34674,
  "ause": 828,
  "auss": 17633,
  "austr": 12670,
  "australia": 16660,
  "australian": 24812,
  "aut": 3185,
  "auta": 43171,
  "auth": 15013,
  "authentic": 48501,
  "author": 9520,
  "authored": 22942,
  "authorized": 46099,
  "authors": 22535,
  "auto": 34179,
  "autom": 24105,
  "automation": 43083,
  "automotive": 43629,
  "autonomous": 32548,
  "autoplay": 22490,
  "autoplayvideoexist": 24594,
  "aux": 11412,
  "av": 472,
  "ava": 11600,
  "avage": 42772,
  "available": 44097,
  "aval": 45852,
  "avan": 18424,
  "avango": 37732,
  "avar": 49647,
  "avax": 9710,
  "ave": 388,
  "aved": 11834,
  "aveen": 39652,
  "avel": 14579,
  "avement": 36383,
  "aven": 3960,
  "avenue": 43533,
  "aver": 15566,
  "average": 16020,
  "averse": 35626,
  "aves": 4204,
  "avey": 41771,
  "avez": 29894,
  "avi": 17608,
  "avia": 21241,
  "avian": 30503,
  "avier": 23967,
  "avik": 49867,
  "aville": 50171,
  "avin": 32654,
  "aving": 1542,
  "avio": 5039,
  "aviolet": 25844,
  "avir": 11780,
  "avirus": 26173,
  "avis": 25295,
  "avit": 32875,
  "avo": 20616,
  "avor": 9113,
  "avour": 29852,
  "avy": 41264,
  "avÃŃa": 48973,
  "aw": 1303,
  "awa": 6530,
  "awaited": 20270,
  "awak": 49879,
  "awal": 34855,
  "awan": 36459,
  "award": 37898,
  "aware": 9639,
  "awat": 20402,
  "awatt": 25864,
  "awatts": 23972,
  "away": 7472,
  "aways": 15495,
  "awed": 41148,
  "awi": 15796,
  "awit": 46195,
  "awk": 14737,
  "awks": 49238,
  "awn": 7110,
  "aws": 33790,
  "ax": 940,
  "axel": 45312,
  "axi": 39842,
  "axis": 18593,
  "ay": 328,
  "aya": 10112,
  "ayama": 40342,
  "ayan": 16181,
  "ayaquil": 45540,
  "ayas": 37595,
  "ayashi": 35753,
  "aye": 32371,
  "ayed": 16297,
  "ayer": 5760,
  "ayette": 35794,
  "ayev": 31797,
  "ayi": 32964,
  "ayo": 33241,
  "ayor": 39501,
  "ays": 606,
  "aytimeout": 43499,
  "az": 1070,
  "aza": 8480,
  "azaki": 43063,
  "azar": 25537,
  "azard": 28988,
  "azas": 46835,
  "aze": 12299,
  "azed": 30231,
  "azeera": 33072,
  "azeneca": 4932,
  "azer": 25520,
  "azerbai": 22817,
  "azerbaijan": 25956,
  "azi": 22382,
  "azier": 29912,
  "azil": 19823,
  "azine": 25869,
  "azing": 29236,
  "azio": 46663,
  "azione": 17679,
  "azioni": 27799,
  "aziz": 31137,
  "azo": 22727,
  "azole": 45520,
  "azoned": 46031,
  "azu": 38595,
  "azy": 42506,
  "azz": 11485,
  "azzi": 40987,
  "azzo": 43360,
  "aÃ¢": 38777,
  "aÃ§Ã£o": 11918,
  "aÃ§Ãµes": 14641,
  "aÃ±": 28298,
  "b": 66,
  "ba": 3977,
  "baby": 44707,
  "bach": 18339,
  "bacher": 38062,
  "back": 2954,
  "backed": 8050,
  "background": 33638,
  "backs": 7576,
  "bad": 32171,
  "bag": 24236,
  "bage": 17110,
  "bags": 26502,
  "bai": 7629,
  "bail": 48951,
  "bal": 6929,
  "balance": 13543,
  "balanced": 34513,
  "ball": 3446,
  "balls": 33027,
  "balt": 19958,
  "ban": 3297,
  "banc": 29322,
  "band": 4738,
  "bands": 29686,
  "bane": 19101,
  "bang": 27293,
  "bangl": 45607,
  "bangladesh": 48408,
  "bani": 23849,
  "bank": 5710,
  "banked": 29097,
  "banking": 26827,
  "banks": 22645,
  "bao": 36899,
  "bar": 7879,
  "bara": 34095,
  "bard": 30376,
  "barrel": 30428,
  "barrÃ©": 47997,
  "bars": 43042,
  "bart": 41564,
  "bas": 13097,
  "base": 10503,
  "based": 1657,
  "baseline": 49015,
  "bash": 44374,
  "basis": 36779,
  "bast": 35470,
  "bastogne": 50221,
  "bat": 18854,
  "bath": 36251,
  "battered": 46171,
  "baud": 43580,
  "baugh": 33997,
  "baum": 20400,
  "bay": 19910,
  "baz": 48526,
  "bb": 7523,
  "bbc": 39574,
  "bbl": 16270,
  "bble": 37831,
  "bc": 2332,
  "bd": 7651,
  "bden": 37004,
  "bdenum": 37150,
  "be": 1758,
  "bean": 8463,
  "beans": 26869,
  "bear": 9330,
  "bearing": 14189,
  "beat": 7845,
  "beating": 29429,
  "beau": 39431,
  "beaut": 43710,
  "beauty": 46280,
  "bec": 9321,
  "because": 34919,
  "beck": 28280,
  "bed": 3529,
  "bedroom": 25540,
  "bee": 19273,
  "before": 18412,
  "begin": 44347,
  "beh": 22761,
  "behind": 42572,
  "bei": 35295,
  "beijing": 22280,
  "being": 5514,
  "beit": 10785,
  "bek": 18957,
  "bel": 6598,
  "belief": 35220,
  "bell": 10829,
  "belly": 45114,
  "belt": 13331,
  "ben": 11759,
  "bench": 32218,
  "benef": 22093,
  "benefit": 28571,
  "benefits": 43730,
  "bent": 40749,
  "benz": 28419,
  "ber": 552,
  "bere": 45156,
  "berg": 2795,
  "bergen": 38072,
  "berger": 21577,
  "berlin": 48535,
  "bern": 38929,
  "berra": 18961,
  "berries": 34385,
  "berry": 11213,
  "bers": 1195,
  "bersome": 31039,
  "bert": 4028,
  "berts": 47916,
  "bery": 17253,
  "bes": 8967,
  "best": 17525,
  "bet": 18157,
  "beta": 42951,
  "bets": 43579,
  "better": 38199,
  "between": 32399,
  "bev": 17889,
  "bey": 29155,
  "beyond": 38581,
  "bf": 34472,
  "bg": 29291,
  "bh": 39067,
  "bhar": 47482,
  "bi": 4047,
  "bia": 38167,
  "biased": 33833,
  "bid": 7033,
  "biden": 15818,
  "bie": 19728,
  "bies": 27469,
  "big": 13732,
  "biggest": 18044,
  "bike": 22243,
  "bikes": 28223,
  "bil": 35523,
  "bill": 23686,
  "billion": 12047,
  "bilt": 22444,
  "bin": 16354,
  "binary": 33009,
  "binding": 19353,
  "bing": 5853,
  "binger": 39014,
  "bio": 16671,
  "biontech": 8966,
  "biopharm": 46502,
  "biorxiv": 47018,
  "bios": 47903,
  "biotech": 38330,
  "bir": 35283,
  "bird": 21078,
  "birds": 30339,
  "birth": 20405,
  "bis": 28017,
  "bit": 2189,
  "bitcoin": 47645,
  "bite": 49924,
  "bits": 31487,
  "biz": 20175,
  "biÃ©n": 17175,
  "bj": 34573,
  "bk": 36379,
  "bl": 4401,
  "black": 15956,
  "blad": 32859,
  "blanc": 45054,
  "blatt": 29615,
  "ble": 1310,
  "bled": 19113,
  "bler": 31033,
  "blers": 44013,
  "bles": 13787,
  "bley": 33861,
  "blic": 15896,
  "blind": 17354,
  "bling": 22064,
  "blo": 12116,
  "block": 17927,
  "blocking": 48688,
  "blocks": 26478,
  "blog": 15353,
  "blogspot": 38261,
  "blood": 22393,
  "bloomberg": 18194,
  "blow": 39786,
  "blown": 17826,
  "blue": 14434,
  "bly": 32940,
  "bm": 13523,
  "bmc": 35120,
  "bmj": 21521,
  "bn": 3416,
  "bnb": 9691,
  "bnt": 37608,
  "bo": 1399,
  "boa": 46032,
  "board": 5107,
  "boarding": 28250,
  "boards": 15837,
  "boat": 30726,
  "boats": 49456,
  "bob": 31840,
  "bodied": 49632,
  "bodies": 43835,
  "body": 3499,
  "boe": 18560,
  "boeing": 29520,
  "bog": 41804,
  "bol": 21626,
  "bold": 44879,
  "bole": 46919,
  "bomb": 34498,
  "bombing": 50073,
  "bon": 3146,
  "bond": 18772,
  "bonds": 42490,
  "bone": 37934,
  "bons": 23974,
  "boo": 30627,
  "book": 2571,
  "booking": 42969,
  "bookmark": 45700,
  "books": 13175,
  "boom": 40482,
  "boost": 21730,
  "boosting": 39215,
  "bor": 3326,
  "bord": 43834,
  "border": 11675,
  "borg": 45132,
  "borghini": 47446,
  "boris": 26189,
  "born": 9881,
  "borne": 9750,
  "borns": 32286,
  "boro": 31376,
  "borough": 20618,
  "bors": 10734,
  "bos": 33173,
  "bost": 41940,
  "boston": 43569,
  "bot": 19216,
  "both": 27788,
  "bots": 38201,
  "bott": 19558,
  "bottom": 22698,
  "bou": 49080,
  "bought": 34626,
  "bound": 10800,
  "bour": 4445,
  "bourg": 16072,
  "bourne": 8008,
  "bow": 12272,
  "box": 5131,
  "boxes": 39047,
  "boy": 18077,
  "boys": 28335,
  "bp": 8123,
  "bps": 26634,
  "br": 1119,
  "bra": 12219,
  "brain": 34506,
  "brainer": 40479,
  "braith": 40697,
  "bral": 27742,
  "brand": 14668,
  "branded": 20377,
  "brands": 33101,
  "bras": 17495,
  "braska": 17886,
  "brazil": 21117,
  "brazilian": 48200,
  "bre": 4431,
  "bread": 34214,
  "break": 12360,
  "breaker": 35816,
  "breaking": 9789,
  "brecht": 42191,
  "bred": 50083,
  "brero": 39202,
  "bres": 27836,
  "brew": 47088,
  "brexit": 18896,
  "bria": 40478,
  "brian": 42680,
  "brid": 6008,
  "bride": 31716,
  "bridge": 7343,
  "bridges": 46383,
  "brief": 31989,
  "brien": 23041,
  "bright": 32791,
  "bringing": 41777,
  "brit": 12287,
  "britain": 17548,
  "british": 19535,
  "bro": 8875,
  "broad": 31689,
  "broken": 30587,
  "broker": 37821,
  "bron": 22389,
  "brook": 19716,
  "brough": 40875,
  "brown": 33071,
  "brs": 24100,
  "bru": 48044,
  "bruary": 2179,
  "brus": 37699,
  "brush": 33386,
  "bry": 34905,
  "bryta": 45613,
  "bs": 975,
  "bson": 33525,
  "bt": 12847,
  "bu": 5470,
  "bub": 33779,
  "bubble": 47957,
  "bucks": 11497,
  "bud": 18542,
  "budget": 25994,
  "buds": 45454,
  "build": 10261,
  "builder": 28504,
  "builders": 28863,
  "building": 12825,
  "built": 17275,
  "bul": 8591,
  "bull": 31314,
  "bullying": 46508,
  "buquer": 39734,
  "buquerque": 40054,
  "bur": 4240,
  "burg": 7232,
  "burger": 31106,
  "burgh": 10739,
  "burn": 13786,
  "burning": 48802,
  "buro": 49704,
  "burs": 16807,
  "burse": 9826,
  "bursed": 21070,
  "bury": 11068,
  "bus": 4534,
  "busch": 30826,
  "bush": 21501,
  "business": 6056,
  "businesses": 37207,
  "businessinsights": 33355,
  "businesswire": 8615,
  "buster": 16506,
  "busters": 28543,
  "busting": 43197,
  "but": 8783,
  "button": 43816,
  "buy": 14800,
  "buyers": 28326,
  "buying": 14667,
  "bv": 48410,
  "bw": 21494,
  "bx": 26467,
  "by": 2290,
  "bye": 16623,
  "byid": 23056,
  "byl": 39669,
  "byn": 21476,
  "bys": 33694,
  "byshire": 42533,
  "byterian": 34793,
  "c": 67,
  "ca": 3249,
  "caas": 40683,
  "cab": 41479,
  "cad": 34868,
  "cade": 43388,
  "cal": 1951,
  "cale": 20363,
  "caler": 41279,
  "calif": 19431,
  "california": 25199,
  "call": 18570,
  "called": 6176,
  "calling": 11907,
  "cam": 14583,
  "cambridge": 44407,
  "came": 34047,
  "camera": 42847,
  "cameroon": 44075,
  "camore": 36966,
  "camp": 14845,
  "campaign": 50145,
  "campus": 23789,
  "can": 5930,
  "canada": 15593,
  "canadian": 27276,
  "cance": 39460,
  "cancer": 26433,
  "cand": 44417,
  "cane": 30568,
  "cant": 36188,
  "cany": 49282,
  "cap": 5106,
  "capable": 39128,
  "capacity": 25452,
  "cape": 3770,
  "capita": 35863,
  "capital": 15252,
  "capitalized": 39293,
  "caps": 28488,
  "capt": 38007,
  "caption": 19005,
  "car": 5423,
  "carbon": 11605,
  "card": 8969,
  "cardi": 46681,
  "cards": 29955,
  "care": 1787,
  "career": 39236,
  "cargo": 49633,
  "carn": 47384,
  "carra": 37816,
  "carrying": 46858,
  "cars": 39575,
  "cart": 41042,
  "cas": 18977,
  "case": 7887,
  "cases": 20208,
  "cash": 8600,
  "cast": 1558,
  "caster": 11771,
  "castle": 17361,
  "casts": 3453,
  "casual": 36998,
  "cat": 15746,
  "catching": 41043,
  "cated": 41982,
  "categ": 34192,
  "category": 44084,
  "cath": 49147,
  "cation": 19366,
  "cations": 40462,
  "caus": 22536,
  "cause": 27980,
  "caused": 36315,
  "causing": 33462,
  "cb": 32552,
  "cbs": 23568,
  "cc": 1808,
  "cca": 23422,
  "ccc": 38481,
  "cciones": 47643,
  "cciÃ³n": 22749,
  "ccs": 37704,
  "cd": 7900,
  "cdc": 18438,
  "cdn": 15510,
  "ce": 326,
  "cea": 42075,
  "ced": 798,
  "cedented": 3837,
  "cee": 42425,
  "ceed": 2572,
  "cef": 39180,
  "ceived": 8905,
  "cel": 6295,
  "cele": 44717,
  "celebr": 47902,
  "celer": 26543,
  "cell": 4448,
  "cellaneous": 33452,
  "cellera": 39440,
  "celli": 47380,
  "cells": 24200,
  "cellular": 36724,
  "celona": 11240,
  "celormittal": 43809,
  "cels": 19389,
  "cement": 45561,
  "cen": 29560,
  "cence": 21682,
  "cens": 48411,
  "cent": 994,
  "center": 12788,
  "centered": 25097,
  "centers": 49657,
  "central": 19368,
  "centre": 30141,
  "centred": 35854,
  "centric": 12467,
  "cents": 49706,
  "century": 14382,
  "ceo": 19745,
  "cep": 31184,
  "cept": 1545,
  "ception": 8284,
  "ceptions": 14305,
  "ceptive": 13712,
  "cepts": 36410,
  "cer": 1068,
  "cers": 4595,
  "cert": 20044,
  "certain": 40707,
  "certified": 27834,
  "cery": 48429,
  "ces": 1063,
  "cess": 821,
  "cessing": 41722,
  "cession": 26735,
  "cest": 49705,
  "ceutical": 43590,
  "cey": 26804,
  "cf": 7276,
  "cfs": 35865,
  "cg": 40545,
  "ch": 339,
  "cha": 12305,
  "chaft": 26606,
  "chafts": 45089,
  "chain": 5977,
  "chains": 39617,
  "chair": 12285,
  "chairman": 29151,
  "chairs": 27948,
  "chal": 31025,
  "chall": 30147,
  "challenge": 45551,
  "cham": 31920,
  "chambeau": 47472,
  "champ": 33784,
  "chan": 4480,
  "chance": 33943,
  "chancellor": 41614,
  "chand": 42032,
  "chang": 33563,
  "change": 11461,
  "changer": 24884,
  "changes": 43094,
  "changing": 13273,
  "chanical": 45532,
  "channel": 21966,
  "chant": 31219,
  "chap": 31648,
  "chapter": 44967,
  "char": 16165,
  "character": 30027,
  "charg": 18908,
  "charge": 15024,
  "charged": 23134,
  "charges": 28234,
  "charging": 34110,
  "chart": 16632,
  "chat": 10696,
  "che": 2155,
  "check": 7108,
  "checked": 43179,
  "checkers": 48929,
  "checking": 25237,
  "checkout": 23296,
  "ched": 2101,
  "chedule": 29077,
  "cheduled": 34363,
  "chel": 21941,
  "chell": 11477,
  "chelles": 36662,
  "chem": 11549,
  "chemical": 39895,
  "chemicals": 48749,
  "chen": 6611,
  "cheng": 46377,
  "chenko": 46045,
  "chens": 20602,
  "cher": 6996,
  "chers": 9736,
  "ches": 3215,
  "chester": 27167,
  "chestr": 13718,
  "chet": 31296,
  "chett": 45579,
  "chev": 40318,
  "chez": 28670,
  "chi": 11611,
  "chia": 47972,
  "chic": 31366,
  "chicago": 34572,
  "chief": 13649,
  "child": 10192,
  "children": 13107,
  "chile": 45369,
  "chin": 11389,
  "china": 6622,
  "chinese": 18563,
  "ching": 11249,
  "chini": 45251,
  "chio": 36350,
  "chip": 13584,
  "chips": 34406,
  "chl": 48093,
  "chloroquine": 9589,
  "chner": 46900,
  "cho": 6658,
  "choalveolar": 48507,
  "choice": 32144,
  "chol": 37691,
  "chon": 47286,
  "chool": 15898,
  "chos": 18282,
  "chr": 17510,
  "chrane": 33378,
  "chris": 43395,
  "christ": 23769,
  "christmas": 45882,
  "chron": 16682,
  "chronic": 41715,
  "chs": 7258,
  "cht": 16981,
  "chu": 43938,
  "chuk": 37941,
  "church": 33874,
  "chwitz": 39262,
  "chy": 23554,
  "ci": 5912,
  "cia": 9375,
  "cid": 36741,
  "cido": 40590,
  "cience": 46010,
  "ciences": 39219,
  "cies": 5872,
  "cig": 30255,
  "cigarette": 44082,
  "cigarettes": 44136,
  "cil": 2689,
  "cile": 19472,
  "cill": 26368,
  "cima": 49497,
  "cin": 14167,
  "cing": 2074,
  "cio": 20176,
  "cion": 19059,
  "ciones": 27106,
  "cios": 33780,
  "cir": 32780,
  "circ": 27222,
  "cis": 42264,
  "cision": 31488,
  "cit": 17578,
  "cities": 41877,
  "citizens": 33055,
  "city": 11844,
  "cive": 27319,
  "civil": 42069,
  "ciÃ³n": 16333,
  "ck": 1098,
  "cke": 47968,
  "cked": 13355,
  "cker": 22555,
  "cket": 7119,
  "cki": 41325,
  "cks": 4407,
  "cl": 1562,
  "cla": 12720,
  "clad": 35268,
  "claim": 14677,
  "claimed": 19833,
  "claims": 47327,
  "clair": 27212,
  "clark": 34835,
  "class": 6138,
  "clc": 28681,
  "cle": 3455,
  "clean": 33048,
  "cleaning": 42337,
  "clear": 18980,
  "cled": 12522,
  "cler": 32060,
  "cles": 8742,
  "click": 15862,
  "clicked": 43241,
  "cliff": 39512,
  "cliffe": 21381,
  "climate": 25186,
  "clin": 7873,
  "cling": 4967,
  "clinical": 8853,
  "clock": 31100,
  "clos": 14917,
  "close": 34643,
  "closed": 34352,
  "closing": 26847,
  "closure": 45765,
  "clot": 45472,
  "cloud": 15380,
  "club": 33389,
  "clus": 3108,
  "clusion": 46137,
  "clusive": 13371,
  "cm": 22875,
  "cn": 6024,
  "cnbc": 18925,
  "cnn": 8496,
  "cnnnext": 16487,
  "cnw": 27584,
  "co": 920,
  "coach": 43101,
  "coal": 33205,
  "coast": 42553,
  "coaster": 30164,
  "coat": 44101,
  "coated": 47922,
  "cob": 35291,
  "cock": 16907,
  "cod": 34805,
  "code": 11892,
  "coded": 37935,
  "codes": 40667,
  "cohol": 5776,
  "coin": 7067,
  "coins": 32304,
  "col": 8085,
  "cola": 12037,
  "cold": 28496,
  "cole": 26749,
  "coll": 25543,
  "collabor": 48694,
  "collar": 23018,
  "colle": 27977,
  "collect": 28584,
  "collection": 40813,
  "college": 29847,
  "colm": 28306,
  "colon": 47320,
  "color": 37676,
  "colored": 45060,
  "columb": 47064,
  "column": 39599,
  "columnists": 49209,
  "com": 793,
  "coma": 46913,
  "comb": 20500,
  "combe": 42778,
  "come": 2972,
  "comed": 9751,
  "comes": 4231,
  "coming": 4641,
  "comings": 18081,
  "comlaura": 26354,
  "comm": 6007,
  "comment": 38113,
  "commer": 4123,
  "commerce": 4126,
  "commercial": 28013,
  "commission": 36893,
  "commit": 17145,
  "committee": 19339,
  "commod": 49247,
  "common": 37263,
  "commun": 8044,
  "communic": 9066,
  "communicable": 31093,
  "communication": 43817,
  "communications": 46151,
  "communist": 45059,
  "community": 28157,
  "comp": 5426,
  "compan": 13293,
  "companies": 31381,
  "companion": 14985,
  "companionlayout": 24592,
  "company": 10579,
  "compar": 43845,
  "compass": 12293,
  "compens": 49001,
  "compet": 32142,
  "compete": 45438,
  "competitive": 22032,
  "comple": 49952,
  "complete": 29960,
  "compliance": 20844,
  "compliant": 27570,
  "compon": 49454,
  "compromised": 46859,
  "comput": 18375,
  "computer": 49338,
  "computers": 40082,
  "computing": 35591,
  "comthe": 43844,
  "con": 529,
  "concept": 30471,
  "concer": 39655,
  "concert": 44673,
  "concil": 45515,
  "cond": 1048,
  "condensed": 48657,
  "condition": 17016,
  "conditioned": 45410,
  "conditioning": 40090,
  "conditions": 18923,
  "conduct": 41266,
  "cone": 38967,
  "conf": 17341,
  "conference": 17830,
  "conferencing": 28813,
  "confidence": 31181,
  "confident": 38769,
  "confirmed": 23024,
  "cong": 30520,
  "congress": 39168,
  "coni": 31476,
  "conic": 37014,
  "conn": 5264,
  "connect": 10562,
  "connected": 12050,
  "connell": 9268,
  "connor": 34974,
  "conom": 689,
  "cons": 5022,
  "conscious": 21558,
  "consensus": 31636,
  "conserv": 38332,
  "conservative": 45554,
  "consider": 49892,
  "consin": 8730,
  "consolid": 15114,
  "consolidated": 16217,
  "consolidation": 48136,
  "constrained": 47708,
  "construct": 46370,
  "construction": 36793,
  "consult": 34778,
  "consum": 15947,
  "consumer": 12658,
  "consumernews": 39678,
  "consumers": 42443,
  "consuming": 19311,
  "consumption": 48938,
  "cont": 3435,
  "contact": 17994,
  "contained": 42385,
  "container": 24395,
  "containing": 35169,
  "contam": 25214,
  "content": 9816,
  "context": 31152,
  "contin": 7649,
  "continent": 37026,
  "continental": 20362,
  "contr": 14644,
  "contract": 49065,
  "control": 15696,
  "controll": 6630,
  "controlled": 9563,
  "controlling": 10479,
  "conver": 32094,
  "converting": 43778,
  "cook": 47360,
  "cool": 28166,
  "coopers": 37455,
  "cop": 8328,
  "cope": 14248,
  "copes": 34683,
  "copic": 38055,
  "copper": 46207,
  "copy": 17969,
  "cor": 3921,
  "cora": 47308,
  "coran": 42092,
  "core": 9384,
  "coring": 20716,
  "corn": 29104,
  "corona": 42386,
  "coronavirus": 5546,
  "corp": 14262,
  "corpor": 21935,
  "corporate": 25777,
  "correct": 38328,
  "corruption": 22234,
  "cort": 20755,
  "cortez": 23131,
  "cos": 15690,
  "cosm": 49925,
  "cost": 9075,
  "cot": 23586,
  "cott": 42413,
  "could": 25116,
  "coun": 4937,
  "council": 45586,
  "count": 12087,
  "counted": 33901,
  "counter": 21258,
  "counting": 39324,
  "countries": 31977,
  "country": 5637,
  "county": 35578,
  "coup": 47153,
  "cour": 14473,
  "course": 29289,
  "court": 20285,
  "cout": 40055,
  "cov": 2375,
  "cover": 24149,
  "covered": 37138,
  "covering": 42230,
  "covid": 3679,
  "cow": 38375,
  "cox": 25617,
  "coy": 38247,
  "cp": 27714,
  "cr": 941,
  "cra": 41226,
  "craft": 4740,
  "crafted": 49515,
  "cre": 16538,
  "creat": 35596,
  "create": 33132,
  "created": 38582,
  "creating": 35746,
  "creation": 38339,
  "cred": 27734,
  "credit": 23457,
  "creen": 44765,
  "crest": 30256,
  "crew": 28965,
  "crib": 1617,
  "cribe": 6185,
  "cribed": 11608,
  "cribing": 46549,
  "crime": 34222,
  "crimin": 25974,
  "crimination": 30036,
  "crine": 44780,
  "crip": 2673,
  "cript": 6896,
  "cripted": 47374,
  "cription": 3788,
  "criptions": 7182,
  "criptive": 24811,
  "cripts": 20197,
  "crisis": 13828,
  "crit": 23448,
  "critical": 16361,
  "cro": 21584,
  "croft": 29699,
  "crop": 42068,
  "cross": 4409,
  "crossref": 4528,
  "crow": 12351,
  "cru": 39703,
  "cruci": 49585,
  "cruciating": 49631,
  "crude": 38539,
  "cruise": 48143,
  "cruit": 47176,
  "crunch": 27271,
  "cry": 21012,
  "cryst": 46191,
  "cs": 5683,
  "csf": 26599,
  "ct": 309,
  "ctic": 13243,
  "ctica": 27143,
  "ction": 2745,
  "ctional": 7642,
  "ctioned": 41638,
  "ctions": 4615,
  "cton": 34603,
  "ctor": 7264,
  "ctr": 48835,
  "cu": 17937,
  "cube": 49773,
  "cue": 28210,
  "cul": 3229,
  "cular": 5619,
  "culated": 46037,
  "culation": 47089,
  "cule": 13318,
  "cules": 12183,
  "culo": 34365,
  "culos": 16579,
  "cult": 30012,
  "cultural": 37246,
  "culture": 27905,
  "cum": 27671,
  "cumulative": 36642,
  "cun": 42067,
  "cup": 39533,
  "cur": 7133,
  "cure": 32420,
  "currency": 21874,
  "current": 9777,
  "curve": 47387,
  "cust": 20647,
  "custom": 29305,
  "customer": 38165,
  "customers": 45017,
  "cut": 8981,
  "cutaneous": 33231,
  "cuts": 25392,
  "cutting": 14927,
  "cv": 38303,
  "cx": 39103,
  "cy": 2045,
  "cyber": 35002,
  "cyc": 49661,
  "cycl": 22947,
  "cycle": 13487,
  "cycles": 25564,
  "cyclical": 31503,
  "cycling": 29208,
  "cyt": 27213,
  "cz": 17708,
  "czak": 46271,
  "czuk": 37654,
  "d": 68,
  "da": 1414,
  "dad": 27613,
  "dade": 21071,
  "dah": 42183,
  "daily": 16431,
  "dain": 34116,
  "dal": 18543,
  "dale": 14149,
  "dall": 34378,
  "dam": 8432,
  "dan": 20380,
  "dane": 46281,
  "dao": 33676,
  "daq": 3098,
  "dar": 18586,
  "das": 30676,
  "dat": 19669,
  "data": 9391,
  "datab": 29447,
  "databridgemarketresearch": 33196,
  "date": 4992,
  "dated": 12933,
  "dates": 31884,
  "daughter": 30399,
  "david": 21269,
  "davidson": 34524,
  "davis": 44767,
  "day": 590,
  "days": 26299,
  "db": 25191,
  "dc": 12048,
  "dd": 35039,
  "de": 2125,
  "dead": 34698,
  "deal": 15608,
  "dealer": 38163,
  "dear": 38233,
  "death": 19919,
  "deaths": 38005,
  "deb": 37923,
  "debt": 28578,
  "dec": 10077,
  "decade": 21280,
  "dece": 18101,
  "december": 18293,
  "deck": 35889,
  "decl": 41971,
  "decoration": 35989,
  "decre": 40737,
  "ded": 4744,
  "deductible": 41546,
  "deep": 27743,
  "def": 9271,
  "default": 19516,
  "defense": 29971,
  "defin": 41868,
  "defined": 23305,
  "defining": 40618,
  "definition": 49701,
  "degree": 16358,
  "del": 8786,
  "delayed": 32747,
  "deliver": 35866,
  "delivered": 43721,
  "delivery": 19872,
  "dell": 44418,
  "delta": 30734,
  "dem": 6788,
  "demand": 9783,
  "democr": 12902,
  "democracy": 15819,
  "democratic": 30430,
  "democrats": 45450,
  "demographic": 45871,
  "den": 2773,
  "denberg": 27082,
  "dened": 22927,
  "dening": 46403,
  "denominated": 28138,
  "density": 28896,
  "dep": 7878,
  "depart": 29840,
  "department": 49765,
  "departure": 46005,
  "depend": 14047,
  "dependent": 16421,
  "deploy": 46150,
  "depth": 9354,
  "der": 540,
  "dera": 46021,
  "dered": 13939,
  "deres": 37519,
  "dering": 12574,
  "derived": 21614,
  "dern": 12714,
  "ders": 12113,
  "des": 4661,
  "described": 36961,
  "design": 19234,
  "designed": 26062,
  "designnews": 43773,
  "desivir": 7899,
  "desk": 23095,
  "despite": 21901,
  "dest": 36221,
  "destr": 40243,
  "det": 13781,
  "detail": 41385,
  "details": 47609,
  "detect": 43375,
  "detection": 47132,
  "determ": 40947,
  "determination": 48633,
  "determined": 49545,
  "deuts": 45048,
  "deutsche": 47341,
  "dev": 17170,
  "develop": 9906,
  "developed": 16942,
  "developing": 42010,
  "development": 16262,
  "device": 39407,
  "devimab": 42658,
  "dez": 21249,
  "df": 3862,
  "dfc": 26902,
  "dfd": 35195,
  "dg": 35331,
  "dgap": 39981,
  "dh": 15657,
  "dha": 42025,
  "dham": 26864,
  "di": 8498,
  "dia": 15348,
  "diabet": 32797,
  "diabetes": 38061,
  "diagn": 21542,
  "diagnostics": 33260,
  "did": 32578,
  "die": 11986,
  "dies": 27647,
  "dig": 6884,
  "digit": 9064,
  "digital": 16028,
  "digits": 40616,
  "digo": 46737,
  "dil": 27626,
  "dilutive": 42307,
  "dim": 44930,
  "dimensional": 24453,
  "dimer": 41093,
  "din": 18170,
  "ding": 4586,
  "dings": 14968,
  "dip": 28086,
  "direct": 12880,
  "directed": 26148,
  "director": 21490,
  "dis": 7351,
  "disable": 42056,
  "disc": 18953,
  "disciplinary": 24680,
  "disco": 36152,
  "discount": 26919,
  "discrimination": 34394,
  "dise": 18885,
  "disease": 21468,
  "diseases": 44365,
  "dish": 44973,
  "dism": 32941,
  "dismiss": 34006,
  "dismissmobilepinnedplayer": 43562,
  "disney": 31593,
  "display": 36175,
  "dist": 10381,
  "distance": 24053,
  "distanced": 41605,
  "distancing": 13727,
  "distant": 48002,
  "distr": 25625,
  "distribution": 39606,
  "ditch": 24916,
  "div": 22995,
  "dive": 36645,
  "divers": 40179,
  "diversified": 44266,
  "divid": 27320,
  "dividend": 34758,
  "division": 39412,
  "dj": 43198,
  "dji": 40668,
  "dk": 41616,
  "dl": 22065,
  "dle": 2702,
  "dled": 17999,
  "dles": 11443,
  "dling": 18511,
  "dm": 44766,
  "dn": 41709,
  "dna": 33914,
  "dney": 7139,
  "do": 2961,
  "dob": 48952,
  "doc": 10411,
  "dock": 29781,
  "docs": 24823,
  "doct": 44515,
  "doctor": 20465,
  "doctoral": 24176,
  "doctors": 45556,
  "document": 29229,
  "documented": 39025,
  "documents": 21808,
  "docx": 48511,
  "does": 35105,
  "dog": 8752,
  "dogan": 15521,
  "doh": 44562,
  "doi": 8859,
  "doing": 17814,
  "dollar": 10837,
  "dom": 4250,
  "domestic": 30236,
  "domin": 36263,
  "dominated": 28248,
  "dominion": 47545,
  "don": 6150,
  "donald": 8637,
  "done": 47756,
  "dong": 19736,
  "door": 14694,
  "doping": 31164,
  "dor": 39643,
  "dorf": 30975,
  "dos": 31048,
  "dose": 8438,
  "double": 41044,
  "dough": 42716,
  "dow": 17448,
  "down": 1095,
  "download": 15292,
  "downs": 14803,
  "dox": 49887,
  "dozen": 35574,
  "dp": 4068,
  "dquo": 9893,
  "dr": 2900,
  "draft": 45774,
  "dragon": 46928,
  "draw": 6382,
  "dream": 38778,
  "dress": 21665,
  "drey": 49356,
  "drink": 42686,
  "drive": 24325,
  "driven": 6539,
  "driving": 15198,
  "dro": 22260,
  "drola": 39901,
  "drop": 9252,
  "dropping": 41552,
  "drug": 20109,
  "dry": 39068,
  "ds": 1337,
  "dson": 29413,
  "dspe": 39356,
  "dt": 34420,
  "du": 520,
  "dub": 12090,
  "dubai": 42565,
  "dublin": 12923,
  "ducation": 38784,
  "duce": 13301,
  "duced": 3573,
  "ducing": 13581,
  "duct": 646,
  "ducted": 31016,
  "duction": 2908,
  "ductions": 7207,
  "ductory": 43001,
  "due": 11565,
  "duelle": 27163,
  "dule": 4906,
  "duly": 37013,
  "dunn": 49031,
  "duod": 33474,
  "duoduo": 33756,
  "dur": 48702,
  "duration": 41255,
  "during": 20890,
  "dutch": 34736,
  "duty": 19849,
  "dw": 41902,
  "dwell": 30788,
  "dx": 24838,
  "dy": 7036,
  "dyn": 39031,
  "dz": 43140,
  "e": 69,
  "ea": 9506,
  "each": 44223,
  "ead": 2730,
  "ean": 14533,
  "eanor": 37031,
  "ear": 428,
  "eared": 14519,
  "earlier": 20216,
  "early": 19424,
  "earned": 40965,
  "earning": 23902,
  "earnings": 17006,
  "earth": 31695,
  "ease": 39787,
  "east": 14435,
  "eastern": 36760,
  "easy": 34846,
  "eat": 38101,
  "eau": 47345,
  "eb": 9133,
  "ebit": 28544,
  "ebitda": 31117,
  "ebs": 47904,
  "ebted": 12995,
  "ec": 642,
  "eca": 33948,
  "ecake": 44241,
  "ecc": 47709,
  "ecciÃ³n": 26673,
  "ecd": 8650,
  "ecer": 44387,
  "ecess": 7417,
  "ech": 4630,
  "eches": 17056,
  "ecins": 45568,
  "eck": 16086,
  "eclin": 46659,
  "eco": 20794,
  "econom": 6265,
  "economic": 7238,
  "economics": 26165,
  "economy": 24628,
  "ect": 391,
  "ecta": 22882,
  "ected": 777,
  "ectin": 21018,
  "ection": 11594,
  "ecu": 34650,
  "ecurity": 5563,
  "ed": 281,
  "eda": 14814,
  "ede": 13476,
  "eded": 10225,
  "eder": 27935,
  "edes": 22394,
  "edge": 12511,
  "edged": 37939,
  "edi": 41945,
  "edia": 6755,
  "edian": 45503,
  "edic": 24979,
  "edics": 47285,
  "edience": 38853,
  "edin": 43245,
  "eding": 9830,
  "edited": 9118,
  "editing": 41000,
  "edition": 40791,
  "editor": 28239,
  "edo": 37060,
  "edor": 46227,
  "edores": 43349,
  "eds": 12101,
  "edu": 18196,
  "educ": 16214,
  "educated": 26279,
  "education": 24833,
  "edy": 10012,
  "ee": 3161,
  "eed": 4579,
  "eel": 43298,
  "eem": 44032,
  "een": 12751,
  "eenth": 42896,
  "eep": 33627,
  "eer": 35674,
  "eering": 40957,
  "ees": 4814,
  "eev": 42238,
  "ef": 1216,
  "efer": 49455,
  "eff": 5169,
  "effe": 37297,
  "effect": 7662,
  "effective": 10318,
  "effectively": 45225,
  "effectiveness": 23515,
  "effects": 20410,
  "effic": 17754,
  "efficacy": 35201,
  "efficiency": 26137,
  "efficient": 13467,
  "effler": 21692,
  "efined": 17173,
  "eg": 12596,
  "egal": 18515,
  "egrad": 28677,
  "egradable": 29464,
  "egypt": 45995,
  "eh": 27393,
  "ehan": 49357,
  "ehler": 49911,
  "ei": 7623,
  "eight": 23242,
  "eing": 4510,
  "eiro": 16550,
  "either": 31690,
  "ej": 49557,
  "ek": 3730,
  "eka": 35716,
  "ekay": 34206,
  "eks": 22425,
  "el": 430,
  "ela": 9329,
  "eland": 7850,
  "eld": 37042,
  "ele": 11660,
  "elect": 5298,
  "elected": 19275,
  "election": 8434,
  "elections": 50194,
  "electric": 15822,
  "electron": 28555,
  "electronic": 43074,
  "electronics": 31729,
  "eled": 20356,
  "element": 20102,
  "eless": 6173,
  "eleven": 40168,
  "elf": 32245,
  "eli": 25394,
  "elia": 25893,
  "elic": 27879,
  "elier": 34528,
  "elig": 20030,
  "elight": 33565,
  "eligible": 21197,
  "eline": 3255,
  "elines": 3468,
  "eliness": 13439,
  "eling": 11696,
  "elis": 34959,
  "ell": 787,
  "ella": 9703,
  "ellas": 37697,
  "elle": 10809,
  "elled": 6798,
  "ellen": 13933,
  "eller": 13008,
  "ellers": 36568,
  "elles": 26284,
  "elli": 12759,
  "ellig": 2849,
  "elling": 5306,
  "ello": 16760,
  "ells": 40604,
  "ellschaft": 36845,
  "elly": 27162,
  "elman": 23882,
  "elmer": 41952,
  "elon": 37066,
  "elong": 18671,
  "els": 1604,
  "elsen": 17412,
  "elson": 31655,
  "elt": 17597,
  "ely": 19759,
  "em": 403,
  "ema": 11894,
  "email": 11305,
  "emaker": 28616,
  "emakers": 41625,
  "eman": 11979,
  "emann": 39619,
  "emar": 30685,
  "emb": 10647,
  "embed": 17980,
  "embedbody": 43772,
  "embedcontainer": 39409,
  "embedwrapper": 40507,
  "ember": 1739,
  "embered": 17363,
  "embers": 17264,
  "embr": 25605,
  "embre": 23966,
  "embro": 36763,
  "embros": 39601,
  "eme": 28999,
  "emed": 7199,
  "emen": 10410,
  "ement": 13303,
  "emente": 42761,
  "ements": 28328,
  "emer": 31604,
  "emerg": 13015,
  "emerge": 42575,
  "emerged": 45117,
  "emergence": 40404,
  "emergency": 22485,
  "emerging": 31815,
  "emi": 5562,
  "emia": 8815,
  "emic": 611,
  "emie": 23645,
  "emies": 17717,
  "emin": 49298,
  "eminent": 38821,
  "eming": 41442,
  "emission": 31407,
  "emissions": 32967,
  "emitting": 48156,
  "emos": 25423,
  "emotional": 49945,
  "emp": 24079,
  "emplo": 33560,
  "employ": 2429,
  "employed": 13611,
  "employee": 33974,
  "employees": 45322,
  "employment": 20914,
  "empt": 3485,
  "emption": 8801,
  "emptions": 30583,
  "emptive": 28924,
  "empts": 8114,
  "empty": 42878,
  "emra": 29312,
  "ems": 2149,
  "emy": 6671,
  "en": 270,
  "ena": 6907,
  "enable": 32518,
  "enabled": 13850,
  "enabling": 48476,
  "enal": 39071,
  "enaries": 49562,
  "enary": 31961,
  "enas": 20150,
  "enberg": 20388,
  "enburg": 26802,
  "enc": 721,
  "ence": 654,
  "enced": 6159,
  "encent": 13894,
  "encer": 15475,
  "ences": 3668,
  "enchy": 39461,
  "enchymal": 39612,
  "encia": 10992,
  "enciaga": 44308,
  "encial": 26219,
  "encias": 31293,
  "encies": 3604,
  "encing": 7222,
  "enciÃ³n": 24921,
  "enco": 45210,
  "encom": 50251,
  "encore": 29563,
  "ency": 1100,
  "end": 429,
  "enda": 5713,
  "endale": 46653,
  "endas": 25559,
  "ende": 20487,
  "ended": 1668,
  "endedge": 36361,
  "enden": 27796,
  "ender": 3207,
  "enders": 5564,
  "endez": 41058,
  "endi": 29633,
  "ending": 1374,
  "endish": 31580,
  "endo": 10097,
  "endon": 50246,
  "endor": 45372,
  "endoza": 40443,
  "endra": 30063,
  "ends": 1803,
  "endslate": 17626,
  "ene": 3372,
  "enec": 4408,
  "eneca": 4902,
  "ened": 2018,
  "enegger": 46559,
  "enei": 40004,
  "enen": 42218,
  "ener": 20933,
  "energ": 37125,
  "energies": 30228,
  "energy": 14354,
  "eners": 24003,
  "enes": 29194,
  "eness": 17842,
  "enet": 47766,
  "enew": 26289,
  "enewswire": 28992,
  "eney": 46895,
  "enez": 8559,
  "enf": 47835,
  "enforce": 36224,
  "enforced": 49637,
  "eng": 1154,
  "enga": 40155,
  "engage": 31232,
  "engaged": 48982,
  "engagement": 36771,
  "engasong": 50035,
  "enge": 3216,
  "enged": 47923,
  "enger": 11598,
  "engers": 39147,
  "enges": 37069,
  "engine": 15963,
  "engineer": 48068,
  "engineered": 36780,
  "engineering": 28469,
  "england": 29492,
  "english": 24771,
  "engo": 44443,
  "engren": 41146,
  "ength": 5551,
  "enh": 12744,
  "enhagen": 20695,
  "enhams": 33842,
  "enhanced": 48134,
  "enhancing": 41034,
  "eni": 20381,
  "enia": 15019,
  "enic": 22960,
  "ening": 1655,
  "enius": 34252,
  "enk": 24990,
  "enko": 35041,
  "enn": 5242,
  "enna": 12779,
  "ennas": 45000,
  "enne": 34354,
  "ennial": 28989,
  "eno": 24705,
  "enos": 17340,
  "enow": 21666,
  "enquiry": 31646,
  "ens": 666,
  "ense": 1826,
  "ensed": 7710,
  "ensen": 17730,
  "enses": 12978,
  "enshine": 44388,
  "ensible": 49451,
  "ensin": 29984,
  "ension": 3341,
  "ensional": 48538,
  "ensions": 8447,
  "ensitive": 34995,
  "ensitivity": 44435,
  "ensity": 10036,
  "ensive": 3417,
  "ensively": 17162,
  "ensky": 12309,
  "enso": 41304,
  "enson": 22406,
  "ensp": 44191,
  "ensperger": 45725,
  "enst": 33011,
  "enstein": 32116,
  "enstine": 42411,
  "ensual": 39879,
  "ensus": 4134,
  "ent": 299,
  "enta": 26969,
  "ental": 2846,
  "ente": 14144,
  "entech": 28004,
  "ented": 3168,
  "enter": 8189,
  "entering": 46363,
  "enterprise": 50055,
  "enters": 40146,
  "entes": 22978,
  "enth": 20522,
  "enthal": 30216,
  "enti": 32733,
  "ential": 983,
  "entin": 20205,
  "enting": 30709,
  "ention": 1378,
  "entions": 16674,
  "ently": 2763,
  "ento": 41521,
  "enton": 47629,
  "entre": 16774,
  "entry": 19115,
  "ents": 595,
  "enture": 9054,
  "entures": 21254,
  "enty": 4950,
  "env": 24210,
  "environ": 27292,
  "environment": 38372,
  "environmental": 46062,
  "enz": 9657,
  "enza": 6170,
  "enzie": 16587,
  "enzo": 43743,
  "eo": 41805,
  "eon": 38646,
  "eong": 32755,
  "eous": 44589,
  "ep": 693,
  "epa": 48104,
  "epd": 41062,
  "epend": 2428,
  "epic": 34608,
  "epicads": 43563,
  "epid": 24061,
  "epidemi": 32147,
  "epidemic": 42018,
  "eping": 8188,
  "epis": 47358,
  "eplay": 31017,
  "eplayer": 35360,
  "eploy": 22246,
  "epo": 29134,
  "epoel": 33853,
  "eppe": 24099,
  "eps": 21823,
  "ept": 20975,
  "eq": 24503,
  "equ": 3225,
  "equip": 36207,
  "equipment": 36913,
  "equipped": 23529,
  "equity": 16414,
  "equivalent": 31140,
  "er": 266,
  "era": 4345,
  "erable": 17694,
  "eral": 960,
  "erala": 21220,
  "erald": 13744,
  "erance": 18880,
  "erant": 41303,
  "erate": 9158,
  "erated": 17783,
  "erates": 29450,
  "erating": 42898,
  "eration": 3204,
  "erative": 19616,
  "eraÃ§Ã£o": 48925,
  "erb": 5973,
  "erbai": 22390,
  "erc": 1575,
  "erca": 47506,
  "ercase": 26665,
  "ercial": 20600,
  "ercic": 42330,
  "ercich": 25538,
  "ercio": 44991,
  "ercrombie": 39233,
  "ercul": 10909,
  "erculosis": 11024,
  "erd": 38105,
  "ere": 10281,
  "ered": 1210,
  "erel": 34869,
  "eren": 21357,
  "erenabled": 43556,
  "erer": 22582,
  "erers": 27846,
  "eres": 48830,
  "erg": 844,
  "erged": 41575,
  "ergen": 49795,
  "erger": 22984,
  "ergies": 10123,
  "ergill": 31905,
  "ergin": 45967,
  "erglass": 38245,
  "ergy": 1531,
  "eri": 19422,
  "eria": 4646,
  "erian": 34737,
  "eric": 878,
  "erica": 29690,
  "erick": 18694,
  "erico": 41723,
  "erie": 16276,
  "eries": 6026,
  "erin": 41847,
  "ering": 1194,
  "erk": 42856,
  "erly": 4875,
  "erm": 811,
  "erman": 8883,
  "ermann": 31764,
  "ermedia": 26404,
  "ermined": 26942,
  "ermo": 28151,
  "ermute": 35361,
  "ern": 2502,
  "erna": 19383,
  "ernation": 33501,
  "ernick": 40119,
  "erno": 39200,
  "ero": 2978,
  "eron": 6961,
  "eroon": 14541,
  "eros": 35652,
  "erous": 3710,
  "erox": 27685,
  "eroy": 37428,
  "err": 1965,
  "erra": 27758,
  "errals": 14009,
  "errane": 14439,
  "erred": 4257,
  "erres": 18034,
  "erring": 6437,
  "ers": 350,
  "ersch": 36563,
  "erse": 31622,
  "ersen": 29607,
  "erset": 30359,
  "ersk": 25171,
  "erson": 5497,
  "ersonic": 18057,
  "ert": 719,
  "erta": 27094,
  "ertain": 1087,
  "erte": 16189,
  "ertes": 37985,
  "erties": 28275,
  "ertime": 40719,
  "ertino": 49453,
  "erto": 12280,
  "erton": 27086,
  "erts": 7315,
  "erty": 16264,
  "erv": 1933,
  "erve": 4873,
  "erved": 9839,
  "erver": 49360,
  "erves": 12629,
  "ervice": 17327,
  "ervices": 45696,
  "erville": 34294,
  "erving": 11242,
  "ervised": 37605,
  "ery": 3588,
  "es": 272,
  "esa": 20530,
  "esas": 44883,
  "esc": 45082,
  "escal": 23949,
  "escalation": 32312,
  "esco": 12597,
  "ese": 3408,
  "esen": 43893,
  "esevimab": 47867,
  "esh": 12411,
  "esi": 34355,
  "esian": 32825,
  "esis": 21543,
  "esity": 11533,
  "esk": 21463,
  "eso": 26519,
  "eson": 31364,
  "esonide": 46806,
  "espec": 25021,
  "especially": 25247,
  "esque": 41097,
  "ess": 382,
  "essa": 18068,
  "esse": 17748,
  "essed": 12723,
  "essen": 32464,
  "essential": 2339,
  "esses": 47844,
  "esset": 46178,
  "essing": 15246,
  "ession": 2890,
  "essional": 30573,
  "essions": 6215,
  "essler": 31566,
  "esso": 36978,
  "esson": 29130,
  "est": 360,
  "esta": 37728,
  "estab": 14133,
  "establish": 23039,
  "established": 18558,
  "establishment": 38611,
  "estar": 28070,
  "estate": 18952,
  "estation": 49860,
  "este": 22304,
  "ested": 21588,
  "esteem": 44580,
  "ester": 4709,
  "esterol": 28261,
  "esters": 25050,
  "estershire": 29780,
  "esthes": 22003,
  "esthesia": 50214,
  "estic": 20649,
  "estimate": 43208,
  "estimated": 49225,
  "estinal": 18067,
  "estine": 35897,
  "esto": 40597,
  "eston": 25716,
  "estone": 24310,
  "estop": 15427,
  "estr": 18155,
  "estra": 38964,
  "estration": 44867,
  "estre": 18943,
  "estreet": 42302,
  "estry": 27964,
  "esty": 13826,
  "estyle": 27649,
  "esville": 35850,
  "esy": 13168,
  "et": 312,
  "eta": 12926,
  "etal": 44594,
  "etary": 3896,
  "ete": 16882,
  "etech": 43206,
  "eted": 8791,
  "eteenth": 29885,
  "eten": 33606,
  "eter": 8312,
  "eterm": 38352,
  "etermined": 40960,
  "eters": 10678,
  "etes": 35947,
  "eth": 7626,
  "ethe": 9741,
  "etheless": 10939,
  "ether": 9168,
  "ethers": 45847,
  "ethi": 41522,
  "ethical": 31143,
  "ethics": 45713,
  "ethnic": 25054,
  "ethnicity": 36832,
  "ethyl": 17966,
  "ethylene": 18662,
  "eti": 35017,
  "etic": 15528,
  "etically": 46415,
  "etics": 28132,
  "eties": 24132,
  "etime": 8091,
  "etimes": 33916,
  "eting": 11735,
  "etis": 38351,
  "etitive": 14930,
  "eto": 21587,
  "etogether": 36475,
  "etok": 50162,
  "eton": 18704,
  "etown": 48890,
  "etr": 7259,
  "etra": 38958,
  "etric": 19968,
  "etry": 42900,
  "ets": 1129,
  "etsk": 43451,
  "ett": 7219,
  "etta": 17716,
  "ette": 8332,
  "etter": 38312,
  "ettes": 28836,
  "etti": 17350,
  "etting": 41056,
  "etto": 35873,
  "etts": 8421,
  "etus": 21696,
  "ety": 1277,
  "etyx": 29913,
  "etz": 20228,
  "eu": 6276,
  "eur": 11106,
  "euro": 16076,
  "europ": 34277,
  "europa": 37001,
  "europe": 9522,
  "european": 11487,
  "eurs": 27026,
  "eut": 4921,
  "ev": 4059,
  "eva": 9810,
  "eval": 15098,
  "evaluate": 22123,
  "evaluated": 49686,
  "evaluating": 38460,
  "evaluation": 36244,
  "eve": 26249,
  "even": 14518,
  "event": 24074,
  "events": 16017,
  "ever": 1305,
  "every": 16721,
  "everything": 42570,
  "eves": 18473,
  "evidence": 43781,
  "evo": 38190,
  "evol": 24532,
  "evolution": 46615,
  "evolving": 33819,
  "ew": 21694,
  "ex": 1315,
  "exam": 31041,
  "examine": 40643,
  "exc": 39802,
  "exchange": 26818,
  "exclusive": 24303,
  "exec": 12586,
  "executive": 13702,
  "exempt": 34101,
  "exerc": 44058,
  "exist": 17053,
  "existent": 23116,
  "existing": 11300,
  "exo": 49587,
  "exp": 4174,
  "expanding": 32388,
  "expansion": 42001,
  "expect": 38659,
  "expected": 5002,
  "exper": 19300,
  "experience": 43728,
  "experienced": 35086,
  "expert": 33104,
  "experts": 39782,
  "expl": 22700,
  "explained": 29700,
  "explo": 35610,
  "export": 34856,
  "exposed": 30825,
  "exposure": 32327,
  "ext": 26503,
  "external": 38114,
  "ey": 1443,
  "eye": 19647,
  "eyed": 27971,
  "eyer": 27263,
  "eyes": 44005,
  "eyra": 36749,
  "eys": 25365,
  "ez": 5733,
  "eze": 12492,
  "f": 70,
  "fa": 6376,
  "fac": 22225,
  "face": 6247,
  "facebook": 16927,
  "faced": 28053,
  "faceted": 48517,
  "facing": 15844,
  "fact": 12055,
  "factor": 21633,
  "factors": 38839,
  "facts": 37523,
  "fail": 50084,
  "fair": 19217,
  "faith": 43536,
  "fake": 34421,
  "fal": 32401,
  "fall": 6351,
  "falls": 21759,
  "fam": 11336,
  "famil": 41208,
  "family": 15895,
  "famous": 40233,
  "fan": 41394,
  "fang": 44325,
  "fans": 41983,
  "far": 14120,
  "fare": 15180,
  "fares": 38647,
  "farm": 15230,
  "farming": 34892,
  "farms": 47671,
  "fashion": 19435,
  "fashioned": 31005,
  "fast": 9234,
  "fat": 28897,
  "fatality": 47681,
  "fated": 47346,
  "father": 16515,
  "fauci": 34887,
  "fav": 39170,
  "fave": 34806,
  "favor": 46642,
  "fax": 28359,
  "fb": 37561,
  "fc": 8794,
  "fd": 17986,
  "fda": 22648,
  "fdj": 46696,
  "fe": 691,
  "fear": 32912,
  "feas": 31941,
  "feature": 36006,
  "features": 35261,
  "feb": 24920,
  "february": 17154,
  "fect": 3041,
  "fed": 14283,
  "federal": 28308,
  "fee": 33018,
  "feed": 22049,
  "feeding": 23997,
  "feet": 40841,
  "fei": 40474,
  "fel": 30377,
  "feld": 16407,
  "fell": 35352,
  "felt": 31228,
  "fem": 30765,
  "female": 34642,
  "fen": 25970,
  "feng": 35040,
  "fenix": 48077,
  "fer": 3011,
  "feren": 6649,
  "ference": 1928,
  "ferences": 5103,
  "ferencing": 10844,
  "fern": 47154,
  "ferrous": 48994,
  "fert": 48953,
  "fest": 31600,
  "fet": 18130,
  "fetch": 23962,
  "fetched": 44472,
  "fey": 48901,
  "ff": 495,
  "ffen": 34220,
  "ffent": 47573,
  "ffer": 39756,
  "fg": 13400,
  "fh": 16402,
  "fi": 7839,
  "fiction": 35256,
  "fie": 34167,
  "field": 4606,
  "fields": 34776,
  "fif": 16868,
  "fifth": 17483,
  "fifths": 36856,
  "fig": 11294,
  "fight": 11760,
  "fighter": 35471,
  "fighting": 24549,
  "figure": 15712,
  "figured": 44362,
  "fil": 15244,
  "file": 15102,
  "files": 16301,
  "fill": 18998,
  "filled": 21704,
  "filling": 43885,
  "fills": 37937,
  "film": 30591,
  "fin": 6794,
  "final": 17494,
  "finals": 23775,
  "finance": 20074,
  "financed": 41645,
  "financial": 13580,
  "financing": 39365,
  "find": 17332,
  "finder": 46223,
  "finding": 28043,
  "findings": 38230,
  "fine": 49211,
  "fing": 23339,
  "finger": 48579,
  "fingfx": 29306,
  "finish": 48242,
  "finity": 28251,
  "fins": 28993,
  "fintech": 45815,
  "fiore": 49895,
  "fir": 7701,
  "fire": 8858,
  "fired": 16242,
  "fires": 10832,
  "firm": 32882,
  "firmed": 19769,
  "first": 9338,
  "fis": 19551,
  "fiscal": 40991,
  "fish": 15531,
  "fisher": 38033,
  "fishing": 45621,
  "fit": 9852,
  "fits": 17493,
  "fitting": 32957,
  "five": 14451,
  "fix": 28472,
  "fj": 25007,
  "fk": 23748,
  "fl": 3951,
  "flag": 39046,
  "flare": 41543,
  "flash": 22402,
  "flashslate": 35381,
  "flation": 28230,
  "fle": 43440,
  "fledged": 36099,
  "flex": 25555,
  "flick": 43199,
  "flickr": 43833,
  "flies": 36505,
  "flight": 16899,
  "flix": 6556,
  "flo": 19349,
  "floating": 36183,
  "floatingplayer": 43566,
  "floor": 32935,
  "flor": 32487,
  "florida": 34325,
  "flow": 5736,
  "flower": 27193,
  "flowers": 44301,
  "flu": 20735,
  "fluid": 35087,
  "flung": 37396,
  "fly": 16730,
  "flying": 27735,
  "fm": 28572,
  "fmarketreport": 26346,
  "fmc": 47483,
  "fo": 4469,
  "focus": 8237,
  "focused": 8583,
  "fol": 2267,
  "fold": 9633,
  "folk": 27465,
  "follow": 12135,
  "following": 33749,
  "fon": 27415,
  "food": 12763,
  "foods": 43183,
  "foot": 8241,
  "football": 39856,
  "footed": 37613,
  "footer": 15682,
  "for": 1774,
  "force": 2532,
  "forced": 37199,
  "forces": 17489,
  "ford": 3691,
  "fordshire": 40436,
  "fore": 901,
  "forecast": 26060,
  "foreign": 37137,
  "forest": 19937,
  "forestation": 13815,
  "form": 741,
  "forma": 29074,
  "forman": 25469,
  "format": 49309,
  "formation": 48903,
  "formed": 38825,
  "former": 25754,
  "forming": 31371,
  "fors": 48343,
  "fort": 3118,
  "forth": 25324,
  "fortune": 36542,
  "forward": 11527,
  "forwards": 42282,
  "fought": 48768,
  "found": 9892,
  "founded": 16967,
  "founder": 6694,
  "founders": 27364,
  "four": 9107,
  "fourth": 37885,
  "fox": 26878,
  "fp": 14317,
  "fr": 5555,
  "fra": 27058,
  "frame": 13558,
  "frames": 35346,
  "franc": 41380,
  "france": 17311,
  "franch": 27153,
  "frank": 31055,
  "fraud": 39941,
  "fre": 23995,
  "fred": 17529,
  "free": 5512,
  "freed": 48703,
  "freight": 34003,
  "french": 23373,
  "frequ": 26800,
  "frequency": 29140,
  "fresh": 33888,
  "frey": 32532,
  "fri": 33405,
  "frica": 45775,
  "fried": 41432,
  "friend": 8664,
  "friendly": 10048,
  "frist": 46641,
  "fro": 46583,
  "frog": 30500,
  "from": 7549,
  "fron": 28509,
  "front": 7163,
  "fronts": 33261,
  "frs": 32531,
  "fs": 8070,
  "fsky": 41348,
  "ft": 991,
  "fta": 39664,
  "ftc": 38182,
  "fter": 37447,
  "ftime": 32946,
  "fts": 13921,
  "ftse": 29707,
  "fty": 14024,
  "fu": 14830,
  "fuel": 14649,
  "fueled": 23567,
  "fuelled": 38946,
  "fuels": 27932,
  "ful": 1037,
  "fulfill": 44729,
  "fulfillment": 45354,
  "fuli": 38692,
  "full": 15794,
  "fullscreen": 26926,
  "fully": 2931,
  "fun": 16240,
  "function": 13658,
  "functional": 19580,
  "functioning": 39291,
  "fund": 8191,
  "funded": 12673,
  "funding": 22034,
  "fundme": 22118,
  "funds": 36518,
  "fung": 35177,
  "fungible": 46219,
  "fur": 21485,
  "furt": 14337,
  "further": 31816,
  "fus": 25971,
  "fusion": 42414,
  "fuss": 37936,
  "fut": 19691,
  "future": 27870,
  "futures": 32674,
  "fv": 38883,
  "fw": 23325,
  "fx": 15915,
  "fy": 18109,
  "fÃ¼": 49848,
  "g": 71,
  "ga": 4860,
  "gaa": 30756,
  "gaap": 3280,
  "gaard": 30510,
  "gab": 37043,
  "gado": 33695,
  "gae": 25385,
  "gage": 16029,
  "gain": 22274,
  "gains": 49212,
  "gal": 6135,
  "gall": 40142,
  "gam": 39171,
  "game": 12631,
  "games": 41176,
  "gaming": 47969,
  "gan": 869,
  "gang": 25439,
  "gap": 17771,
  "gar": 8704,
  "gara": 38678,
  "gard": 42026,
  "garh": 43674,
  "gart": 40095,
  "gary": 17862,
  "gas": 6413,
  "gate": 12323,
  "gates": 21378,
  "gathering": 45776,
  "gay": 43690,
  "gb": 6676,
  "gbp": 38944,
  "gbt": 8920,
  "gbti": 37210,
  "gc": 17338,
  "gd": 30411,
  "gdp": 30124,
  "ge": 383,
  "geal": 24403,
  "gean": 40517,
  "gear": 33985,
  "gebn": 42172,
  "ged": 1741,
  "gee": 26320,
  "gel": 9036,
  "gels": 34144,
  "gem": 24777,
  "geme": 49571,
  "gemini": 31492,
  "gen": 2347,
  "gence": 13306,
  "gender": 11829,
  "gene": 16554,
  "gener": 11769,
  "general": 9562,
  "generated": 26020,
  "generating": 20528,
  "generation": 9530,
  "generational": 29555,
  "generative": 29920,
  "generes": 47210,
  "genheim": 28825,
  "gens": 34949,
  "gent": 19021,
  "geo": 17460,
  "georg": 35473,
  "george": 49092,
  "georgia": 38715,
  "ger": 1895,
  "gered": 7522,
  "gering": 9565,
  "germ": 17958,
  "germain": 39604,
  "german": 21186,
  "germany": 21483,
  "gerna": 38973,
  "gers": 6617,
  "gery": 31321,
  "ges": 3377,
  "gest": 1296,
  "get": 1457,
  "getelement": 23055,
  "getelementbyid": 23059,
  "getinstance": 43519,
  "getlibrary": 35362,
  "getlibraryname": 43565,
  "getown": 22809,
  "gets": 8037,
  "gett": 35662,
  "gettable": 49880,
  "getting": 46725,
  "getty": 12235,
  "gev": 17192,
  "gevity": 20569,
  "gew": 49507,
  "gey": 35286,
  "gf": 25080,
  "gfx": 29021,
  "gg": 11582,
  "gger": 40295,
  "gh": 781,
  "ghan": 5899,
  "ghini": 36924,
  "ghz": 41992,
  "gi": 3871,
  "gia": 30623,
  "gie": 18315,
  "gies": 25478,
  "gift": 50008,
  "gig": 46470,
  "gil": 30719,
  "gilead": 36345,
  "gin": 1261,
  "ging": 2930,
  "gins": 18465,
  "gio": 15789,
  "gios": 40218,
  "gir": 29546,
  "girl": 48204,
  "gis": 43633,
  "git": 31469,
  "given": 38953,
  "giver": 23613,
  "givers": 13110,
  "giving": 10210,
  "gj": 45300,
  "gl": 6393,
  "glass": 36494,
  "gle": 24654,
  "gles": 43886,
  "glich": 45441,
  "gling": 27527,
  "glob": 6644,
  "global": 7113,
  "globe": 43811,
  "globenewswire": 42561,
  "glom": 13010,
  "gm": 15223,
  "gment": 9376,
  "gments": 14624,
  "gn": 2154,
  "gna": 28087,
  "gni": 47246,
  "gnw": 12769,
  "gnwabout": 23895,
  "go": 1631,
  "gob": 31255,
  "god": 49032,
  "goers": 18974,
  "goi": 47112,
  "going": 2706,
  "gold": 11762,
  "goldman": 37056,
  "gom": 20280,
  "gon": 24129,
  "gone": 18175,
  "good": 13071,
  "goods": 25873,
  "google": 5249,
  "gor": 6667,
  "gos": 19418,
  "got": 28779,
  "gou": 44375,
  "gov": 6546,
  "govern": 8567,
  "governance": 43869,
  "government": 11518,
  "governmental": 18611,
  "govina": 42834,
  "gow": 12656,
  "gowan": 32959,
  "gp": 30317,
  "gr": 836,
  "gra": 28746,
  "grab": 28855,
  "grabbing": 41979,
  "grad": 10447,
  "grade": 5374,
  "graduate": 39562,
  "gram": 1205,
  "grams": 30611,
  "gran": 47853,
  "grand": 27925,
  "grande": 21578,
  "grap": 32658,
  "graph": 13802,
  "graphics": 37404,
  "grass": 41993,
  "grave": 42502,
  "gre": 12167,
  "great": 26879,
  "gree": 14981,
  "green": 14961,
  "greens": 14771,
  "greg": 5165,
  "gregor": 35008,
  "gren": 25465,
  "gress": 1570,
  "grid": 27677,
  "gritty": 42503,
  "gro": 6452,
  "grohe": 32813,
  "gross": 33602,
  "ground": 4557,
  "grounds": 40160,
  "group": 9185,
  "groups": 22336,
  "grove": 33004,
  "grow": 13401,
  "growing": 9072,
  "grown": 18942,
  "growth": 14105,
  "gry": 8598,
  "gs": 6474,
  "gsu": 31238,
  "gt": 15468,
  "gu": 4307,
  "guan": 47653,
  "guarant": 33794,
  "guaranteed": 38497,
  "guard": 8206,
  "guardian": 24960,
  "guards": 16561,
  "gue": 24115,
  "guer": 32235,
  "guez": 41934,
  "guid": 28296,
  "guidance": 37348,
  "guide": 41282,
  "guided": 22730,
  "gun": 5590,
  "gupta": 26039,
  "guru": 48527,
  "gut": 48470,
  "gv": 42619,
  "gw": 30481,
  "gx": 36445,
  "gy": 11016,
  "gyijzc": 47001,
  "gyz": 22508,
  "h": 72,
  "ha": 3331,
  "haaretz": 45583,
  "hab": 7162,
  "habi": 15104,
  "hack": 43887,
  "had": 24130,
  "hadow": 32913,
  "hae": 49740,
  "hai": 5986,
  "hail": 27208,
  "hailing": 16731,
  "hairs": 39340,
  "hal": 5478,
  "halas": 48447,
  "half": 10625,
  "hall": 14918,
  "halt": 42559,
  "ham": 4229,
  "hammer": 41502,
  "hampton": 49741,
  "hams": 37119,
  "han": 2629,
  "hana": 11284,
  "hand": 6592,
  "handed": 20761,
  "hander": 34007,
  "handle": 19925,
  "handlead": 43537,
  "handleadoncvpvisibilitychange": 43574,
  "handlemobilepinnedplayer": 43553,
  "handlemobilepinnedplayerstates": 43577,
  "handling": 39932,
  "hands": 33512,
  "hane": 14678,
  "hang": 24164,
  "hanging": 49283,
  "hani": 16819,
  "hanna": 26325,
  "hanol": 32878,
  "hans": 25291,
  "hansgrohe": 34624,
  "hao": 14979,
  "hap": 46584,
  "happy": 49426,
  "haps": 4255,
  "har": 6049,
  "hara": 21911,
  "hard": 15743,
  "hardt": 31995,
  "hare": 17118,
  "hares": 13794,
  "hari": 32453,
  "haring": 42762,
  "harm": 24421,
  "harris": 26226,
  "hart": 19519,
  "has": 15923,
  "hasa": 46763,
  "hat": 21953,
  "hate": 38851,
  "haul": 9301,
  "haus": 25192,
  "haust": 8161,
  "hav": 37978,
  "have": 15978,
  "haven": 15238,
  "having": 48882,
  "haw": 20139,
  "hay": 37499,
  "hazard": 42265,
  "hb": 40708,
  "hc": 18929,
  "hd": 12934,
  "he": 260,
  "hea": 17559,
  "head": 1880,
  "headed": 17531,
  "headedness": 41352,
  "header": 34362,
  "headquartered": 28735,
  "heads": 23774,
  "health": 4249,
  "healthcare": 18314,
  "healthit": 49971,
  "healthy": 20207,
  "hear": 27383,
  "heart": 16845,
  "hearted": 25662,
  "heartedly": 48819,
  "heast": 5866,
  "heastern": 13195,
  "heav": 10985,
  "heavy": 14866,
  "hec": 48274,
  "hecked": 25763,
  "hed": 768,
  "hedge": 24992,
  "hedged": 31027,
  "hee": 28830,
  "heed": 22416,
  "heen": 41359,
  "heet": 23767,
  "heets": 29579,
  "hegan": 48883,
  "hei": 44655,
  "heid": 16489,
  "height": 37122,
  "heim": 8879,
  "heimer": 11601,
  "heit": 11379,
  "heits": 43783,
  "hek": 27943,
  "hel": 5615,
  "held": 9496,
  "heli": 35239,
  "helial": 22765,
  "hell": 24020,
  "hello": 41283,
  "helm": 27750,
  "help": 12535,
  "helps": 33554,
  "hem": 7319,
  "hemail": 43813,
  "hement": 37591,
  "hemont": 30116,
  "hen": 2747,
  "hend": 23866,
  "hene": 30273,
  "heng": 16941,
  "henko": 16607,
  "henol": 43070,
  "hens": 3079,
  "hent": 50044,
  "hentic": 7904,
  "heny": 45324,
  "heon": 20112,
  "hepat": 50090,
  "her": 389,
  "hera": 43098,
  "here": 4866,
  "hered": 6915,
  "herence": 41663,
  "herent": 7763,
  "heres": 23835,
  "heric": 17811,
  "hering": 17764,
  "herland": 34874,
  "herlands": 7131,
  "hern": 4588,
  "hero": 18153,
  "hers": 1967,
  "hershey": 28304,
  "hersheycompany": 29256,
  "herson": 40193,
  "herspoon": 36956,
  "herst": 40303,
  "herty": 22604,
  "hertz": 44663,
  "hes": 1501,
  "hesda": 40353,
  "hesh": 42682,
  "hess": 16863,
  "hest": 2277,
  "hester": 8916,
  "hesus": 41959,
  "het": 11900,
  "heter": 44326,
  "hetic": 12328,
  "hetics": 27126,
  "hetti": 47093,
  "heuser": 34326,
  "hew": 23500,
  "hex": 42582,
  "hey": 16758,
  "hf": 31454,
  "hh": 27238,
  "hhd": 47757,
  "hhdj": 48340,
  "hi": 3639,
  "hia": 23098,
  "hib": 3361,
  "hiba": 47117,
  "hic": 2010,
  "hically": 49774,
  "hics": 13189,
  "hid": 37376,
  "hide": 18201,
  "hides": 35178,
  "hidespinner": 35387,
  "hideui": 43551,
  "hies": 37248,
  "hift": 16247,
  "hig": 13169,
  "high": 9642,
  "higher": 43429,
  "highest": 15149,
  "highs": 32610,
  "highsnobiety": 33965,
  "hil": 27459,
  "hill": 13161,
  "hills": 46067,
  "hilton": 45190,
  "him": 38202,
  "hin": 14932,
  "hine": 32693,
  "hing": 1061,
  "hinged": 41725,
  "hingya": 15535,
  "hip": 1113,
  "hips": 7442,
  "hir": 22996,
  "hire": 7256,
  "hiro": 29300,
  "his": 13822,
  "hishek": 34800,
  "hispanic": 30174,
  "hisso": 47462,
  "hist": 22145,
  "historic": 44810,
  "history": 37442,
  "hit": 7396,
  "hiv": 41903,
  "hj": 38467,
  "hk": 22226,
  "hl": 7116,
  "hm": 17485,
  "hmert": 43378,
  "hn": 11913,
  "hns": 22959,
  "ho": 5132,
  "hoc": 29666,
  "hod": 3062,
  "hoe": 21470,
  "hoea": 29226,
  "hofer": 42577,
  "hoff": 28002,
  "hog": 40377,
  "hoid": 42536,
  "hol": 2998,
  "hold": 1510,
  "holder": 4981,
  "holders": 2230,
  "holding": 12643,
  "holdings": 34312,
  "holds": 41682,
  "hole": 23652,
  "holes": 24547,
  "holiday": 39769,
  "holm": 13447,
  "holz": 39321,
  "hom": 27789,
  "home": 3602,
  "homes": 41941,
  "homme": 41040,
  "hon": 30677,
  "hong": 14851,
  "hood": 3363,
  "hoot": 29089,
  "hop": 10033,
  "hope": 23336,
  "hops": 15038,
  "hor": 6346,
  "hora": 25370,
  "hore": 35151,
  "horn": 23929,
  "horse": 31978,
  "hort": 44139,
  "hos": 33536,
  "hospital": 13942,
  "hospitalized": 34979,
  "host": 17150,
  "hosted": 32865,
  "hot": 12181,
  "hotel": 40580,
  "hots": 35870,
  "hou": 19942,
  "houn": 28237,
  "hound": 39297,
  "hour": 8429,
  "hours": 17057,
  "hous": 8227,
  "house": 3927,
  "household": 45917,
  "houses": 9962,
  "housing": 17492,
  "houston": 46108,
  "hoven": 37336,
  "how": 5173,
  "hower": 44398,
  "however": 27569,
  "hp": 22537,
  "hr": 5015,
  "hra": 30318,
  "hran": 15622,
  "hranshu": 43618,
  "hrc": 27248,
  "hria": 32978,
  "hrie": 41079,
  "hrw": 16782,
  "hs": 3023,
  "hsa": 44394,
  "ht": 5442,
  "htar": 43276,
  "htfmarketreport": 30100,
  "htm": 23240,
  "html": 7592,
  "htmldate": 44870,
  "htt": 7090,
  "http": 31592,
  "https": 7345,
  "hu": 11589,
  "hua": 15607,
  "huang": 47669,
  "hub": 13962,
  "hug": 47347,
  "hui": 30552,
  "hum": 8798,
  "human": 10594,
  "hun": 21162,
  "hundred": 28274,
  "hundreds": 33281,
  "hung": 40019,
  "hungry": 40917,
  "hunting": 44486,
  "hur": 39339,
  "hurst": 35729,
  "hus": 8396,
  "husband": 49676,
  "hy": 3378,
  "hya": 24894,
  "hyd": 42049,
  "hydr": 23612,
  "hydro": 33573,
  "hydrogen": 48827,
  "hydroxy": 43195,
  "hygi": 49814,
  "hyiddin": 43463,
  "hyl": 10731,
  "hyp": 24634,
  "hypert": 47679,
  "hyth": 15099,
  "hÃµes": 26258,
  "hÃ¶": 48412,
  "i": 73,
  "ia": 487,
  "iable": 20529,
  "iably": 35015,
  "iac": 20227,
  "iad": 32962,
  "iage": 14459,
  "iagn": 35318,
  "iagnosed": 40786,
  "iago": 18143,
  "iah": 15643,
  "iais": 39036,
  "iak": 23278,
  "ial": 401,
  "iale": 20401,
  "iall": 40468,
  "ially": 1335,
  "ials": 1161,
  "ialysis": 49158,
  "iam": 4371,
  "iamen": 46332,
  "iamento": 49043,
  "iami": 7806,
  "iams": 6572,
  "ian": 711,
  "iana": 6772,
  "iance": 5389,
  "iane": 33920,
  "iang": 7630,
  "iani": 17545,
  "ianna": 27924,
  "iano": 12959,
  "ians": 2124,
  "iant": 9460,
  "iantly": 39534,
  "ianto": 47806,
  "iants": 3894,
  "ianz": 20076,
  "ianza": 47236,
  "iao": 20645,
  "iar": 4710,
  "iary": 18693,
  "ias": 5480,
  "iasis": 26390,
  "iasm": 13171,
  "iat": 4457,
  "iate": 4525,
  "iated": 6167,
  "iates": 10379,
  "iating": 21072,
  "iation": 2377,
  "iations": 11876,
  "iative": 22042,
  "iatr": 30964,
  "iatric": 7388,
  "iatrics": 16955,
  "iaux": 39916,
  "iaz": 27777,
  "iaÃ§Ã£o": 40632,
  "ib": 480,
  "iba": 14772,
  "ibaba": 9325,
  "ibal": 33490,
  "iban": 10551,
  "iband": 46967,
  "ibank": 43398,
  "ibas": 20315,
  "ibb": 18087,
  "ibe": 16633,
  "ibel": 40421,
  "iber": 6299,
  "iberal": 25614,
  "ibi": 22566,
  "ibil": 25812,
  "ibili": 39654,
  "ibilidad": 36316,
  "ibilities": 7431,
  "ibility": 1996,
  "ible": 907,
  "ibles": 11309,
  "ibly": 4050,
  "ibm": 38315,
  "ibo": 16381,
  "ibor": 46079,
  "ibr": 9302,
  "ibrary": 42773,
  "ibre": 31011,
  "ibu": 18449,
  "ibur": 28631,
  "iburton": 30519,
  "ibus": 22737,
  "ibusiness": 35592,
  "ibut": 1773,
  "ibute": 4294,
  "ibuted": 2883,
  "ibution": 2516,
  "ibutions": 6121,
  "ic": 290,
  "ica": 4779,
  "icable": 18559,
  "ical": 524,
  "ically": 1269,
  "icals": 12340,
  "ican": 7797,
  "icans": 26012,
  "icas": 31230,
  "icate": 7316,
  "icated": 15118,
  "ication": 22609,
  "icc": 20670,
  "ice": 554,
  "iced": 5403,
  "icef": 5778,
  "icer": 43585,
  "ices": 706,
  "ich": 510,
  "icha": 45257,
  "ichael": 22487,
  "ichannel": 14892,
  "iche": 17241,
  "ichen": 30815,
  "icher": 31123,
  "ichi": 16810,
  "icho": 43699,
  "icht": 17556,
  "ici": 7087,
  "icia": 15309,
  "icial": 6263,
  "ician": 6157,
  "icians": 3736,
  "iciary": 16597,
  "icidal": 25909,
  "icide": 9143,
  "icides": 14184,
  "iciency": 14087,
  "icient": 4271,
  "icine": 9614,
  "icing": 3822,
  "icio": 26468,
  "icion": 45422,
  "iciones": 36448,
  "icious": 8506,
  "icip": 2555,
  "icism": 13804,
  "icit": 16078,
  "icitinib": 29810,
  "icity": 39002,
  "iciÃ³n": 27038,
  "ick": 856,
  "icked": 14956,
  "icken": 21431,
  "icker": 48787,
  "ickers": 23874,
  "icket": 10906,
  "ickets": 32554,
  "icki": 34579,
  "icking": 10784,
  "icks": 7370,
  "ickson": 29286,
  "icky": 30668,
  "icles": 47224,
  "ico": 2754,
  "icon": 9350,
  "icorp": 34304,
  "icos": 19317,
  "icoster": 20059,
  "icrous": 43048,
  "ics": 883,
  "ict": 1043,
  "icted": 9674,
  "icting": 22781,
  "iction": 4741,
  "ictional": 24194,
  "ictions": 7498,
  "icts": 7174,
  "icu": 31673,
  "icular": 48887,
  "icult": 2064,
  "icultural": 30001,
  "iculture": 47245,
  "icus": 40792,
  "icut": 11604,
  "icy": 12082,
  "icz": 21921,
  "id": 305,
  "ida": 3072,
  "idad": 8481,
  "idade": 17065,
  "idades": 15706,
  "idal": 16153,
  "idan": 24224,
  "idas": 11217,
  "idate": 41947,
  "idated": 39580,
  "iday": 1574,
  "idays": 7361,
  "iddin": 42421,
  "ide": 578,
  "ided": 3484,
  "idel": 19836,
  "iden": 26415,
  "idence": 3203,
  "idency": 7893,
  "ident": 720,
  "idental": 21883,
  "identification": 46827,
  "identified": 14556,
  "idents": 2594,
  "idepress": 34717,
  "ider": 1654,
  "idered": 3450,
  "iders": 11104,
  "ides": 2367,
  "idge": 4093,
  "idges": 26265,
  "idi": 15962,
  "idian": 26605,
  "idine": 28291,
  "iding": 6902,
  "idious": 34032,
  "idis": 25366,
  "idity": 17278,
  "idium": 44146,
  "ido": 7823,
  "idores": 46077,
  "idos": 11968,
  "ids": 3020,
  "idselector": 43496,
  "idu": 21103,
  "idusk": 46899,
  "idy": 19760,
  "ie": 459,
  "iec": 36256,
  "iece": 12750,
  "ied": 877,
  "iedad": 29896,
  "ieder": 32227,
  "ief": 1056,
  "ieg": 18131,
  "ieh": 36194,
  "iel": 9613,
  "ield": 1579,
  "iele": 30162,
  "ielle": 32799,
  "iem": 15396,
  "iembre": 25725,
  "ien": 4973,
  "iena": 27501,
  "ienc": 1905,
  "ience": 1162,
  "ienced": 13620,
  "iences": 4597,
  "iencia": 37200,
  "iencies": 9624,
  "iency": 4253,
  "iendo": 29323,
  "ienne": 24034,
  "iens": 26660,
  "ient": 976,
  "iente": 19591,
  "ientes": 20906,
  "iento": 12765,
  "ientos": 27397,
  "ients": 1028,
  "ier": 1627,
  "iera": 22272,
  "ieran": 31548,
  "iere": 12239,
  "ieren": 23142,
  "ierge": 36360,
  "ieri": 28227,
  "ieron": 19672,
  "ierre": 29805,
  "ierrez": 36200,
  "iers": 5088,
  "iert": 24635,
  "ierte": 44106,
  "ierung": 31374,
  "ies": 371,
  "iese": 48894,
  "iesel": 38174,
  "ieson": 40886,
  "iest": 6624,
  "iesta": 40494,
  "iet": 3877,
  "ieth": 34275,
  "ieties": 25243,
  "ieto": 48381,
  "ietta": 46932,
  "iety": 2777,
  "ieu": 16418,
  "ieurs": 35185,
  "ieux": 36591,
  "iev": 10973,
  "ieva": 22901,
  "ieval": 25280,
  "ieve": 11584,
  "ieved": 10636,
  "iever": 39350,
  "ieves": 23002,
  "ieving": 19012,
  "iew": 891,
  "iewicz": 34718,
  "iez": 49714,
  "if": 380,
  "ifa": 17324,
  "ifax": 26866,
  "ife": 3534,
  "ifer": 9925,
  "iff": 3637,
  "iffe": 14096,
  "iffer": 37692,
  "ifference": 34931,
  "ifferent": 32884,
  "iffs": 7551,
  "ifi": 10183,
  "ifiable": 14260,
  "ific": 803,
  "ifically": 4983,
  "ificant": 24426,
  "ification": 3134,
  "ifications": 6889,
  "ificial": 49954,
  "ified": 1589,
  "ifier": 15906,
  "ifiers": 16581,
  "ifies": 7390,
  "ifilm": 34218,
  "iflu": 49367,
  "ifor": 49157,
  "ifrs": 14411,
  "ifs": 22203,
  "ift": 2044,
  "ifted": 21922,
  "ifter": 45679,
  "ifting": 24148,
  "ifts": 37189,
  "ifty": 16389,
  "iful": 8492,
  "ify": 2029,
  "ifying": 4140,
  "ig": 331,
  "iga": 21421,
  "igail": 42867,
  "igal": 40832,
  "igan": 5682,
  "igans": 44885,
  "igarh": 43591,
  "igate": 4143,
  "igated": 17221,
  "igating": 9437,
  "igation": 2548,
  "igator": 32759,
  "ige": 11334,
  "igen": 5063,
  "igene": 24156,
  "igener": 43534,
  "igenous": 8375,
  "igent": 49039,
  "iger": 8411,
  "igeru": 49120,
  "iges": 49858,
  "igg": 35443,
  "igh": 422,
  "igham": 27795,
  "ighed": 9597,
  "ighi": 48420,
  "ight": 542,
  "ighted": 4072,
  "ighter": 7697,
  "ighth": 11296,
  "ighting": 34811,
  "ighton": 43308,
  "ights": 1049,
  "igi": 30080,
  "igieg": 29424,
  "igious": 16340,
  "igkeit": 45201,
  "igley": 39502,
  "igm": 15270,
  "igma": 37800,
  "ign": 594,
  "igna": 24828,
  "ignan": 39007,
  "ignant": 28500,
  "igne": 31678,
  "igned": 5190,
  "ignment": 22869,
  "ignon": 35021,
  "igo": 10817,
  "igos": 37537,
  "igr": 2480,
  "igram": 42512,
  "igroup": 11547,
  "igs": 31425,
  "igt": 35822,
  "igu": 43786,
  "igue": 6822,
  "igues": 44183,
  "iguez": 18129,
  "iguous": 37415,
  "igura": 45368,
  "ih": 8226,
  "ihad": 14486,
  "ihan": 36471,
  "ihara": 34559,
  "ii": 7278,
  "iii": 23401,
  "ij": 2748,
  "ija": 26944,
  "ijer": 37459,
  "iji": 15834,
  "ijin": 46323,
  "ijing": 3551,
  "ijk": 37741,
  "ijn": 26945,
  "ijs": 46610,
  "ijuana": 13488,
  "ijzc": 46925,
  "ik": 1995,
  "ika": 9339,
  "ikan": 34510,
  "ikani": 39152,
  "ikawa": 31105,
  "ike": 2163,
  "iken": 26177,
  "iker": 19358,
  "ikers": 30348,
  "ikes": 5863,
  "ikh": 17541,
  "iki": 19995,
  "iking": 9412,
  "iko": 13478,
  "ikon": 41922,
  "ikov": 45697,
  "ikova": 47790,
  "iku": 42381,
  "ikumar": 41729,
  "il": 302,
  "ila": 8053,
  "ilal": 43303,
  "ilant": 38171,
  "ilar": 2004,
  "ilated": 45247,
  "ilater": 24068,
  "ilateral": 8201,
  "ilaterally": 26744,
  "ilation": 22528,
  "ild": 773,
  "ilda": 32410,
  "ilder": 15992,
  "ile": 616,
  "ilead": 8431,
  "ileaks": 36820,
  "iled": 4571,
  "ilee": 30417,
  "ileen": 30019,
  "ileo": 41493,
  "iler": 22378,
  "iles": 4374,
  "iless": 46293,
  "ilever": 14893,
  "iley": 14764,
  "ili": 11210,
  "ilia": 16090,
  "ilian": 39138,
  "iliard": 46342,
  "iliary": 30589,
  "iliated": 27354,
  "ilib": 26691,
  "ilibrium": 29152,
  "ilight": 42114,
  "ilin": 24964,
  "iling": 6212,
  "ilingual": 32837,
  "ilinx": 45768,
  "ilio": 21169,
  "ilit": 4611,
  "ilitary": 40881,
  "ilities": 1473,
  "ility": 736,
  "ilitÃ©": 31356,
  "ill": 344,
  "illa": 9493,
  "illac": 41184,
  "illan": 43095,
  "illance": 5996,
  "illard": 32319,
  "illary": 21266,
  "illas": 20853,
  "illaume": 33455,
  "ille": 5080,
  "illed": 4434,
  "iller": 11693,
  "illery": 37009,
  "illes": 24637,
  "illet": 38274,
  "illi": 35122,
  "illie": 40255,
  "illin": 34929,
  "illing": 4015,
  "illion": 521,
  "illions": 13959,
  "illips": 21422,
  "illium": 41669,
  "illo": 13365,
  "illon": 20902,
  "illow": 23264,
  "ills": 3373,
  "illusion": 35259,
  "illy": 7409,
  "ilm": 28916,
  "ilo": 17242,
  "ilocy": 44038,
  "ilocybin": 44529,
  "ilon": 47097,
  "ilor": 28107,
  "ilot": 29550,
  "ils": 6478,
  "ilst": 10382,
  "ilt": 3430,
  "ilton": 8620,
  "ilumab": 25613,
  "ilva": 40514,
  "ily": 1064,
  "ilyn": 43062,
  "im": 327,
  "ima": 8184,
  "imab": 11402,
  "imag": 19160,
  "image": 17618,
  "images": 27196,
  "imagine": 47080,
  "imaging": 46536,
  "imal": 24942,
  "iman": 13869,
  "imani": 38959,
  "imar": 34405,
  "imarc": 22025,
  "imarcgroup": 23147,
  "imas": 39754,
  "imat": 38068,
  "imate": 1175,
  "imated": 13098,
  "imately": 2385,
  "imates": 29606,
  "imating": 25239,
  "imation": 32241,
  "imb": 10819,
  "imbab": 14582,
  "imbabwe": 14618,
  "imbert": 44596,
  "imbledon": 26602,
  "ime": 592,
  "imed": 34266,
  "imen": 12598,
  "imens": 12541,
  "imensional": 20545,
  "iment": 3669,
  "imental": 37872,
  "imentary": 50045,
  "imento": 17738,
  "imentos": 32879,
  "iments": 16131,
  "imeo": 46658,
  "imer": 20725,
  "imes": 3330,
  "imet": 26700,
  "imeter": 16468,
  "imeters": 26520,
  "imf": 41003,
  "imi": 22640,
  "imic": 13456,
  "imicrob": 17601,
  "imiento": 21599,
  "imientos": 42996,
  "imil": 25889,
  "imilar": 30879,
  "imilars": 35943,
  "imin": 3846,
  "iminal": 5699,
  "iminals": 10057,
  "iminated": 12460,
  "imination": 6429,
  "imini": 38023,
  "imir": 11079,
  "imity": 11182,
  "imize": 48776,
  "imm": 6415,
  "immer": 47565,
  "immers": 26127,
  "immigr": 21763,
  "immigrant": 37219,
  "immigration": 30157,
  "immon": 46591,
  "immun": 18135,
  "immune": 13597,
  "immunity": 36438,
  "imo": 15279,
  "imod": 45250,
  "imon": 17248,
  "imonthly": 22055,
  "imos": 30878,
  "imoto": 26628,
  "imov": 41311,
  "imp": 7350,
  "impact": 18122,
  "imper": 45367,
  "impl": 26093,
  "implement": 40657,
  "implications": 44124,
  "import": 20029,
  "importance": 46397,
  "important": 27349,
  "imposed": 19156,
  "impro": 27078,
  "improvement": 40825,
  "ims": 12613,
  "imumab": 39304,
  "imura": 26115,
  "in": 259,
  "ina": 838,
  "inable": 23679,
  "inafter": 42631,
  "inai": 18425,
  "inal": 2357,
  "inally": 28066,
  "inals": 20784,
  "inant": 17550,
  "inar": 30955,
  "inarily": 15949,
  "inary": 2892,
  "inas": 17579,
  "inate": 6164,
  "inated": 1777,
  "inates": 45954,
  "inating": 7657,
  "ination": 1413,
  "inations": 3993,
  "inax": 40152,
  "inc": 1819,
  "ince": 902,
  "inces": 10519,
  "inch": 16254,
  "inched": 32720,
  "incheon": 44509,
  "incheonji": 45492,
  "inck": 21784,
  "including": 16166,
  "inclusive": 21954,
  "incol": 13437,
  "income": 4985,
  "incorpor": 49591,
  "incre": 19694,
  "increase": 44915,
  "increased": 46947,
  "increasing": 28570,
  "inct": 7416,
  "inction": 13602,
  "inctions": 40755,
  "incy": 49521,
  "ind": 917,
  "inda": 11541,
  "inde": 49045,
  "independ": 24908,
  "independence": 46462,
  "independent": 30594,
  "inder": 6391,
  "index": 15680,
  "india": 13448,
  "indian": 25875,
  "indigenous": 47986,
  "inding": 7874,
  "individ": 46976,
  "individual": 48087,
  "indler": 41534,
  "indo": 27881,
  "indones": 29929,
  "indonesia": 31918,
  "indra": 20625,
  "induced": 9835,
  "inducing": 36223,
  "indus": 12741,
  "industr": 19117,
  "industrial": 20669,
  "industry": 13259,
  "ine": 462,
  "ined": 1262,
  "ineers": 34270,
  "inem": 6036,
  "inement": 12630,
  "inen": 39499,
  "inence": 29716,
  "inent": 17512,
  "iner": 9693,
  "iners": 25652,
  "ines": 740,
  "inese": 1990,
  "iness": 634,
  "inet": 5730,
  "inetic": 36753,
  "inetics": 26359,
  "inex": 41671,
  "inez": 18132,
  "inf": 9187,
  "infect": 5253,
  "infected": 14869,
  "infection": 21773,
  "infections": 45397,
  "infectious": 36546,
  "infer": 37900,
  "inferior": 38776,
  "inferiority": 43779,
  "infinity": 48150,
  "infl": 10688,
  "inflamm": 15015,
  "inflammation": 36340,
  "inflammatory": 17009,
  "inflation": 20193,
  "inflicted": 47392,
  "influ": 34617,
  "info": 17885,
  "infopro": 22712,
  "inform": 4419,
  "information": 5344,
  "informed": 10369,
  "infrastr": 45655,
  "infrastructure": 47621,
  "infused": 39367,
  "ing": 280,
  "inga": 49934,
  "inge": 12533,
  "ingen": 35969,
  "ingent": 7425,
  "inger": 7332,
  "inges": 15683,
  "inging": 22253,
  "ingly": 7508,
  "ingo": 27547,
  "ings": 632,
  "ington": 13504,
  "ingu": 8712,
  "inho": 26939,
  "ini": 6890,
  "inia": 38616,
  "inian": 29717,
  "inib": 12770,
  "inine": 35821,
  "ining": 2293,
  "inis": 20287,
  "init": 22769,
  "initial": 41705,
  "initiated": 36969,
  "inity": 11796,
  "inject": 31289,
  "injector": 38881,
  "ink": 789,
  "inka": 46601,
  "inki": 21591,
  "inking": 6210,
  "inks": 3676,
  "inn": 9605,
  "innati": 19365,
  "inness": 28820,
  "innov": 30029,
  "innovation": 41612,
  "ino": 3575,
  "inois": 9508,
  "inos": 11261,
  "inox": 35888,
  "inqu": 14752,
  "ins": 1644,
  "insa": 33245,
  "inside": 37292,
  "insider": 40035,
  "insight": 14662,
  "insights": 17888,
  "inski": 14230,
  "insky": 23280,
  "inson": 8427,
  "insp": 47862,
  "inspired": 21387,
  "inst": 9983,
  "instagram": 34755,
  "instance": 14020,
  "instit": 26921,
  "institute": 47143,
  "institution": 45075,
  "institutional": 49771,
  "insurance": 24044,
  "insured": 20292,
  "int": 981,
  "inta": 36230,
  "inte": 6628,
  "inted": 4706,
  "integr": 20199,
  "integrated": 32802,
  "intel": 21435,
  "intellig": 19487,
  "intelligence": 20477,
  "intelligencemarketreport": 40134,
  "intend": 18219,
  "intendo": 18496,
  "intensity": 46029,
  "intensive": 14740,
  "intention": 46915,
  "inter": 9189,
  "interactive": 45288,
  "interest": 7884,
  "interested": 39894,
  "interim": 39936,
  "intern": 17333,
  "international": 19787,
  "internet": 44256,
  "interpre": 43426,
  "interpret": 30736,
  "interpretation": 34285,
  "interview": 48614,
  "intestinal": 21306,
  "inting": 8895,
  "intl": 44440,
  "intm": 33632,
  "into": 15398,
  "inton": 9361,
  "intro": 15993,
  "ints": 6608,
  "intu": 30262,
  "intuitive": 31198,
  "inum": 15873,
  "inv": 35205,
  "invasive": 20648,
  "invent": 43391,
  "invest": 7795,
  "invested": 46678,
  "investing": 39774,
  "investment": 17941,
  "investor": 17116,
  "investors": 14793,
  "iny": 5674,
  "io": 893,
  "iod": 1107,
  "iode": 32023,
  "iodem": 42233,
  "iodes": 46664,
  "ioff": 40723,
  "iola": 30831,
  "iology": 29257,
  "ion": 291,
  "iona": 23149,
  "ionage": 22610,
  "ional": 1602,
  "ionale": 41946,
  "ionales": 35663,
  "ionate": 38957,
  "ione": 6870,
  "ioned": 13598,
  "iones": 8443,
  "iong": 31439,
  "ioni": 16910,
  "ions": 442,
  "iontech": 5396,
  "iop": 10030,
  "iopathic": 47878,
  "ior": 988,
  "iores": 38560,
  "iori": 49047,
  "iors": 10514,
  "iorxiv": 27360,
  "ios": 2857,
  "iosa": 47931,
  "iosity": 22334,
  "iosyncr": 41405,
  "iot": 5894,
  "iotic": 26810,
  "iotics": 34539,
  "iott": 17177,
  "iou": 49213,
  "ious": 783,
  "iously": 12213,
  "iox": 11252,
  "ioxid": 34635,
  "ioxide": 12428,
  "ip": 483,
  "ipa": 46714,
  "ipal": 37158,
  "ipar": 49715,
  "ipas": 50103,
  "ipation": 34123,
  "ipay": 32322,
  "ipe": 15228,
  "ipedia": 33223,
  "ipeg": 36565,
  "ipel": 25344,
  "iper": 20179,
  "ipes": 38418,
  "iph": 20316,
  "ipher": 13986,
  "ipiac": 48780,
  "iping": 44433,
  "iple": 2588,
  "iplinary": 18389,
  "ipo": 32682,
  "ipp": 4698,
  "ippe": 25863,
  "ipped": 5517,
  "ippi": 11737,
  "ipping": 24050,
  "ippy": 45533,
  "ips": 3101,
  "ipse": 26251,
  "ipsos": 33832,
  "ipt": 9894,
  "ipts": 13616,
  "ipur": 39723,
  "iq": 14736,
  "iqu": 10328,
  "ique": 3184,
  "iques": 7287,
  "iquÃ©": 32251,
  "ir": 324,
  "ira": 7583,
  "irable": 16104,
  "iraj": 34588,
  "iral": 20581,
  "iram": 32406,
  "iran": 18331,
  "iraq": 41221,
  "iras": 24893,
  "iration": 9248,
  "iravir": 15227,
  "irc": 2522,
  "ird": 1554,
  "irds": 7861,
  "ire": 602,
  "irect": 929,
  "ired": 1438,
  "ireland": 26310,
  "ires": 2766,
  "iresan": 47647,
  "irez": 29672,
  "iri": 17773,
  "iria": 42995,
  "irical": 22446,
  "iring": 3228,
  "iris": 25170,
  "irish": 38413,
  "irivimab": 41950,
  "irk": 32093,
  "irm": 23501,
  "irnaty": 33668,
  "iro": 10711,
  "iron": 1578,
  "irona": 48986,
  "iros": 32676,
  "irs": 21238,
  "irse": 42424,
  "irt": 8112,
  "irth": 16748,
  "irtntr": 24938,
  "irts": 11298,
  "irty": 10988,
  "irtz": 36213,
  "iru": 48416,
  "irus": 539,
  "irut": 15736,
  "is": 284,
  "isa": 6905,
  "isable": 21815,
  "isal": 20949,
  "isan": 6745,
  "isance": 39538,
  "isans": 20431,
  "isanship": 28962,
  "isant": 41400,
  "isation": 3002,
  "isations": 14335,
  "isbury": 43143,
  "isc": 9399,
  "isch": 26350,
  "ische": 24826,
  "ischen": 29259,
  "isco": 5092,
  "isd": 7340,
  "ise": 886,
  "isecond": 48790,
  "ised": 1231,
  "isen": 15506,
  "iser": 7722,
  "isers": 11424,
  "ises": 2771,
  "isf": 5330,
  "ish": 885,
  "isha": 14390,
  "ishable": 29625,
  "isham": 33762,
  "ished": 1440,
  "isher": 35206,
  "ishes": 13545,
  "ishi": 14692,
  "ishield": 35214,
  "ishing": 4651,
  "ishment": 9561,
  "ishnan": 23823,
  "ishop": 16504,
  "isi": 17700,
  "ising": 1666,
  "ision": 1137,
  "isiones": 48290,
  "isions": 2477,
  "isis": 13491,
  "isite": 18253,
  "isition": 27578,
  "isive": 8441,
  "isiÃ³n": 25692,
  "isk": 14341,
  "isl": 3418,
  "islaine": 43464,
  "ism": 1428,
  "isma": 18733,
  "isman": 40221,
  "ismatic": 34580,
  "isme": 35428,
  "ismo": 25897,
  "isms": 8086,
  "iso": 19559,
  "isoft": 43350,
  "isol": 6573,
  "isolate": 11491,
  "isolated": 32143,
  "isolating": 17033,
  "isolation": 12250,
  "ison": 2840,
  "isons": 7499,
  "isp": 11610,
  "ispens": 25608,
  "isphere": 16700,
  "isplay": 39302,
  "israel": 17804,
  "israeli": 36781,
  "iss": 823,
  "issa": 13223,
  "issance": 12357,
  "issant": 48107,
  "isse": 9065,
  "issement": 41241,
  "issent": 48725,
  "ission": 1314,
  "issions": 2988,
  "isson": 30361,
  "issue": 34791,
  "issued": 29531,
  "issues": 44942,
  "issy": 41918,
  "ist": 471,
  "ista": 10138,
  "istair": 26557,
  "istan": 4957,
  "istani": 24348,
  "istar": 23066,
  "istas": 19781,
  "iste": 20060,
  "isted": 5906,
  "istent": 12160,
  "ister": 1481,
  "istered": 3565,
  "isters": 5540,
  "istes": 36162,
  "isti": 45901,
  "istic": 3027,
  "istical": 6968,
  "istically": 10744,
  "istics": 2813,
  "isting": 7924,
  "isto": 30098,
  "iston": 25960,
  "istr": 1447,
  "istration": 24290,
  "istries": 17875,
  "istro": 33986,
  "istry": 3340,
  "ists": 1200,
  "isure": 7818,
  "isy": 18516,
  "isÃ©": 40880,
  "isÃ©s": 50015,
  "it": 275,
  "ita": 5490,
  "itability": 35999,
  "itable": 4655,
  "itably": 12131,
  "itage": 10511,
  "itaire": 28973,
  "ital": 628,
  "italia": 26772,
  "italian": 41573,
  "italy": 23804,
  "itan": 26423,
  "itans": 47415,
  "itant": 25454,
  "itar": 15721,
  "itarian": 5992,
  "itary": 3214,
  "itas": 16288,
  "itat": 46412,
  "itate": 21187,
  "itated": 16210,
  "itates": 39579,
  "itating": 23226,
  "itation": 5087,
  "itational": 43088,
  "itative": 6420,
  "itch": 4061,
  "itchard": 39633,
  "itches": 27576,
  "itchie": 37273,
  "ite": 683,
  "itech": 20628,
  "itect": 5624,
  "ited": 779,
  "itely": 5411,
  "item": 22191,
  "itement": 12760,
  "iten": 34600,
  "iter": 6764,
  "iters": 17143,
  "ites": 3700,
  "itet": 44713,
  "itex": 30219,
  "ith": 354,
  "itha": 42271,
  "ithe": 29205,
  "ither": 2672,
  "ithering": 42513,
  "ithromycin": 26957,
  "ithub": 25579,
  "iti": 8960,
  "itia": 33719,
  "itic": 30906,
  "itical": 1409,
  "ities": 603,
  "itin": 36817,
  "iting": 1336,
  "itinib": 48027,
  "ition": 636,
  "itions": 1293,
  "itious": 19892,
  "itiously": 39986,
  "itis": 5376,
  "itism": 34872,
  "itiv": 9532,
  "itive": 1165,
  "itiveness": 14413,
  "itives": 12853,
  "itivities": 34155,
  "itivity": 7050,
  "itization": 44091,
  "itized": 37901,
  "itizing": 47284,
  "ito": 8827,
  "iton": 32383,
  "itone": 41360,
  "itor": 1746,
  "itorial": 48848,
  "itories": 21900,
  "itors": 4196,
  "itory": 5377,
  "itos": 18053,
  "itous": 15522,
  "itously": 37126,
  "itr": 9115,
  "itrade": 29541,
  "its": 921,
  "itsch": 49725,
  "itsu": 22589,
  "itsur": 45685,
  "itt": 7910,
  "ittal": 31710,
  "itte": 13361,
  "itted": 24583,
  "itten": 14181,
  "itter": 2368,
  "itting": 15084,
  "itty": 38011,
  "itu": 27590,
  "ituan": 33077,
  "itud": 9452,
  "itude": 5681,
  "itudes": 11426,
  "itudinal": 19863,
  "iture": 8961,
  "itures": 18562,
  "itus": 17637,
  "itution": 35966,
  "ity": 392,
  "itz": 6395,
  "itzer": 21179,
  "itÃ¤t": 43584,
  "itÃ©": 10871,
  "itÃ©s": 20456,
  "itÃł": 21004,
  "iu": 15382,
  "ium": 1800,
  "iums": 30489,
  "ius": 6719,
  "iv": 413,
  "iva": 7705,
  "ivable": 18757,
  "ivably": 49442,
  "ival": 2106,
  "ivaled": 46553,
  "ivalent": 20451,
  "ivals": 5848,
  "ivamente": 31986,
  "ivan": 11488,
  "ivas": 13992,
  "ivast": 40385,
  "ivastava": 41254,
  "ivate": 38211,
  "ivated": 31201,
  "ivating": 43790,
  "ivation": 15813,
  "ivax": 50020,
  "ive": 399,
  "ived": 1648,
  "ivedi": 42683,
  "ivedisplay": 39667,
  "ively": 1850,
  "iven": 1232,
  "iveness": 4203,
  "ivent": 38531,
  "iver": 3981,
  "ivered": 3762,
  "ivers": 1001,
  "iverse": 40627,
  "iversity": 1384,
  "ivery": 19220,
  "ives": 984,
  "ivi": 28425,
  "ivia": 14192,
  "ivid": 1279,
  "ividad": 45046,
  "ividades": 38934,
  "ivil": 35158,
  "ivimab": 23710,
  "iving": 1366,
  "ivir": 5037,
  "iviral": 48554,
  "ivirus": 35210,
  "ivism": 37382,
  "ivist": 47030,
  "ivities": 23477,
  "ivity": 3106,
  "ivitÃł": 33564,
  "ivo": 10093,
  "ivoc": 26321,
  "ivol": 32919,
  "ivolumab": 49554,
  "ivos": 16552,
  "iwe": 38168,
  "iweala": 43295,
  "ix": 1060,
  "ixed": 37197,
  "ixent": 39999,
  "ixic": 42471,
  "ixin": 49312,
  "ixis": 20786,
  "ixo": 46132,
  "ixon": 16912,
  "iy": 7001,
  "iya": 22178,
  "iyah": 48862,
  "iyama": 24305,
  "iyev": 22414,
  "iyi": 39676,
  "iz": 515,
  "iza": 17289,
  "izable": 12713,
  "izaciÃ³n": 32698,
  "izada": 45637,
  "izado": 34901,
  "izados": 48038,
  "izant": 28968,
  "izar": 13716,
  "ization": 1226,
  "izations": 5794,
  "izaÃ§Ã£o": 32968,
  "ize": 1322,
  "ized": 1215,
  "izen": 31441,
  "izens": 27242,
  "izer": 2823,
  "izers": 13465,
  "izes": 4399,
  "izhou": 43149,
  "izi": 36596,
  "izia": 33542,
  "izing": 2708,
  "izio": 27628,
  "izione": 48720,
  "izo": 33287,
  "izon": 6883,
  "izoph": 28059,
  "izr": 11650,
  "izu": 14539,
  "izumab": 15409,
  "izz": 8257,
  "izza": 12441,
  "izzer": 44546,
  "izzi": 50201,
  "izzie": 47322,
  "iÃ¡n": 45557,
  "iÃ§Ã£o": 38523,
  "iÃ¨": 12474,
  "iÃ¨me": 37791,
  "iÃ¨re": 16293,
  "iÃ¨rement": 45829,
  "iÃ¨res": 27990,
  "iÃ³": 19581,
  "iÃ³n": 4367,
  "iï¬ģ": 34193,
  "j": 74,
  "ja": 7504,
  "jab": 19191,
  "jac": 34950,
  "jack": 34597,
  "jackson": 43741,
  "jaer": 44852,
  "jah": 20411,
  "jahr": 44964,
  "jak": 41302,
  "jal": 27736,
  "jam": 18242,
  "jama": 18205,
  "jamas": 31057,
  "james": 39576,
  "jan": 5877,
  "jana": 29602,
  "jani": 15996,
  "january": 20437,
  "japan": 12127,
  "japanese": 27611,
  "jar": 20976,
  "jara": 46585,
  "jard": 48769,
  "jas": 18966,
  "jay": 13388,
  "jc": 29648,
  "jd": 46282,
  "je": 9003,
  "jeans": 47946,
  "ject": 956,
  "jected": 3611,
  "jee": 16672,
  "jeev": 48010,
  "jeff": 40463,
  "jek": 30078,
  "jen": 29465,
  "jens": 39494,
  "jer": 17349,
  "jeres": 26573,
  "jerk": 37526,
  "jeron": 44487,
  "jes": 39220,
  "jesse": 23975,
  "jet": 9725,
  "jets": 49849,
  "jew": 40537,
  "jewish": 49077,
  "jh": 49284,
  "ji": 8833,
  "jia": 35771,
  "jian": 29763,
  "jiang": 11205,
  "jie": 48023,
  "jiji": 40180,
  "jik": 19213,
  "jim": 38954,
  "jima": 47758,
  "jin": 18474,
  "jing": 24551,
  "jis": 42415,
  "jit": 37689,
  "jj": 16320,
  "jk": 23714,
  "jm": 29514,
  "jn": 28808,
  "jo": 2774,
  "job": 25081,
  "jobs": 37267,
  "joe": 28200,
  "john": 23629,
  "johns": 24260,
  "johnson": 25676,
  "join": 18220,
  "joint": 45325,
  "jon": 30451,
  "jones": 14988,
  "joo": 47721,
  "jor": 12518,
  "jordan": 48955,
  "jorie": 38707,
  "jos": 30013,
  "jour": 16752,
  "jourd": 40506,
  "journal": 23843,
  "joy": 16596,
  "jp": 25649,
  "jpg": 14758,
  "jpm": 44931,
  "jpmorgan": 47479,
  "jpy": 33801,
  "jr": 41762,
  "jri": 37005,
  "jriwal": 38466,
  "js": 13454,
  "jsmd": 35353,
  "jt": 46011,
  "ju": 11838,
  "jud": 13004,
  "judge": 36550,
  "judicial": 33376,
  "jul": 25373,
  "july": 15630,
  "jun": 18262,
  "june": 11649,
  "just": 1509,
  "justed": 10708,
  "justice": 29314,
  "juven": 30270,
  "jv": 46530,
  "jy": 48954,
  "jÃł": 33135,
  "jÄħ": 48344,
  "k": 75,
  "ka": 5805,
  "kah": 46284,
  "kaido": 31302,
  "kaiser": 35810,
  "kaiserpermanente": 37720,
  "kal": 19858,
  "kam": 47759,
  "kamp": 46283,
  "kan": 15767,
  "kap": 40020,
  "kar": 11593,
  "karabakh": 47882,
  "karan": 49328,
  "kari": 38648,
  "kart": 33854,
  "kas": 36836,
  "kat": 21564,
  "kata": 28329,
  "kate": 50226,
  "kay": 42266,
  "kaya": 43043,
  "kaz": 26566,
  "kazis": 34091,
  "kb": 49081,
  "ke": 400,
  "ked": 1462,
  "kee": 12472,
  "keep": 10712,
  "keeper": 13965,
  "keepers": 23577,
  "keeping": 17036,
  "keepitsur": 46684,
  "keepitsurreal": 46705,
  "kees": 19802,
  "kef": 24638,
  "kei": 11559,
  "keit": 26352,
  "kel": 6334,
  "kele": 15538,
  "keletal": 18784,
  "keley": 14490,
  "kell": 34875,
  "kels": 44720,
  "kelson": 41951,
  "kem": 33582,
  "kema": 36536,
  "ken": 4907,
  "kenny": 48856,
  "kens": 45949,
  "kent": 49634,
  "kenya": 47594,
  "ker": 4455,
  "kered": 25944,
  "kering": 41480,
  "kers": 10296,
  "kes": 5795,
  "ket": 489,
  "kets": 4822,
  "kett": 17779,
  "kevin": 47101,
  "kex": 34121,
  "key": 3598,
  "keye": 45394,
  "keys": 18096,
  "kg": 14746,
  "kh": 12461,
  "ki": 6122,
  "kick": 37281,
  "kid": 43634,
  "kids": 32149,
  "kie": 38884,
  "kil": 21683,
  "kill": 24962,
  "killed": 41177,
  "killer": 46643,
  "killing": 26783,
  "kilomet": 39682,
  "kilometer": 39900,
  "kilometre": 41660,
  "kim": 31960,
  "kin": 8391,
  "kind": 12570,
  "kinelmer": 42798,
  "king": 1565,
  "kings": 24002,
  "kins": 5172,
  "kinson": 22702,
  "kir": 40788,
  "kish": 8988,
  "kit": 17488,
  "kits": 48346,
  "kiy": 38252,
  "kj": 36884,
  "kk": 15534,
  "kl": 12859,
  "kline": 15952,
  "klm": 29033,
  "klury": 24480,
  "km": 9648,
  "kn": 2875,
  "kng": 42047,
  "knit": 37460,
  "know": 4146,
  "known": 5023,
  "ko": 7205,
  "kok": 15163,
  "kol": 42578,
  "kola": 48957,
  "kom": 18624,
  "kon": 26054,
  "kong": 28399,
  "kor": 37090,
  "kore": 27852,
  "korea": 38440,
  "korean": 46633,
  "korn": 46068,
  "kos": 29244,
  "kov": 17840,
  "kova": 40546,
  "kowski": 23844,
  "kp": 48956,
  "kpmg": 35597,
  "kr": 12432,
  "kre": 47090,
  "ks": 476,
  "ksen": 31251,
  "ksh": 30530,
  "kshire": 9295,
  "kson": 43446,
  "ksw": 14281,
  "kswagen": 14549,
  "kt": 15601,
  "kte": 45133,
  "ku": 13017,
  "kumar": 41219,
  "kun": 49635,
  "kus": 44531,
  "kv": 48345,
  "kw": 34788,
  "ky": 2965,
  "kyo": 4293,
  "l": 76,
  "la": 2778,
  "lab": 9699,
  "label": 15887,
  "labor": 31521,
  "labour": 47262,
  "labs": 31489,
  "lace": 28088,
  "lach": 44267,
  "lad": 9199,
  "laden": 28634,
  "lag": 39172,
  "lage": 46644,
  "lago": 36222,
  "lah": 10416,
  "lahoma": 10873,
  "laid": 31138,
  "laim": 6250,
  "lain": 29603,
  "lake": 25218,
  "lam": 6451,
  "lamp": 42666,
  "lan": 8996,
  "lana": 45622,
  "lance": 19371,
  "lancet": 9650,
  "land": 1224,
  "lander": 32631,
  "lando": 12482,
  "lands": 4639,
  "lane": 26661,
  "lang": 39826,
  "langu": 19670,
  "language": 19834,
  "lanivimab": 30072,
  "lant": 39983,
  "lap": 48347,
  "lar": 24504,
  "larg": 8909,
  "large": 9787,
  "largest": 9411,
  "las": 17606,
  "lash": 11681,
  "lass": 10860,
  "last": 10818,
  "lasting": 15575,
  "lat": 15590,
  "late": 9186,
  "later": 47760,
  "latest": 35721,
  "latin": 38405,
  "lation": 14409,
  "lau": 39729,
  "laughter": 32564,
  "launch": 36489,
  "launched": 39085,
  "laundering": 49810,
  "laura": 24844,
  "lav": 31007,
  "law": 7286,
  "laws": 21417,
  "lay": 11617,
  "layer": 20237,
  "layered": 43768,
  "laying": 37472,
  "layout": 24536,
  "lays": 32421,
  "lb": 17668,
  "lc": 29888,
  "ld": 374,
  "ldate": 42119,
  "ldorf": 35876,
  "ldt": 49091,
  "le": 310,
  "lea": 37981,
  "lead": 12277,
  "leader": 27868,
  "leaders": 29480,
  "leading": 6865,
  "leaf": 39260,
  "league": 16869,
  "leaguered": 26050,
  "lean": 18303,
  "leaning": 19767,
  "leans": 13150,
  "lear": 3878,
  "learn": 35026,
  "learning": 15650,
  "leary": 31749,
  "lease": 1160,
  "leave": 45505,
  "leb": 15346,
  "leban": 44231,
  "lebaut": 47739,
  "lec": 35563,
  "leck": 46590,
  "lect": 728,
  "lection": 10534,
  "led": 1055,
  "ledge": 3566,
  "ledged": 32925,
  "ledo": 42039,
  "ledon": 26496,
  "lee": 13988,
  "leen": 22303,
  "leep": 27229,
  "lees": 36474,
  "left": 18012,
  "leg": 3469,
  "legal": 23292,
  "legend": 47590,
  "legged": 45277,
  "lehem": 39261,
  "lei": 39386,
  "leigh": 22935,
  "lein": 35155,
  "leine": 43304,
  "leisure": 36676,
  "lek": 46122,
  "lellan": 36705,
  "lem": 15611,
  "lement": 1907,
  "lements": 13578,
  "len": 13526,
  "lending": 41806,
  "lene": 37832,
  "lenec": 12307,
  "length": 10437,
  "leo": 27428,
  "leod": 41768,
  "ler": 1830,
  "lers": 11266,
  "les": 911,
  "less": 1653,
  "lessly": 9181,
  "lessness": 19743,
  "let": 2297,
  "leta": 28899,
  "lete": 10046,
  "letes": 32040,
  "leton": 19867,
  "letons": 49459,
  "lets": 5278,
  "lett": 6571,
  "letta": 37114,
  "lette": 22195,
  "letter": 4353,
  "letters": 7803,
  "leukin": 29467,
  "leum": 7547,
  "lev": 16695,
  "level": 5936,
  "levels": 38126,
  "lever": 42544,
  "levue": 42942,
  "lewood": 43937,
  "lex": 2500,
  "ley": 2346,
  "lez": 19384,
  "lf": 2233,
  "lg": 47019,
  "lgbt": 39104,
  "li": 675,
  "lia": 4341,
  "liable": 23711,
  "liament": 4676,
  "lian": 20210,
  "liance": 4403,
  "liang": 35402,
  "liant": 13060,
  "lib": 14632,
  "liberal": 42887,
  "library": 29952,
  "lic": 615,
  "lications": 41990,
  "licens": 38558,
  "license": 46024,
  "licensed": 33097,
  "licensing": 42811,
  "lich": 16158,
  "liche": 29983,
  "lichen": 29133,
  "licher": 50029,
  "licity": 23467,
  "lick": 10665,
  "licked": 38535,
  "lict": 46483,
  "licted": 44046,
  "lie": 7867,
  "lieb": 14826,
  "lied": 3636,
  "lien": 37569,
  "lient": 37353,
  "lier": 1710,
  "liers": 4380,
  "lies": 3289,
  "liest": 9502,
  "lif": 8575,
  "life": 5830,
  "lifetime": 35987,
  "lift": 18429,
  "lifted": 41349,
  "lifting": 16071,
  "lifts": 39448,
  "lig": 12822,
  "liga": 26586,
  "light": 6522,
  "lighted": 42537,
  "lighting": 46564,
  "lights": 23139,
  "lihood": 6095,
  "liion": 48363,
  "lij": 34429,
  "lijke": 43036,
  "lik": 23135,
  "lika": 43153,
  "like": 3069,
  "likely": 49599,
  "lim": 3033,
  "limab": 26776,
  "lime": 50086,
  "limited": 6047,
  "limits": 39240,
  "lin": 3359,
  "linary": 14610,
  "lind": 24030,
  "linder": 36013,
  "line": 915,
  "linear": 33530,
  "lined": 5222,
  "liner": 18751,
  "liners": 25101,
  "lines": 2603,
  "liness": 22235,
  "ling": 1181,
  "linger": 27399,
  "lings": 14476,
  "lington": 17156,
  "lining": 12075,
  "link": 6102,
  "linked": 12534,
  "linkedin": 33622,
  "linker": 8806,
  "linson": 45024,
  "lio": 22504,
  "lion": 50085,
  "lip": 40750,
  "lipped": 47222,
  "liqu": 29119,
  "lique": 24278,
  "lis": 6706,
  "lish": 2225,
  "lished": 1755,
  "lishes": 25713,
  "lisle": 41346,
  "list": 10593,
  "listed": 10462,
  "listing": 32031,
  "lists": 14116,
  "lit": 17921,
  "lite": 35064,
  "liter": 38038,
  "litz": 21992,
  "liu": 39951,
  "liv": 41661,
  "live": 15799,
  "lived": 13409,
  "liver": 11384,
  "lives": 38649,
  "living": 21163,
  "lix": 6051,
  "liÄį": 28149,
  "lk": 39982,
  "ll": 549,
  "lla": 16370,
  "llable": 34174,
  "llan": 23793,
  "lle": 13788,
  "lled": 4171,
  "ller": 10001,
  "llers": 8005,
  "lli": 19185,
  "lling": 5068,
  "llo": 27282,
  "llor": 8162,
  "lls": 44890,
  "lm": 45950,
  "ln": 35751,
  "lo": 376,
  "load": 3035,
  "loaded": 19846,
  "loading": 21662,
  "loads": 10321,
  "loan": 26941,
  "loat": 13279,
  "lob": 731,
  "lobal": 40893,
  "loc": 3383,
  "local": 20606,
  "located": 19785,
  "location": 17690,
  "locations": 36425,
  "locene": 46378,
  "lock": 5031,
  "lockdown": 12488,
  "locked": 26856,
  "locks": 20340,
  "locross": 36014,
  "lod": 20511,
  "lodge": 47744,
  "lody": 21010,
  "lodyne": 26997,
  "loe": 26078,
  "lof": 43097,
  "loff": 12810,
  "log": 4054,
  "logen": 34831,
  "logg": 26029,
  "logic": 26160,
  "logix": 48923,
  "logold": 43913,
  "logos": 39087,
  "loh": 36227,
  "loid": 17436,
  "lok": 44429,
  "lon": 8493,
  "london": 15250,
  "long": 5082,
  "loo": 28071,
  "look": 1492,
  "looking": 2048,
  "looks": 20006,
  "loon": 48532,
  "loop": 21080,
  "loor": 38965,
  "lop": 839,
  "lope": 43358,
  "loph": 29248,
  "lopp": 27581,
  "lops": 31512,
  "lor": 4378,
  "lord": 9038,
  "lore": 29451,
  "lorette": 38682,
  "loroqu": 8264,
  "loroquine": 8314,
  "los": 2434,
  "lose": 9851,
  "losed": 12913,
  "losi": 8729,
  "losing": 40770,
  "losion": 48438,
  "loss": 14598,
  "losses": 35034,
  "lost": 46124,
  "lot": 23634,
  "lou": 24422,
  "loud": 27804,
  "louis": 37657,
  "lov": 28347,
  "love": 30324,
  "loved": 14055,
  "lovid": 23493,
  "loving": 39991,
  "low": 667,
  "lower": 18240,
  "lox": 24157,
  "loy": 815,
  "loyal": 47779,
  "loyd": 6254,
  "loyds": 23978,
  "loÃ©": 49439,
  "lp": 819,
  "lpa": 41446,
  "lpool": 39659,
  "lr": 16266,
  "ls": 2800,
  "lsen": 29113,
  "lson": 10182,
  "lt": 14696,
  "ltim": 30602,
  "lu": 8984,
  "luc": 30412,
  "luck": 49148,
  "lud": 617,
  "lude": 23535,
  "luded": 28024,
  "ludes": 38685,
  "ludge": 47981,
  "luding": 14914,
  "luence": 29591,
  "luent": 18603,
  "lund": 36616,
  "lung": 29924,
  "lus": 30199,
  "lusconi": 42711,
  "lux": 24768,
  "luxottica": 42531,
  "luxury": 42352,
  "lv": 21511,
  "lx": 41256,
  "ly": 313,
  "lying": 2744,
  "lymp": 3964,
  "lyn": 7907,
  "lynn": 29590,
  "lys": 28363,
  "lytic": 46768,
  "lywood": 24358,
  "lÃ¨": 24048,
  "lÃ©": 11630,
  "lÃ©ment": 50141,
  "m": 77,
  "ma": 2974,
  "mab": 28400,
  "mac": 21650,
  "mach": 30378,
  "machine": 35728,
  "mad": 15137,
  "made": 11117,
  "maet": 41233,
  "mag": 16622,
  "magazine": 28470,
  "mah": 41094,
  "mai": 44820,
  "maid": 37849,
  "maier": 43524,
  "mail": 8780,
  "mails": 39560,
  "main": 23195,
  "maine": 44532,
  "maj": 48177,
  "major": 19705,
  "majority": 29683,
  "make": 35311,
  "maker": 6682,
  "makers": 3500,
  "making": 6244,
  "mal": 5656,
  "malaria": 44905,
  "malarial": 47312,
  "malays": 39204,
  "malaysia": 43738,
  "male": 39691,
  "mall": 31935,
  "man": 1171,
  "managed": 21300,
  "management": 11316,
  "manager": 29930,
  "managing": 42430,
  "manc": 42990,
  "manchester": 48084,
  "mand": 16611,
  "mandated": 28204,
  "mandu": 37496,
  "mani": 28008,
  "mania": 20987,
  "mann": 8410,
  "mans": 16762,
  "manship": 25953,
  "mant": 14249,
  "manuel": 11861,
  "manufact": 22819,
  "manufacturing": 28495,
  "manus": 48908,
  "many": 20268,
  "mao": 41640,
  "map": 11318,
  "maps": 38583,
  "mar": 1519,
  "marc": 36418,
  "march": 7906,
  "marg": 19914,
  "margin": 21791,
  "marie": 36199,
  "mark": 3448,
  "marked": 15314,
  "market": 2958,
  "marketanalytics": 36114,
  "marketing": 32353,
  "marketreport": 20219,
  "marketresearch": 11757,
  "markets": 6283,
  "marketwatch": 47514,
  "marking": 17582,
  "marks": 11051,
  "markupid": 35368,
  "married": 47787,
  "mars": 34951,
  "mart": 5865,
  "martin": 36873,
  "mary": 39495,
  "mas": 4458,
  "mask": 20579,
  "masks": 25550,
  "mass": 21168,
  "master": 19717,
  "masters": 46285,
  "mat": 6142,
  "matarise": 45652,
  "match": 22895,
  "matched": 24475,
  "mate": 11372,
  "material": 44533,
  "mates": 7931,
  "math": 11295,
  "matic": 12527,
  "matics": 24449,
  "matt": 44590,
  "matter": 35539,
  "maturity": 49894,
  "maty": 48449,
  "maud": 30581,
  "max": 19075,
  "may": 8953,
  "mb": 2619,
  "mbar": 47248,
  "mber": 1289,
  "mbio": 31631,
  "mbps": 38121,
  "mbre": 25359,
  "mbtu": 16023,
  "mc": 6846,
  "mca": 29116,
  "mcdonald": 47315,
  "mcf": 23046,
  "md": 14125,
  "me": 1508,
  "meal": 24984,
  "mean": 36952,
  "meaning": 36393,
  "means": 47584,
  "meanwhile": 49348,
  "meas": 15090,
  "measure": 38095,
  "measures": 20352,
  "meat": 39232,
  "mectin": 22179,
  "med": 1046,
  "medi": 2507,
  "media": 9722,
  "mediaroom": 31445,
  "mediated": 17924,
  "medic": 34016,
  "medical": 18197,
  "medicine": 10323,
  "medium": 31926,
  "medrxiv": 20428,
  "meet": 33329,
  "meeting": 22748,
  "meg": 43219,
  "meh": 48984,
  "meida": 35859,
  "meier": 30346,
  "mel": 14951,
  "mem": 35944,
  "member": 16328,
  "members": 32172,
  "men": 5909,
  "ment": 343,
  "mental": 7357,
  "mentation": 14284,
  "mente": 9940,
  "mented": 8151,
  "mentioned": 15443,
  "mento": 15940,
  "ments": 582,
  "mer": 2743,
  "mera": 43522,
  "merck": 34536,
  "mere": 38792,
  "meric": 35499,
  "mers": 14510,
  "mes": 4325,
  "mess": 26445,
  "messaging": 37970,
  "met": 4998,
  "metal": 40079,
  "metall": 41927,
  "metals": 32288,
  "meter": 22646,
  "method": 27783,
  "methyl": 48857,
  "metic": 45919,
  "metre": 19579,
  "metric": 34839,
  "metry": 29772,
  "mett": 32666,
  "mex": 11141,
  "mexico": 17943,
  "meyer": 38063,
  "mez": 43315,
  "mf": 46404,
  "mg": 19776,
  "mh": 10580,
  "mi": 5193,
  "mia": 17247,
  "miami": 46531,
  "mias": 42391,
  "mic": 2236,
  "mica": 44451,
  "mich": 41178,
  "michael": 28286,
  "michel": 42085,
  "micon": 6818,
  "miconduct": 6831,
  "micro": 17387,
  "microgram": 49687,
  "micron": 2836,
  "microsoft": 24281,
  "mid": 11006,
  "middle": 19662,
  "midt": 19600,
  "might": 49775,
  "migr": 21479,
  "migrant": 47952,
  "mike": 44268,
  "mil": 20111,
  "mile": 12784,
  "miliard": 46532,
  "military": 40869,
  "milk": 47887,
  "mill": 19683,
  "millan": 46002,
  "miller": 24300,
  "million": 11713,
  "millions": 38920,
  "mills": 36761,
  "min": 1192,
  "mind": 13268,
  "minded": 16367,
  "mine": 9928,
  "minent": 6402,
  "mines": 23340,
  "ming": 2867,
  "mingham": 14298,
  "mington": 22886,
  "mini": 22248,
  "mining": 32542,
  "minis": 32077,
  "minister": 36457,
  "mins": 22848,
  "minster": 17975,
  "minute": 7281,
  "mir": 16878,
  "mire": 48271,
  "mis": 32887,
  "mish": 49033,
  "miss": 5194,
  "missible": 31022,
  "mission": 2499,
  "missions": 13019,
  "mit": 2253,
  "mite": 44819,
  "mith": 25556,
  "mitted": 3531,
  "mix": 25417,
  "mk": 34627,
  "mkt": 38008,
  "ml": 5381,
  "mlb": 35614,
  "mm": 12438,
  "mmbtu": 17434,
  "mmwr": 44752,
  "mn": 13948,
  "mo": 4518,
  "moat": 36310,
  "mobil": 20397,
  "mobile": 9688,
  "mobilepinnedplayer": 30652,
  "mobileweb": 43540,
  "mobilewebfloatingplayer": 43575,
  "mobility": 33696,
  "mod": 9705,
  "modal": 29169,
  "model": 30152,
  "moderate": 28976,
  "modern": 39600,
  "moderna": 23705,
  "mog": 43299,
  "moil": 11653,
  "mol": 23286,
  "mole": 30849,
  "mom": 37151,
  "moment": 46166,
  "mon": 2425,
  "monary": 11400,
  "mond": 8072,
  "monds": 28444,
  "money": 17256,
  "mong": 32994,
  "mongering": 41758,
  "monitor": 25854,
  "monitoring": 30860,
  "monkey": 50121,
  "mons": 35179,
  "mont": 9602,
  "month": 3844,
  "months": 26312,
  "monton": 25667,
  "mood": 28766,
  "moodys": 36882,
  "moon": 32510,
  "moore": 36900,
  "mor": 15645,
  "morbid": 34987,
  "morbidities": 42260,
  "more": 4654,
  "moreover": 38601,
  "morgan": 47408,
  "morning": 27493,
  "mort": 11870,
  "mortar": 14320,
  "mortem": 38706,
  "mortgage": 46344,
  "mos": 19788,
  "most": 2049,
  "mot": 18811,
  "mother": 15143,
  "motion": 43031,
  "motor": 49137,
  "mott": 34598,
  "mount": 21837,
  "mountable": 34569,
  "mountain": 49342,
  "mounted": 42952,
  "mour": 49214,
  "mouth": 18324,
  "mov": 16324,
  "move": 26347,
  "moving": 18251,
  "mp": 3001,
  "mph": 10388,
  "mpt": 1591,
  "mr": 11669,
  "mrc": 26766,
  "mrna": 49614,
  "ms": 1328,
  "msley": 47180,
  "msnrt": 23648,
  "mson": 45153,
  "mt": 8602,
  "mu": 26833,
  "much": 36073,
  "mul": 41433,
  "mult": 26625,
  "mumbai": 35849,
  "mun": 16980,
  "mund": 16722,
  "mur": 30603,
  "mus": 16639,
  "muslim": 35228,
  "mussen": 33406,
  "must": 46069,
  "mut": 21857,
  "mute": 26834,
  "muted": 42451,
  "muteplayer": 35380,
  "mv": 47552,
  "mw": 27183,
  "mx": 39221,
  "my": 8065,
  "myan": 44088,
  "myanmar": 46469,
  "myers": 36634,
  "myr": 33506,
  "mÃ¶": 45025,
  "n": 78,
  "na": 1639,
  "naec": 43959,
  "nage": 28966,
  "nah": 29172,
  "nai": 24689,
  "nail": 37479,
  "naiste": 45155,
  "nal": 1385,
  "nale": 36821,
  "nals": 18899,
  "nam": 5980,
  "namara": 41887,
  "name": 14538,
  "named": 25263,
  "names": 19928,
  "namese": 21339,
  "namo": 50132,
  "namon": 46562,
  "nan": 10729,
  "nap": 38955,
  "nar": 19504,
  "nard": 31831,
  "nas": 16224,
  "nasa": 38203,
  "nat": 10746,
  "natal": 33300,
  "nath": 35312,
  "nathan": 43987,
  "nation": 14395,
  "national": 12803,
  "native": 23458,
  "natural": 34562,
  "nature": 20103,
  "naty": 33336,
  "nau": 39924,
  "nav": 28401,
  "naz": 43782,
  "nb": 22201,
  "nba": 22667,
  "nbc": 21024,
  "nc": 11278,
  "ncias": 41872,
  "ncov": 15112,
  "nd": 7715,
  "ne": 840,
  "nea": 23887,
  "neal": 39841,
  "neapolis": 10427,
  "nearly": 30604,
  "neath": 24749,
  "neau": 28075,
  "neb": 44602,
  "nec": 36527,
  "neck": 31101,
  "nect": 18955,
  "ned": 1294,
  "nedy": 12117,
  "need": 26710,
  "needed": 13656,
  "needle": 42211,
  "nef": 39840,
  "neft": 31204,
  "neg": 10512,
  "negative": 20041,
  "negie": 26859,
  "negoti": 18254,
  "neh": 25345,
  "nehmen": 30239,
  "neil": 35880,
  "neill": 27659,
  "nej": 33950,
  "nel": 4499,
  "nell": 15973,
  "nelle": 41789,
  "nelly": 27986,
  "nels": 23587,
  "nem": 32553,
  "nement": 35101,
  "nemouth": 37478,
  "nen": 25941,
  "nent": 49558,
  "neo": 36484,
  "nep": 32712,
  "ner": 1260,
  "nerable": 46774,
  "nered": 9087,
  "nering": 11505,
  "nero": 31052,
  "ners": 1621,
  "nery": 39314,
  "nes": 1507,
  "nesday": 1865,
  "nesia": 48595,
  "nesota": 9981,
  "ness": 1472,
  "nessy": 33569,
  "net": 3179,
  "netflix": 38730,
  "neth": 17328,
  "netic": 39010,
  "nets": 49776,
  "nett": 12501,
  "nette": 36797,
  "network": 28850,
  "neu": 46973,
  "neum": 7632,
  "neuro": 49794,
  "neut": 16429,
  "neutral": 17337,
  "neutralizing": 44129,
  "nev": 41272,
  "neva": 29024,
  "never": 37161,
  "new": 1772,
  "news": 3559,
  "newsfile": 48551,
  "newsfilecorp": 48829,
  "newsletter": 45531,
  "newsroom": 37331,
  "newsw": 47298,
  "newswire": 10604,
  "newyork": 13197,
  "newyorker": 13291,
  "nex": 21488,
  "nexis": 41292,
  "next": 12944,
  "ney": 2102,
  "neys": 9510,
  "nez": 27860,
  "nf": 34870,
  "nfl": 36617,
  "ng": 3961,
  "nh": 21890,
  "nhs": 34924,
  "ni": 10107,
  "nia": 15216,
  "nian": 48089,
  "nic": 5394,
  "nice": 25019,
  "nick": 21193,
  "nie": 15068,
  "nier": 22806,
  "nig": 37377,
  "nigeria": 46167,
  "night": 5148,
  "nih": 37588,
  "nik": 11830,
  "nike": 49777,
  "nikov": 45339,
  "nil": 46956,
  "nine": 26011,
  "ning": 795,
  "nings": 1548,
  "nis": 7241,
  "niss": 38410,
  "nit": 43044,
  "nite": 29486,
  "nity": 15747,
  "nius": 47689,
  "nix": 45191,
  "nj": 15569,
  "njhj": 48253,
  "njhjql": 48270,
  "nk": 34446,
  "nl": 19795,
  "nm": 26169,
  "nn": 13562,
  "no": 4220,
  "nob": 15987,
  "nobiety": 17322,
  "node": 45777,
  "nology": 8404,
  "nom": 24655,
  "nominated": 40669,
  "non": 12590,
  "none": 37626,
  "nor": 19806,
  "nord": 36788,
  "norm": 11356,
  "normal": 14575,
  "nort": 37797,
  "north": 17064,
  "norway": 47141,
  "nos": 28898,
  "not": 9034,
  "notably": 41749,
  "notch": 39021,
  "note": 14385,
  "notes": 22321,
  "nothing": 44019,
  "nots": 46117,
  "nour": 38409,
  "nourished": 43239,
  "nov": 2037,
  "nova": 31804,
  "novavax": 37991,
  "nove": 22476,
  "novel": 40199,
  "november": 22682,
  "now": 12473,
  "noy": 37784,
  "np": 24941,
  "nr": 24665,
  "nreports": 47348,
  "nrt": 23344,
  "ns": 1018,
  "nsw": 49102,
  "nsylv": 7424,
  "nt": 14143,
  "ntr": 24467,
  "nu": 27223,
  "nual": 42416,
  "nucle": 46172,
  "num": 38921,
  "number": 34140,
  "nup": 16417,
  "nupiravir": 16621,
  "nur": 47409,
  "nurs": 43346,
  "nus": 38885,
  "nut": 14760,
  "nutr": 18815,
  "nutrition": 19244,
  "nuts": 41662,
  "nv": 17317,
  "nx": 36672,
  "ny": 4265,
  "nya": 36074,
  "nyc": 36429,
  "nych": 50192,
  "nytimes": 35861,
  "nz": 30989,
  "nÃ©": 35354,
  "nÃŃ": 24674,
  "nÄĽ": 48272,
  "o": 79,
  "oa": 17019,
  "oak": 45951,
  "oas": 28754,
  "ob": 2712,
  "oba": 21410,
  "obank": 28682,
  "obao": 40849,
  "obe": 14135,
  "ober": 2716,
  "obi": 24083,
  "obia": 37551,
  "obic": 30799,
  "obil": 15518,
  "obile": 7679,
  "obiles": 20294,
  "obility": 23675,
  "obj": 10177,
  "object": 22232,
  "oblast": 35024,
  "obre": 30913,
  "obs": 12410,
  "observ": 40448,
  "observable": 47619,
  "obsessed": 43872,
  "obu": 43459,
  "oc": 409,
  "oca": 14748,
  "ocal": 37906,
  "ocaly": 21612,
  "ocan": 50167,
  "ocaps": 27579,
  "ocapsid": 27694,
  "ocard": 14487,
  "ocardi": 49685,
  "ocas": 45963,
  "ocation": 16627,
  "ocaust": 20633,
  "occ": 15516,
  "occup": 19452,
  "occupied": 27425,
  "occur": 44279,
  "occus": 37582,
  "oce": 14675,
  "ocean": 15465,
  "ocene": 48715,
  "ocese": 40026,
  "och": 11071,
  "ocha": 32550,
  "oche": 37943,
  "ochem": 28034,
  "ochemical": 45666,
  "ochet": 46903,
  "ochlor": 49260,
  "ochond": 40446,
  "oci": 1576,
  "ocial": 12536,
  "ock": 726,
  "ocking": 25231,
  "ocks": 1505,
  "oco": 21740,
  "ococ": 29453,
  "ococcal": 30106,
  "ocol": 9103,
  "ocollection": 15041,
  "ocomp": 14877,
  "ocon": 12450,
  "ocortic": 45307,
  "ocr": 1736,
  "ocracy": 36869,
  "ocratic": 30056,
  "ocrats": 49734,
  "ocre": 45899,
  "ocs": 32021,
  "oct": 17038,
  "october": 23194,
  "ocular": 49713,
  "ocup": 35603,
  "ocur": 8727,
  "ocure": 42222,
  "ocus": 1353,
  "ocy": 11779,
  "ocyt": 48750,
  "ocyte": 23497,
  "ocytes": 27451,
  "ocytic": 44022,
  "ocytop": 27309,
  "od": 466,
  "oda": 20856,
  "odal": 42549,
  "oday": 19609,
  "odd": 31626,
  "ode": 5219,
  "oded": 16295,
  "odemic": 42771,
  "oder": 49302,
  "odes": 8781,
  "odesk": 46096,
  "odi": 35528,
  "odia": 46302,
  "odied": 27286,
  "odies": 3444,
  "oding": 17411,
  "odo": 12924,
  "odont": 41524,
  "odor": 38556,
  "odox": 17877,
  "ods": 39653,
  "odus": 19144,
  "ody": 1652,
  "odymyr": 34508,
  "odyn": 32039,
  "odynam": 31155,
  "odynamic": 39904,
  "oe": 16888,
  "oebe": 40369,
  "oecd": 39416,
  "oen": 11996,
  "oenix": 13214,
  "oes": 47761,
  "of": 2238,
  "ofag": 33637,
  "ofagasta": 33912,
  "ofer": 28817,
  "off": 2589,
  "offer": 39552,
  "offic": 32954,
  "office": 14774,
  "official": 19158,
  "offs": 5994,
  "ofi": 8640,
  "oft": 14242,
  "often": 42940,
  "og": 548,
  "oga": 11332,
  "ogan": 39077,
  "ogas": 41674,
  "ogen": 5628,
  "ogene": 17867,
  "ogenetics": 48743,
  "ogenic": 10180,
  "ogenicity": 13157,
  "ogenous": 27420,
  "ogens": 11634,
  "ogether": 10072,
  "oggi": 23204,
  "ogh": 37803,
  "ogi": 36130,
  "ogic": 43400,
  "ogical": 43212,
  "ogle": 1976,
  "oglob": 19200,
  "oglobin": 31597,
  "oglu": 28386,
  "ogly": 49650,
  "ogn": 2421,
  "ogne": 38045,
  "ogo": 23310,
  "ogp": 50027,
  "ogr": 20458,
  "ogram": 21688,
  "ograms": 24537,
  "ograp": 2596,
  "ograph": 20435,
  "ographed": 46843,
  "ographer": 30844,
  "ographers": 46984,
  "ographic": 15914,
  "ographical": 43826,
  "ographics": 33899,
  "ography": 12094,
  "ogue": 7512,
  "ogues": 40634,
  "ogy": 24334,
  "ogyn": 35475,
  "oh": 8745,
  "ohama": 22423,
  "ohan": 30624,
  "ohchr": 34918,
  "ohio": 47733,
  "ohn": 40167,
  "ohoo": 22888,
  "oi": 29269,
  "oia": 27563,
  "oid": 2201,
  "oids": 12762,
  "oil": 9449,
  "oir": 12466,
  "oire": 29865,
  "ois": 13839,
  "oise": 17505,
  "oiseach": 21375,
  "ok": 567,
  "oka": 14544,
  "oke": 3975,
  "oked": 7625,
  "oken": 16285,
  "oker": 19931,
  "okes": 13230,
  "oki": 44151,
  "okil": 44833,
  "oking": 8595,
  "oko": 20328,
  "okovic": 11037,
  "oks": 2927,
  "oku": 28060,
  "ol": 329,
  "ola": 4683,
  "olab": 40415,
  "olan": 18475,
  "olar": 17817,
  "olas": 11344,
  "old": 674,
  "olded": 44051,
  "older": 43353,
  "olders": 23093,
  "olding": 43599,
  "olds": 9564,
  "ole": 8110,
  "olean": 48612,
  "oles": 4892,
  "olescence": 46674,
  "olese": 37727,
  "olf": 6275,
  "oli": 13524,
  "olia": 19607,
  "olic": 7023,
  "olicited": 28127,
  "olics": 34851,
  "olid": 2829,
  "olin": 24584,
  "olina": 41183,
  "oline": 8208,
  "olini": 40383,
  "olins": 27947,
  "olinska": 49022,
  "olis": 25240,
  "olism": 21057,
  "olit": 7566,
  "olitan": 10115,
  "olith": 32697,
  "olitics": 17642,
  "olitinib": 36267,
  "oliv": 40222,
  "olizumab": 35895,
  "olk": 37061,
  "oll": 1973,
  "olla": 28815,
  "ollah": 19556,
  "ollar": 9524,
  "ollect": 37062,
  "ollen": 31478,
  "olls": 39432,
  "olly": 9148,
  "olo": 13994,
  "olog": 769,
  "ologic": 16378,
  "ological": 3854,
  "ologically": 18569,
  "ologie": 42961,
  "ologies": 12496,
  "ologist": 5929,
  "ologists": 8250,
  "ologous": 19139,
  "ology": 2521,
  "olon": 43093,
  "olph": 32622,
  "ols": 2129,
  "olson": 7585,
  "olsonaro": 8876,
  "olt": 48645,
  "olta": 26824,
  "olu": 49038,
  "olulu": 38960,
  "olute": 4823,
  "olution": 3553,
  "olutions": 32916,
  "olved": 15490,
  "oly": 13162,
  "olymp": 39905,
  "olÃ³g": 39035,
  "om": 304,
  "oma": 6029,
  "oman": 24515,
  "omas": 23636,
  "omatic": 4331,
  "omavirus": 45086,
  "omayor": 41053,
  "omb": 4712,
  "omberg": 16441,
  "ombo": 30032,
  "ome": 453,
  "omed": 7624,
  "omeday": 32722,
  "omeito": 49863,
  "omer": 18886,
  "omers": 47228,
  "omes": 4413,
  "omet": 1613,
  "ometer": 10256,
  "ometers": 20818,
  "ometric": 44105,
  "ometry": 33120,
  "ometyx": 29956,
  "omey": 31474,
  "omez": 27636,
  "omi": 13668,
  "omial": 38311,
  "omic": 10265,
  "omicron": 30445,
  "omics": 12308,
  "omide": 42170,
  "omin": 9122,
  "ominated": 15196,
  "omination": 50236,
  "oming": 3175,
  "omm": 1986,
  "ommen": 43961,
  "ommission": 21926,
  "ommod": 6117,
  "ommy": 44787,
  "omnia": 30666,
  "omo": 5607,
  "omod": 34096,
  "omon": 16626,
  "omp": 4976,
  "ompanied": 23861,
  "ompoc": 46043,
  "oms": 1702,
  "omson": 10008,
  "omy": 12710,
  "on": 263,
  "ona": 4178,
  "onado": 40591,
  "onal": 21939,
  "onaut": 11819,
  "onav": 645,
  "onavir": 25627,
  "onavirus": 650,
  "onc": 15827,
  "once": 31693,
  "onces": 45359,
  "oncology": 28990,
  "oncvpvisibilitychange": 43547,
  "oncÃ©": 28818,
  "ond": 897,
  "onda": 25814,
  "onde": 17987,
  "onder": 21003,
  "ondo": 20004,
  "ondon": 2695,
  "onds": 47780,
  "one": 692,
  "oned": 11033,
  "oneer": 34766,
  "oneg": 35477,
  "onegative": 36615,
  "ones": 2079,
  "onese": 49592,
  "onet": 49287,
  "onews": 16565,
  "onext": 16997,
  "onexttimeout": 27313,
  "onextvideo": 43549,
  "oney": 7008,
  "onflash": 43492,
  "ong": 518,
  "onga": 40633,
  "onged": 27880,
  "ongo": 18571,
  "ongs": 34994,
  "ongyang": 21606,
  "oni": 13975,
  "onia": 6733,
  "onian": 35355,
  "onic": 8058,
  "onics": 27494,
  "onie": 34141,
  "onin": 41986,
  "oning": 8601,
  "onis": 47094,
  "onitor": 36619,
  "onk": 42312,
  "online": 21101,
  "only": 9840,
  "onna": 19132,
  "onne": 24514,
  "onnell": 39177,
  "ono": 22019,
  "onom": 5146,
  "onomous": 29807,
  "onomy": 24810,
  "ons": 943,
  "onse": 1728,
  "onset": 45045,
  "onson": 43512,
  "ont": 2151,
  "onte": 45134,
  "onto": 6815,
  "onucle": 31470,
  "ony": 3007,
  "onym": 7047,
  "onymous": 23158,
  "oo": 4714,
  "ood": 974,
  "ook": 37152,
  "ool": 1122,
  "ools": 43314,
  "oon": 11803,
  "oons": 31793,
  "oop": 14186,
  "oor": 29977,
  "oos": 39378,
  "oot": 1943,
  "ooth": 7602,
  "op": 411,
  "opa": 28462,
  "opal": 33381,
  "opard": 12238,
  "opark": 43307,
  "opath": 26748,
  "opathy": 23571,
  "ope": 20264,
  "opec": 15368,
  "opedia": 40258,
  "open": 11607,
  "opened": 26370,
  "opening": 13812,
  "openings": 39780,
  "opens": 47977,
  "oper": 7680,
  "operated": 24486,
  "operating": 17217,
  "operation": 17457,
  "operational": 42837,
  "operative": 25130,
  "operator": 47731,
  "opers": 32136,
  "opes": 26218,
  "opet": 47426,
  "opf": 31368,
  "oph": 3839,
  "ophag": 34727,
  "ophage": 34390,
  "ophageal": 37184,
  "opharm": 8084,
  "ophe": 32874,
  "opher": 9313,
  "ophil": 36823,
  "ophile": 47379,
  "ophilia": 31236,
  "ophillips": 30300,
  "ophob": 14913,
  "ophobia": 47135,
  "ophole": 37429,
  "ophone": 48443,
  "ophy": 13845,
  "ophys": 19509,
  "opia": 18851,
  "opian": 28490,
  "opic": 34199,
  "opin": 9712,
  "oping": 18072,
  "opinion": 18006,
  "opinner": 13666,
  "opl": 7817,
  "oplas": 41831,
  "oplay": 21840,
  "ople": 568,
  "oples": 14524,
  "opo": 33670,
  "opoiet": 43238,
  "opoietic": 45555,
  "opol": 8850,
  "opolitical": 10154,
  "opoly": 15790,
  "oport": 36650,
  "opoulos": 27418,
  "opping": 18385,
  "opportun": 44043,
  "opro": 10697,
  "oprop": 40675,
  "oprostol": 43021,
  "ops": 4596,
  "opsies": 34058,
  "opsy": 19197,
  "opt": 33063,
  "optic": 37510,
  "optim": 22297,
  "optimal": 32844,
  "option": 48586,
  "options": 31473,
  "opulmonary": 47847,
  "opus": 40889,
  "opy": 19373,
  "oq": 27330,
  "oqu": 7958,
  "or": 273,
  "ora": 7840,
  "orable": 33012,
  "orado": 32826,
  "orah": 18111,
  "oral": 7956,
  "oran": 40879,
  "orate": 12442,
  "orated": 34262,
  "oration": 5414,
  "orb": 27470,
  "orbent": 47335,
  "orbid": 11717,
  "orca": 42027,
  "ord": 607,
  "ordable": 33545,
  "ordan": 36862,
  "ordash": 15866,
  "order": 8281,
  "ordered": 31605,
  "ordering": 44631,
  "orders": 4685,
  "ordin": 43213,
  "ordinate": 48782,
  "ordinated": 17625,
  "ordination": 48282,
  "ords": 34606,
  "ore": 546,
  "oreal": 24323,
  "orect": 28244,
  "orectal": 28418,
  "ored": 3087,
  "oren": 47349,
  "oreplay": 43507,
  "orer": 49450,
  "ores": 2190,
  "orf": 19780,
  "org": 2723,
  "organ": 5769,
  "organic": 29018,
  "organisation": 47597,
  "organized": 34106,
  "orge": 4916,
  "orges": 28859,
  "orghealthcare": 44063,
  "ori": 11514,
  "oria": 16305,
  "orial": 39344,
  "orian": 30126,
  "oriasis": 32534,
  "oric": 32963,
  "orie": 29279,
  "orient": 11521,
  "oriented": 13242,
  "ories": 2047,
  "orig": 15418,
  "origin": 46395,
  "original": 21663,
  "originally": 36342,
  "orin": 40671,
  "oring": 4153,
  "orio": 44712,
  "oris": 49933,
  "ority": 33889,
  "ork": 1025,
  "orkin": 48110,
  "orld": 29798,
  "orm": 536,
  "orman": 21283,
  "ormittal": 43506,
  "ormyc": 40839,
  "orn": 2115,
  "orned": 25787,
  "ornia": 24643,
  "orning": 43302,
  "orno": 34150,
  "orns": 16037,
  "oro": 20215,
  "oronavirus": 28021,
  "oros": 41909,
  "orous": 9821,
  "orously": 16786,
  "orox": 22952,
  "orp": 10194,
  "orph": 25612,
  "orpor": 37283,
  "orporeal": 30971,
  "orr": 38526,
  "orra": 45501,
  "orrh": 21709,
  "orrow": 7588,
  "ors": 559,
  "orse": 11914,
  "orship": 14297,
  "ort": 366,
  "orte": 33014,
  "orted": 40599,
  "orter": 4901,
  "orth": 1421,
  "orthodox": 28096,
  "ortic": 35776,
  "orting": 47162,
  "ortion": 19596,
  "orts": 34830,
  "orum": 32072,
  "ory": 763,
  "os": 407,
  "osa": 11112,
  "osal": 26495,
  "osaur": 35676,
  "osaurs": 38873,
  "osc": 29851,
  "oscopy": 42319,
  "ose": 725,
  "osec": 22816,
  "osed": 1733,
  "osen": 7832,
  "osene": 33892,
  "oses": 2622,
  "osexual": 27003,
  "osh": 6784,
  "osha": 24287,
  "oshi": 12692,
  "osi": 43898,
  "osia": 44336,
  "oside": 50244,
  "osing": 6496,
  "osis": 4523,
  "osition": 14778,
  "osity": 20727,
  "osm": 12585,
  "osmia": 37147,
  "osmith": 16058,
  "osmithkline": 16093,
  "osmos": 35225,
  "oso": 22468,
  "osom": 41813,
  "osome": 34932,
  "osomes": 32559,
  "osp": 1110,
  "ospace": 8547,
  "osphere": 33586,
  "ospi": 22773,
  "ospital": 1196,
  "oss": 3290,
  "ost": 930,
  "osta": 24729,
  "ostat": 35635,
  "oste": 41015,
  "oster": 8094,
  "osterone": 40363,
  "osti": 41225,
  "ostic": 20459,
  "ostics": 29500,
  "osto": 27701,
  "ostr": 36485,
  "osur": 47976,
  "osys": 20491,
  "osystem": 5845,
  "osystems": 35326,
  "ot": 337,
  "ota": 5149,
  "otainment": 45033,
  "otakis": 41260,
  "otal": 12689,
  "otally": 36976,
  "ote": 1329,
  "otec": 25983,
  "otech": 4561,
  "oted": 6015,
  "oter": 35874,
  "oteric": 47910,
  "oters": 28163,
  "otes": 19859,
  "oth": 7613,
  "othe": 10472,
  "otheby": 28775,
  "other": 1178,
  "otherap": 8956,
  "otherapeutics": 26615,
  "otherapies": 38671,
  "otherapist": 44804,
  "otherapy": 9637,
  "othermal": 30542,
  "othes": 21034,
  "otho": 35706,
  "oths": 39306,
  "othy": 14420,
  "oti": 4033,
  "otiabank": 29199,
  "otiation": 15921,
  "otic": 8236,
  "otics": 35396,
  "otide": 28627,
  "otides": 49437,
  "otine": 32407,
  "oting": 13952,
  "otion": 27793,
  "otional": 45032,
  "otive": 4870,
  "otle": 21164,
  "oto": 9931,
  "otomy": 40551,
  "oton": 9232,
  "otoxic": 32318,
  "otr": 28195,
  "otrans": 41424,
  "otrop": 40833,
  "ots": 2026,
  "otsp": 10687,
  "ott": 2962,
  "otta": 32582,
  "ottawa": 48992,
  "otte": 12077,
  "otti": 24912,
  "ottica": 38285,
  "otto": 36301,
  "ottrell": 28139,
  "otv": 37256,
  "otyp": 8818,
  "otype": 13563,
  "otyped": 47945,
  "otypes": 15469,
  "otyping": 31501,
  "otÃ¡": 46711,
  "ou": 297,
  "ouard": 42363,
  "oub": 11855,
  "ouble": 29487,
  "ouc": 32257,
  "ouch": 15459,
  "ouched": 32652,
  "oud": 2452,
  "oudal": 44454,
  "ouf": 29867,
  "oufakis": 44134,
  "oufl": 44978,
  "oug": 9364,
  "ough": 825,
  "oughed": 9957,
  "ought": 3657,
  "ougou": 48191,
  "oui": 21351,
  "ouk": 31748,
  "oul": 6931,
  "ould": 448,
  "oulder": 23434,
  "oulin": 37317,
  "oulos": 23189,
  "oulou": 49609,
  "oum": 31348,
  "oun": 416,
  "ounak": 34336,
  "ounce": 14709,
  "ounced": 10779,
  "ounces": 28348,
  "ouncing": 30034,
  "ound": 888,
  "ounded": 18798,
  "ounder": 3673,
  "ounding": 17124,
  "ounds": 4135,
  "oung": 23301,
  "ounid": 33519,
  "ouns": 45791,
  "ount": 1241,
  "ounted": 18775,
  "ounters": 18843,
  "oup": 14099,
  "ouple": 43495,
  "our": 434,
  "ource": 14839,
  "ourcebergen": 46747,
  "ourceutils": 43545,
  "oured": 10456,
  "ouri": 12064,
  "ouring": 25441,
  "ourism": 44383,
  "ourl": 16814,
  "ours": 6760,
  "ourse": 22046,
  "ourt": 32736,
  "oury": 49509,
  "ous": 575,
  "ouse": 1199,
  "oused": 40028,
  "ouses": 21487,
  "ously": 4103,
  "out": 492,
  "outbreak": 19894,
  "outh": 6182,
  "outi": 43841,
  "outlook": 33859,
  "outs": 5254,
  "outube": 6634,
  "ouver": 12636,
  "oux": 22946,
  "ov": 1287,
  "ova": 9063,
  "ovac": 14933,
  "oval": 28592,
  "ovan": 20291,
  "ovant": 42877,
  "ovax": 47715,
  "ove": 2023,
  "over": 2879,
  "overs": 17365,
  "overview": 40850,
  "ovi": 40112,
  "ovia": 40975,
  "ovic": 8900,
  "ovich": 27653,
  "ovir": 28814,
  "oviral": 46980,
  "ovirus": 10165,
  "ovo": 16101,
  "ovolta": 30265,
  "ovsky": 37456,
  "ovus": 36049,
  "ovy": 45909,
  "ow": 332,
  "owa": 10853,
  "oway": 38473,
  "owe": 23140,
  "oweap": 49202,
  "owed": 9163,
  "oween": 18590,
  "ower": 16522,
  "owercase": 27529,
  "owi": 48216,
  "owicz": 38206,
  "owing": 16701,
  "owitz": 16883,
  "own": 581,
  "owned": 5483,
  "owner": 17077,
  "owners": 11055,
  "owns": 13170,
  "ows": 16151,
  "owska": 39346,
  "owski": 12885,
  "owsky": 42116,
  "ox": 3806,
  "oxford": 27338,
  "oxic": 26596,
  "oxide": 27138,
  "oxley": 49890,
  "oxone": 40610,
  "oxx": 11924,
  "oxy": 29448,
  "oy": 5326,
  "oya": 41045,
  "oye": 48741,
  "oys": 30379,
  "oz": 11152,
  "ozy": 38009,
  "p": 80,
  "pa": 2717,
  "pable": 21247,
  "pac": 22432,
  "pace": 10942,
  "paced": 33240,
  "paces": 26089,
  "pacific": 4953,
  "pack": 13844,
  "packed": 33093,
  "packing": 20092,
  "packs": 37866,
  "pad": 22951,
  "pag": 43389,
  "page": 8456,
  "pages": 21834,
  "paid": 8832,
  "pain": 45026,
  "paired": 45390,
  "pak": 24761,
  "pakistan": 36216,
  "pal": 8349,
  "palest": 31330,
  "palestinian": 41658,
  "pan": 7963,
  "pand": 39692,
  "pandemic": 4947,
  "pandemics": 46857,
  "panel": 46449,
  "panic": 10898,
  "pants": 38584,
  "paolo": 39671,
  "paper": 25418,
  "papers": 39379,
  "par": 2344,
  "parable": 23245,
  "parag": 47051,
  "paralle": 21427,
  "parat": 45321,
  "pared": 17095,
  "parent": 17542,
  "parents": 14937,
  "paris": 29273,
  "park": 19104,
  "parks": 40648,
  "parliament": 49054,
  "part": 4373,
  "partic": 27063,
  "particip": 36574,
  "particular": 35621,
  "particularly": 36405,
  "parties": 48604,
  "partisan": 18460,
  "partner": 44118,
  "partners": 25042,
  "parts": 10786,
  "partum": 34747,
  "party": 6412,
  "parza": 44513,
  "pas": 40021,
  "pass": 4550,
  "passed": 47188,
  "passing": 37172,
  "password": 12722,
  "past": 50227,
  "pat": 6462,
  "patch": 45356,
  "path": 22268,
  "patient": 11061,
  "patients": 20973,
  "patrick": 26858,
  "paul": 28036,
  "pause": 26494,
  "pay": 7022,
  "payer": 15208,
  "payers": 12667,
  "paying": 18541,
  "payment": 23216,
  "payments": 33417,
  "pb": 28287,
  "pc": 10042,
  "pcr": 13503,
  "pd": 18380,
  "pdf": 7652,
  "pdfdate": 26794,
  "pe": 2749,
  "peace": 24794,
  "peak": 28935,
  "pear": 49926,
  "peare": 30311,
  "pec": 1983,
  "pecific": 37489,
  "pecified": 22129,
  "pecin": 45217,
  "pect": 1683,
  "pecting": 47641,
  "pective": 4230,
  "ped": 1798,
  "pedo": 41921,
  "peed": 30998,
  "peer": 23651,
  "pel": 21627,
  "pen": 14288,
  "pend": 44708,
  "penney": 44467,
  "pent": 24882,
  "penton": 43731,
  "people": 11264,
  "per": 1476,
  "percent": 19732,
  "percentage": 34089,
  "perfect": 38597,
  "perform": 3776,
  "performance": 15663,
  "performing": 9538,
  "perhaps": 46313,
  "period": 19693,
  "perm": 40958,
  "perman": 28981,
  "permanent": 49999,
  "permanente": 37586,
  "pers": 2418,
  "persky": 42140,
  "person": 3222,
  "personal": 22541,
  "persons": 33350,
  "pes": 15595,
  "pet": 8670,
  "peter": 42763,
  "petto": 46509,
  "pez": 17422,
  "pf": 13672,
  "pfizer": 17909,
  "pg": 8376,
  "ph": 1483,
  "phal": 25298,
  "phalia": 47438,
  "phalt": 37701,
  "phan": 16795,
  "phane": 32099,
  "pharm": 20302,
  "pharma": 28218,
  "pharmaceutical": 27541,
  "phas": 46548,
  "phase": 21788,
  "phen": 35560,
  "phere": 40997,
  "phi": 45267,
  "phil": 20152,
  "philipp": 43381,
  "phillips": 32701,
  "phire": 37329,
  "phis": 23689,
  "phone": 4180,
  "phones": 8380,
  "phot": 21572,
  "photo": 38115,
  "photograph": 41933,
  "photos": 31023,
  "php": 28549,
  "phthal": 41329,
  "phy": 9250,
  "phys": 13274,
  "physical": 47004,
  "pi": 19171,
  "pic": 41904,
  "pick": 39577,
  "picked": 30014,
  "pickers": 45558,
  "picking": 41179,
  "pict": 37378,
  "picture": 41136,
  "pid": 14607,
  "pie": 24544,
  "piece": 16662,
  "pieces": 39167,
  "pierre": 37627,
  "pies": 36857,
  "pill": 18984,
  "pillar": 21681,
  "pin": 6878,
  "ping": 1966,
  "pinned": 10664,
  "pinnedplayer": 22493,
  "pinnedview": 16216,
  "pinner": 35143,
  "pins": 29702,
  "pipe": 44376,
  "pir": 6143,
  "pired": 17995,
  "pit": 18949,
  "pite": 21522,
  "pkg": 50009,
  "pl": 1306,
  "place": 3488,
  "placed": 20912,
  "placeon": 39673,
  "placeonarticlepage": 39785,
  "places": 9318,
  "plan": 12436,
  "planes": 48493,
  "planned": 20667,
  "planning": 33774,
  "plans": 44682,
  "plant": 11155,
  "plants": 30644,
  "plastic": 42638,
  "plat": 19659,
  "plate": 45317,
  "platform": 23473,
  "play": 3865,
  "played": 39513,
  "player": 11286,
  "playerproperties": 30653,
  "players": 41740,
  "playing": 22532,
  "ple": 2276,
  "pler": 30280,
  "plete": 15124,
  "plex": 19347,
  "plf": 42507,
  "plos": 25957,
  "ploy": 842,
  "pls": 42965,
  "plus": 6927,
  "ply": 3180,
  "pm": 2833,
  "pmg": 13849,
  "pn": 38524,
  "png": 23985,
  "po": 2578,
  "poa": 47115,
  "poc": 20855,
  "pocket": 22189,
  "pocketed": 46109,
  "pod": 21136,
  "pods": 37761,
  "point": 4663,
  "pointing": 43415,
  "points": 9483,
  "poke": 17861,
  "poken": 49358,
  "pol": 11158,
  "pole": 43068,
  "polic": 18243,
  "police": 20871,
  "policy": 19668,
  "polit": 32239,
  "political": 28445,
  "politics": 25749,
  "poll": 29022,
  "poly": 38282,
  "pon": 4004,
  "ponsored": 17610,
  "pool": 9994,
  "poon": 30267,
  "poor": 35760,
  "pop": 11562,
  "pope": 47264,
  "popping": 41554,
  "popular": 44021,
  "population": 27140,
  "por": 1204,
  "pora": 30247,
  "poro": 43410,
  "porous": 14759,
  "port": 420,
  "ported": 15271,
  "porter": 29472,
  "portfol": 48033,
  "portion": 4578,
  "ports": 2056,
  "portun": 1559,
  "portune": 38043,
  "pos": 2161,
  "pose": 3895,
  "posed": 6340,
  "poses": 5556,
  "posing": 19733,
  "position": 13817,
  "positioned": 17747,
  "positive": 14011,
  "poss": 35569,
  "possible": 41760,
  "post": 7954,
  "posts": 28083,
  "posure": 31352,
  "pot": 16099,
  "potential": 33403,
  "pound": 21881,
  "pour": 39105,
  "poverty": 38085,
  "pow": 6455,
  "power": 10452,
  "powered": 10043,
  "powerful": 50206,
  "powering": 40492,
  "powers": 32009,
  "pox": 19161,
  "pp": 5588,
  "pr": 1493,
  "pra": 19792,
  "pract": 28561,
  "practice": 34689,
  "pre": 2951,
  "pread": 4261,
  "prec": 36100,
  "pred": 40296,
  "predict": 46957,
  "pregn": 45276,
  "prehens": 41924,
  "prem": 11599,
  "premier": 34466,
  "premise": 19408,
  "premises": 21146,
  "premium": 37714,
  "prepared": 27043,
  "pres": 6664,
  "presbyterian": 42742,
  "prescription": 47062,
  "present": 24184,
  "presentations": 47215,
  "preserving": 41930,
  "president": 8755,
  "presidential": 39020,
  "press": 10237,
  "presse": 36687,
  "pressed": 41845,
  "presso": 39520,
  "pressure": 31415,
  "pret": 8068,
  "prevalence": 45107,
  "prevent": 35573,
  "preventable": 47016,
  "prevention": 42088,
  "pric": 16462,
  "price": 11139,
  "priced": 19004,
  "pricing": 37307,
  "prim": 24793,
  "primary": 31333,
  "prime": 20130,
  "princ": 35782,
  "prince": 32100,
  "pring": 24004,
  "print": 5854,
  "printed": 35248,
  "printing": 40352,
  "prints": 17251,
  "prior": 23943,
  "priority": 33818,
  "prise": 3348,
  "prises": 5964,
  "prising": 17112,
  "prison": 39151,
  "priv": 14702,
  "privacy": 47207,
  "private": 17501,
  "privile": 41513,
  "privileged": 43884,
  "prize": 48730,
  "prnewswire": 11444,
  "pro": 2262,
  "prob": 42383,
  "proc": 48850,
  "process": 19746,
  "processing": 29684,
  "proclaimed": 45645,
  "prod": 47928,
  "produ": 40194,
  "produced": 27744,
  "producing": 18667,
  "product": 10897,
  "production": 20541,
  "productive": 22079,
  "products": 24163,
  "prof": 4435,
  "professional": 39203,
  "profile": 10436,
  "profit": 6268,
  "profits": 12805,
  "program": 23741,
  "progress": 37490,
  "project": 21957,
  "projects": 48758,
  "prom": 17230,
  "prone": 32768,
  "pronged": 34651,
  "proof": 14140,
  "proofing": 50061,
  "prop": 12205,
  "properties": 29138,
  "property": 20366,
  "propylene": 30271,
  "pros": 48374,
  "prospect": 20690,
  "prospectus": 21246,
  "prot": 13350,
  "protect": 29682,
  "protected": 21154,
  "protection": 30916,
  "protein": 28532,
  "protest": 28908,
  "protesters": 46634,
  "protocol": 46392,
  "prov": 35003,
  "provid": 23914,
  "provided": 37373,
  "provision": 31701,
  "proxy": 42789,
  "prss": 39279,
  "ps": 1253,
  "pse": 29156,
  "pson": 12315,
  "psons": 47924,
  "psy": 30329,
  "psych": 32207,
  "pt": 629,
  "pthe": 38213,
  "ptic": 24901,
  "ption": 3083,
  "ptions": 4868,
  "ptive": 17587,
  "pton": 13184,
  "ptons": 32409,
  "pts": 5698,
  "pu": 23954,
  "pub": 15485,
  "public": 10446,
  "publication": 40860,
  "publications": 21451,
  "publish": 38461,
  "published": 42527,
  "publishing": 43486,
  "pubmed": 23417,
  "pun": 48146,
  "punk": 42310,
  "pur": 14555,
  "purch": 28211,
  "purchase": 33964,
  "purpose": 26241,
  "pus": 39869,
  "push": 24116,
  "put": 3212,
  "puted": 15471,
  "pv": 50087,
  "px": 15088,
  "py": 8746,
  "q": 81,
  "qa": 19236,
  "qaeda": 37825,
  "qc": 33603,
  "qeta": 38169,
  "qi": 21714,
  "qiang": 34117,
  "qing": 28383,
  "ql": 30212,
  "qm": 36858,
  "qq": 26334,
  "qr": 19575,
  "qs": 21282,
  "qu": 387,
  "qua": 44382,
  "quad": 49296,
  "qual": 13915,
  "qualified": 21446,
  "quality": 6610,
  "quant": 32243,
  "quar": 3576,
  "quarant": 13119,
  "quarantine": 15083,
  "quarantined": 41245,
  "quarantining": 45406,
  "quarie": 26328,
  "quart": 37596,
  "quarter": 3938,
  "quartered": 28629,
  "quarterly": 48922,
  "quarters": 15331,
  "quartile": 44085,
  "que": 2288,
  "queen": 31843,
  "quehanna": 42045,
  "quel": 29452,
  "quent": 50019,
  "quer": 15573,
  "query": 16739,
  "ques": 5568,
  "quest": 16602,
  "question": 32616,
  "quet": 23735,
  "quets": 48032,
  "quette": 31967,
  "quez": 21222,
  "qui": 34899,
  "quiao": 50243,
  "quick": 27513,
  "quier": 33363,
  "quiet": 49297,
  "quil": 29437,
  "quila": 18291,
  "quin": 21058,
  "quins": 47425,
  "quir": 6885,
  "quiry": 28568,
  "quis": 33346,
  "quist": 32624,
  "quito": 22193,
  "quo": 5910,
  "quoise": 44849,
  "quote": 37452,
  "quÃ©": 42459,
  "qv": 40181,
  "r": 82,
  "ra": 1628,
  "rab": 39173,
  "rac": 14442,
  "race": 23518,
  "racial": 42488,
  "racism": 27711,
  "racist": 40049,
  "racuse": 33090,
  "rad": 12941,
  "radar": 35226,
  "rade": 46286,
  "radio": 49479,
  "rador": 26646,
  "rael": 3648,
  "raf": 22556,
  "raft": 13681,
  "rafts": 34581,
  "rag": 40056,
  "rage": 10966,
  "raged": 26412,
  "rah": 15872,
  "raid": 9661,
  "raient": 36419,
  "rail": 28288,
  "rails": 37534,
  "rain": 3336,
  "raine": 18204,
  "raised": 46550,
  "raising": 25531,
  "rait": 17136,
  "raits": 31088,
  "raj": 32378,
  "rak": 41942,
  "ral": 1707,
  "raltar": 38829,
  "ram": 8557,
  "ramax": 49013,
  "ramento": 20875,
  "ramp": 46405,
  "ran": 7220,
  "rance": 32173,
  "rand": 25033,
  "random": 39131,
  "range": 17449,
  "ranging": 18076,
  "rani": 42538,
  "rank": 40335,
  "ranked": 19369,
  "ranking": 24734,
  "ranks": 19715,
  "rano": 42311,
  "rans": 45672,
  "rant": 31619,
  "rap": 1535,
  "rapid": 37702,
  "rar": 22663,
  "rary": 7767,
  "ras": 2484,
  "rase": 44768,
  "rastr": 2658,
  "rat": 15056,
  "rata": 39174,
  "ratcliffe": 39564,
  "rate": 10505,
  "rated": 14429,
  "rates": 29764,
  "rather": 45673,
  "rating": 28866,
  "ratings": 49617,
  "ration": 47484,
  "rative": 7159,
  "rav": 23315,
  "ravaged": 31670,
  "raw": 33057,
  "rawn": 12014,
  "rax": 45357,
  "ray": 6509,
  "rays": 23955,
  "raz": 33424,
  "rb": 45952,
  "rbd": 31455,
  "rc": 15448,
  "rd": 9360,
  "re": 261,
  "rea": 19604,
  "reach": 11187,
  "reaching": 17073,
  "reactive": 27877,
  "read": 799,
  "reading": 39623,
  "ready": 1332,
  "reak": 1174,
  "reaks": 4539,
  "real": 6414,
  "reality": 45674,
  "ream": 3913,
  "reas": 33322,
  "reat": 748,
  "reated": 14065,
  "reath": 47109,
  "reating": 33154,
  "reatment": 33244,
  "reau": 41846,
  "reaves": 31936,
  "reb": 21297,
  "rec": 2893,
  "rece": 45418,
  "received": 41712,
  "recent": 37123,
  "rech": 43692,
  "recht": 36888,
  "reciation": 5096,
  "recirc": 17120,
  "recise": 44008,
  "reco": 28473,
  "recogn": 16736,
  "recognition": 35378,
  "recognized": 42405,
  "recomm": 31121,
  "recommend": 47084,
  "recommended": 42712,
  "record": 15387,
  "recorded": 26072,
  "recourse": 45862,
  "recovery": 32529,
  "recruit": 48026,
  "rect": 4274,
  "rection": 8624,
  "recurring": 14141,
  "red": 437,
  "redd": 44545,
  "redi": 48717,
  "redict": 11367,
  "redit": 14069,
  "redited": 34253,
  "redo": 22084,
  "reduc": 31408,
  "reduced": 46882,
  "reducing": 48630,
  "reduction": 29518,
  "ree": 653,
  "reed": 20588,
  "reen": 9044,
  "rees": 6663,
  "ref": 4032,
  "refour": 42146,
  "refr": 43418,
  "refractory": 46581,
  "refuge": 48603,
  "refund": 43664,
  "refundable": 47017,
  "reg": 3121,
  "regen": 42267,
  "regeneron": 45724,
  "region": 27008,
  "regional": 32161,
  "regions": 40938,
  "register": 29655,
  "registered": 18675,
  "registration": 34654,
  "regular": 16767,
  "regulated": 21552,
  "regulation": 23439,
  "regulatory": 40037,
  "rehens": 3267,
  "reich": 34926,
  "rein": 38749,
  "reira": 30146,
  "reit": 32224,
  "rej": 39646,
  "rek": 30392,
  "rel": 1929,
  "related": 2918,
  "relations": 20587,
  "rele": 10117,
  "release": 21002,
  "released": 31146,
  "releases": 13862,
  "relevant": 20262,
  "reliance": 31437,
  "reliant": 32191,
  "relief": 25089,
  "reliefweb": 41391,
  "relim": 49382,
  "relink": 46982,
  "rell": 8898,
  "rella": 16822,
  "rellas": 49897,
  "rels": 45695,
  "rem": 5366,
  "reme": 2921,
  "remlin": 13761,
  "remo": 35702,
  "remote": 31737,
  "remove": 30114,
  "removeclass": 35384,
  "ren": 450,
  "rena": 16906,
  "renal": 26547,
  "renc": 50170,
  "rence": 1488,
  "rences": 3523,
  "rench": 3460,
  "renched": 17761,
  "renching": 28737,
  "rencies": 6625,
  "rency": 2790,
  "rend": 8210,
  "rendan": 22543,
  "render": 23485,
  "rendip": 41204,
  "rendra": 16793,
  "rendre": 39775,
  "rends": 19852,
  "rene": 5492,
  "reness": 6219,
  "renew": 44743,
  "reng": 2887,
  "renka": 49160,
  "renn": 27039,
  "reno": 18790,
  "renowned": 40763,
  "rens": 16556,
  "rent": 690,
  "rental": 46910,
  "rente": 25705,
  "rentes": 34126,
  "rential": 19103,
  "rents": 3221,
  "rep": 4213,
  "repid": 39634,
  "replace": 20469,
  "report": 5527,
  "reported": 14137,
  "reporting": 23394,
  "reportlinker": 12427,
  "reportocean": 19956,
  "reports": 13778,
  "reprene": 5989,
  "repres": 12839,
  "represent": 23812,
  "representation": 49345,
  "represented": 15989,
  "rept": 39694,
  "repta": 47959,
  "republic": 11592,
  "requ": 9525,
  "request": 13099,
  "requestsample": 33961,
  "rer": 12486,
  "rera": 20135,
  "rero": 30521,
  "rers": 22779,
  "res": 386,
  "resa": 12897,
  "rescue": 45252,
  "resear": 27195,
  "research": 8028,
  "researchandmarkets": 20333,
  "researchers": 29942,
  "resent": 29468,
  "resh": 4012,
  "reshold": 8430,
  "resident": 20196,
  "residential": 31096,
  "residents": 35824,
  "resil": 14146,
  "resilience": 15136,
  "resilient": 46870,
  "resist": 15975,
  "resistant": 17786,
  "reso": 40147,
  "resolution": 29058,
  "resour": 19038,
  "resource": 33650,
  "resourced": 34088,
  "resources": 24736,
  "resp": 4879,
  "respect": 24874,
  "respected": 47517,
  "respir": 41547,
  "respiratory": 47086,
  "respond": 5846,
  "respons": 13634,
  "response": 20848,
  "responsive": 36065,
  "ress": 750,
  "resse": 39912,
  "ressed": 5807,
  "ressing": 18437,
  "ression": 4566,
  "ressive": 7342,
  "rest": 1039,
  "restaur": 31294,
  "restaurant": 36583,
  "restore": 41497,
  "restrial": 35188,
  "restric": 47988,
  "result": 49227,
  "results": 23000,
  "ret": 2215,
  "retail": 23785,
  "retailers": 49622,
  "retary": 26616,
  "rete": 9618,
  "retion": 22912,
  "retire": 26775,
  "retirement": 29828,
  "retive": 27401,
  "rets": 12812,
  "rett": 9785,
  "rette": 33588,
  "retti": 46512,
  "return": 27765,
  "reuters": 14067,
  "rev": 23063,
  "revalence": 24746,
  "reve": 32580,
  "reven": 24456,
  "revenue": 31881,
  "revenues": 45457,
  "review": 12458,
  "reviewed": 15166,
  "rew": 3406,
  "reward": 33846,
  "rex": 18871,
  "rexate": 50148,
  "rey": 6724,
  "reyn": 46119,
  "reys": 46816,
  "rez": 12004,
  "rg": 37448,
  "rh": 16673,
  "ri": 1446,
  "ria": 5115,
  "rial": 21769,
  "rian": 8440,
  "rians": 18724,
  "riatic": 33635,
  "riatico": 39100,
  "ric": 756,
  "rica": 12331,
  "rical": 15201,
  "rican": 22655,
  "ricanconsumernews": 39684,
  "rice": 18761,
  "rich": 8287,
  "rick": 6269,
  "ricks": 27095,
  "rics": 5138,
  "ricted": 22553,
  "ricular": 30345,
  "rid": 6277,
  "ridden": 31500,
  "ride": 32694,
  "ridge": 16921,
  "ridgemarketresearch": 30514,
  "riding": 30192,
  "rie": 18330,
  "ried": 3211,
  "riel": 49732,
  "rien": 24933,
  "riend": 7684,
  "rier": 5558,
  "riers": 4857,
  "ries": 13236,
  "riev": 47281,
  "rig": 26264,
  "right": 3156,
  "rights": 19080,
  "rij": 42083,
  "rik": 20031,
  "rika": 44608,
  "ril": 1459,
  "rill": 32729,
  "rim": 12258,
  "rimon": 31359,
  "rin": 16977,
  "rina": 19340,
  "rine": 20162,
  "ring": 2671,
  "ringer": 39927,
  "rings": 37059,
  "rington": 24197,
  "rio": 15688,
  "riors": 23559,
  "rios": 40034,
  "riot": 30898,
  "riott": 12209,
  "rique": 18366,
  "rir": 35284,
  "ris": 2289,
  "rise": 17435,
  "rising": 19428,
  "risings": 44242,
  "risk": 6052,
  "risome": 21705,
  "rison": 36234,
  "rist": 2815,
  "rists": 22896,
  "rit": 21215,
  "rite": 28982,
  "ritic": 45456,
  "ritis": 14042,
  "ritonavir": 34568,
  "rium": 19917,
  "rivas": 44880,
  "rive": 25557,
  "river": 33527,
  "rix": 10289,
  "riz": 50157,
  "rk": 44181,
  "rl": 38010,
  "rm": 36885,
  "rn": 21053,
  "rna": 32620,
  "ro": 292,
  "road": 5279,
  "roads": 16042,
  "rob": 11447,
  "robert": 44659,
  "robin": 47461,
  "robot": 42347,
  "roc": 18257,
  "roche": 45735,
  "rock": 10983,
  "rocket": 10757,
  "rockets": 47742,
  "rod": 18223,
  "roe": 24775,
  "roff": 48211,
  "rog": 10531,
  "rogen": 13436,
  "roid": 9161,
  "roidism": 41163,
  "roit": 10352,
  "rol": 7457,
  "rolet": 36838,
  "rolizumab": 46619,
  "roll": 2944,
  "rolled": 30099,
  "roller": 35715,
  "rolling": 17907,
  "rolls": 23621,
  "rolog": 9802,
  "rology": 25551,
  "rols": 29705,
  "rom": 406,
  "romag": 34810,
  "romb": 12867,
  "rombie": 37214,
  "rome": 5027,
  "romised": 14713,
  "romising": 48483,
  "rompt": 37484,
  "romy": 25535,
  "romycin": 26443,
  "ron": 1369,
  "rone": 31403,
  "rones": 38017,
  "ronic": 4065,
  "rons": 14935,
  "ront": 5484,
  "rood": 48353,
  "room": 4924,
  "rooms": 8300,
  "root": 30992,
  "rooted": 39258,
  "roots": 17593,
  "rop": 739,
  "rope": 1084,
  "roph": 11036,
  "rophy": 28904,
  "rophys": 32905,
  "ropri": 3957,
  "ror": 8253,
  "ros": 4608,
  "rosa": 42388,
  "roscop": 30016,
  "roscopy": 35698,
  "rose": 14237,
  "rosen": 40613,
  "rosine": 45223,
  "rosis": 17172,
  "ross": 937,
  "rost": 32131,
  "rot": 17292,
  "rote": 2789,
  "rotein": 29654,
  "rots": 37450,
  "rott": 43936,
  "rou": 36191,
  "roubaix": 28780,
  "rough": 762,
  "rought": 3314,
  "roughts": 29197,
  "round": 950,
  "rounded": 50254,
  "roup": 10147,
  "rourke": 45894,
  "rous": 17718,
  "rout": 48707,
  "routing": 34169,
  "rov": 16406,
  "rovimab": 31996,
  "row": 1541,
  "rowing": 7031,
  "rowitz": 43363,
  "rowning": 33476,
  "rows": 13165,
  "rowshahi": 34907,
  "rowth": 49051,
  "roy": 6855,
  "royal": 29598,
  "royce": 23157,
  "roz": 48964,
  "rp": 27876,
  "rr": 23606,
  "rs": 2495,
  "rsro": 42595,
  "rt": 13830,
  "ru": 12906,
  "rub": 39644,
  "rug": 35090,
  "rule": 44419,
  "ruled": 40751,
  "rum": 7310,
  "rums": 42650,
  "run": 6331,
  "runner": 23155,
  "runners": 36432,
  "running": 16952,
  "rup": 1785,
  "rupp": 33864,
  "rupt": 4747,
  "rupted": 19357,
  "ruption": 7044,
  "rus": 11020,
  "rush": 40789,
  "russ": 13731,
  "russia": 18557,
  "russian": 21983,
  "rw": 48528,
  "rx": 12088,
  "rxiv": 16065,
  "ry": 1496,
  "ryan": 38116,
  "rying": 26479,
  "ryn": 30419,
  "ryst": 23073,
  "rÃ©": 27633,
  "rÃ³": 45493,
  "s": 83,
  "sa": 5342,
  "sab": 44769,
  "sac": 39136,
  "sad": 47622,
  "safe": 16971,
  "safety": 19718,
  "sah": 15186,
  "saharan": 15798,
  "said": 42558,
  "sal": 20718,
  "sale": 18367,
  "sales": 20391,
  "sam": 36273,
  "sample": 12539,
  "sams": 37411,
  "san": 11196,
  "sand": 46958,
  "sanofi": 46515,
  "sant": 45889,
  "santa": 44770,
  "sar": 37282,
  "sars": 16025,
  "satellite": 50088,
  "saudi": 28559,
  "sav": 19866,
  "saving": 12893,
  "savings": 41756,
  "savvy": 30618,
  "say": 20364,
  "says": 40057,
  "sb": 47091,
  "sburg": 36101,
  "sc": 2333,
  "scale": 6282,
  "scan": 43222,
  "scape": 35931,
  "scar": 44993,
  "scenes": 32721,
  "sch": 7489,
  "schaft": 35347,
  "sche": 20177,
  "schema": 28486,
  "schild": 43326,
  "school": 10713,
  "schooling": 45404,
  "schools": 37789,
  "sci": 25826,
  "science": 13249,
  "sciences": 43270,
  "scient": 18393,
  "scientific": 41465,
  "scientist": 40014,
  "scientists": 27833,
  "scious": 16557,
  "sco": 25534,
  "scooters": 44645,
  "scop": 12154,
  "scope": 40088,
  "score": 22885,
  "scorned": 31323,
  "scot": 41588,
  "scott": 23330,
  "scr": 40378,
  "scre": 29695,
  "screen": 13604,
  "screening": 41355,
  "screens": 48696,
  "script": 33513,
  "scripts": 31060,
  "sd": 25851,
  "se": 352,
  "sea": 10840,
  "sear": 850,
  "search": 7617,
  "season": 10465,
  "seat": 18305,
  "seated": 46416,
  "sec": 3127,
  "second": 15407,
  "secondary": 33688,
  "secops": 48178,
  "secretary": 44563,
  "sect": 14355,
  "sectable": 46691,
  "section": 19860,
  "sectional": 28023,
  "sector": 11425,
  "sectors": 39213,
  "secu": 46325,
  "secure": 15547,
  "secured": 13250,
  "securities": 40532,
  "security": 9922,
  "secut": 5005,
  "sed": 10068,
  "sedar": 19884,
  "see": 5820,
  "seeable": 49468,
  "seed": 34763,
  "seeded": 50165,
  "seeing": 40060,
  "seek": 16911,
  "seeker": 27113,
  "seekers": 23871,
  "seeking": 27687,
  "seen": 13077,
  "sees": 26982,
  "sef": 46018,
  "seg": 19650,
  "segafredo": 30515,
  "segment": 25108,
  "segments": 25341,
  "segur": 43474,
  "sein": 26298,
  "sek": 26482,
  "sel": 1220,
  "select": 24078,
  "selected": 48818,
  "selector": 40822,
  "seless": 28350,
  "self": 1964,
  "sell": 7347,
  "seller": 34259,
  "sellers": 35438,
  "selling": 12153,
  "sels": 6048,
  "selves": 2642,
  "sem": 10772,
  "semb": 5301,
  "semble": 12266,
  "semit": 22138,
  "semitic": 32017,
  "semitism": 34374,
  "sen": 5589,
  "senate": 40614,
  "senior": 31447,
  "sens": 14907,
  "sense": 34379,
  "sensitive": 17667,
  "sent": 36886,
  "sep": 32917,
  "sept": 16663,
  "september": 17572,
  "seq": 42219,
  "sequ": 2934,
  "ser": 16832,
  "series": 24845,
  "serv": 7045,
  "serve": 32650,
  "served": 44420,
  "service": 8145,
  "services": 16837,
  "serving": 24454,
  "ses": 4361,
  "session": 25867,
  "set": 2608,
  "setis": 30628,
  "setisplaying": 30660,
  "sett": 15355,
  "setting": 19546,
  "settled": 46268,
  "sev": 49505,
  "seven": 24685,
  "sever": 35503,
  "several": 40374,
  "severe": 22603,
  "sex": 10935,
  "sexual": 49613,
  "sey": 6218,
  "sg": 33152,
  "sh": 1942,
  "sha": 34534,
  "shahi": 33878,
  "shan": 33291,
  "shang": 38728,
  "shanghai": 41876,
  "shape": 36111,
  "shaped": 12747,
  "shar": 35135,
  "share": 10588,
  "shareholder": 40619,
  "shareholders": 49477,
  "shares": 13191,
  "sharing": 12372,
  "shaun": 45157,
  "shaw": 29985,
  "she": 8992,
  "sheet": 31160,
  "shelf": 31109,
  "shell": 31826,
  "shi": 34413,
  "shield": 35364,
  "shift": 36285,
  "shifting": 42591,
  "shiller": 47441,
  "shine": 15782,
  "ship": 6349,
  "shipping": 50196,
  "shire": 11711,
  "shirt": 23656,
  "shirts": 24922,
  "shit": 42380,
  "shoot": 36421,
  "shop": 21139,
  "shopping": 50119,
  "shore": 6447,
  "shoring": 36010,
  "short": 23222,
  "shortened": 46878,
  "shot": 9663,
  "shots": 31054,
  "should": 28268,
  "show": 12623,
  "showflashslate": 43543,
  "shows": 46053,
  "showui": 43542,
  "sht": 48795,
  "shut": 43802,
  "shutter": 35535,
  "shutterstock": 35916,
  "si": 14680,
  "sid": 32202,
  "side": 1792,
  "sided": 23121,
  "sider": 14272,
  "sidered": 41779,
  "sight": 24347,
  "sighted": 40143,
  "sign": 12817,
  "significant": 45449,
  "sil": 22462,
  "silver": 35844,
  "sim": 22834,
  "simons": 48074,
  "sin": 30293,
  "since": 25147,
  "sing": 10319,
  "singapore": 20245,
  "singer": 36816,
  "single": 19166,
  "sis": 1239,
  "sisi": 49729,
  "sit": 35524,
  "site": 9369,
  "sites": 17390,
  "six": 19818,
  "size": 9921,
  "sized": 8271,
  "sk": 4993,
  "ska": 22916,
  "skaya": 40041,
  "ski": 10284,
  "skill": 47654,
  "skilled": 28279,
  "skin": 36931,
  "sky": 14781,
  "sl": 18190,
  "slate": 16703,
  "sm": 7160,
  "small": 13245,
  "smart": 32297,
  "smd": 34751,
  "smith": 19566,
  "sn": 28212,
  "so": 555,
  "soc": 28742,
  "soccer": 50069,
  "soci": 37535,
  "social": 18682,
  "society": 43686,
  "soever": 16872,
  "soff": 28007,
  "soft": 3630,
  "software": 29346,
  "sol": 16476,
  "sole": 16613,
  "solid": 40464,
  "solving": 33168,
  "som": 48348,
  "some": 16362,
  "somet": 25575,
  "something": 31869,
  "son": 4144,
  "song": 32422,
  "songwriter": 40372,
  "sonian": 42190,
  "sonoma": 44397,
  "soon": 25838,
  "sored": 10119,
  "soudal": 44932,
  "sour": 7412,
  "source": 11230,
  "sourced": 33087,
  "sources": 37399,
  "south": 13363,
  "sov": 38381,
  "sover": 21852,
  "soviet": 38557,
  "sp": 5443,
  "space": 16211,
  "spain": 32490,
  "span": 33295,
  "spe": 10223,
  "speaking": 22313,
  "spec": 7107,
  "special": 30549,
  "specific": 7791,
  "specified": 47194,
  "spect": 15384,
  "spectrum": 33091,
  "speed": 13206,
  "spending": 29137,
  "spider": 38942,
  "spike": 27122,
  "spin": 27404,
  "spir": 44622,
  "spl": 21054,
  "split": 25372,
  "spoken": 20766,
  "spons": 40774,
  "sponsored": 17810,
  "sport": 33425,
  "sports": 20712,
  "spot": 21007,
  "spr": 44269,
  "spread": 14128,
  "spreader": 39490,
  "spreading": 17406,
  "spring": 47832,
  "spx": 34134,
  "squ": 17357,
  "square": 19482,
  "sr": 23780,
  "sri": 47020,
  "ss": 814,
  "ssa": 31988,
  "sse": 29173,
  "sseldorf": 46635,
  "ssen": 39952,
  "ssenk": 36625,
  "ssenkrupp": 36701,
  "ssid": 35247,
  "sson": 14119,
  "ssrn": 44549,
  "st": 321,
  "sta": 34197,
  "stable": 17188,
  "stack": 33221,
  "stad": 21508,
  "stadt": 36581,
  "staff": 23857,
  "staffed": 46059,
  "stage": 7377,
  "stairs": 32385,
  "stake": 43498,
  "stakes": 24954,
  "staking": 36890,
  "stall": 31675,
  "stamp": 49089,
  "stan": 12487,
  "stand": 1649,
  "standard": 16805,
  "standardised": 37085,
  "standing": 3990,
  "standings": 36232,
  "stands": 43051,
  "stant": 23342,
  "star": 5797,
  "stars": 26031,
  "start": 11043,
  "started": 38258,
  "starter": 33332,
  "starting": 37580,
  "starts": 42482,
  "starved": 47060,
  "stat": 13014,
  "state": 6022,
  "stated": 14810,
  "statement": 19363,
  "statements": 30462,
  "states": 20510,
  "static": 29944,
  "stating": 32734,
  "station": 10363,
  "stations": 34647,
  "statistics": 29387,
  "status": 28585,
  "stay": 19828,
  "ste": 5464,
  "stead": 28265,
  "sted": 21798,
  "steel": 39733,
  "stein": 6501,
  "stel": 36948,
  "stell": 33515,
  "stem": 958,
  "sten": 11346,
  "step": 8784,
  "steps": 16119,
  "ster": 3818,
  "sterdam": 14494,
  "stered": 10904,
  "stering": 20229,
  "sterling": 46039,
  "sters": 10199,
  "sthe": 19526,
  "sthis": 29378,
  "stic": 16082,
  "stick": 24447,
  "sticks": 48969,
  "still": 14138,
  "stim": 23654,
  "stime": 43250,
  "stimulus": 44080,
  "stin": 37255,
  "stit": 13471,
  "stitution": 17329,
  "sto": 39753,
  "stock": 8544,
  "stocks": 13889,
  "stoff": 41988,
  "stol": 39792,
  "stom": 40341,
  "ston": 4041,
  "stone": 8004,
  "stones": 30792,
  "stood": 25528,
  "stop": 10506,
  "stoppable": 36243,
  "stor": 26308,
  "storage": 30636,
  "store": 7569,
  "stores": 26542,
  "storey": 38335,
  "stories": 48709,
  "storm": 15119,
  "storms": 35768,
  "story": 20706,
  "stown": 24805,
  "stoxx": 45848,
  "str": 1300,
  "stra": 18723,
  "stract": 13493,
  "straight": 42611,
  "strained": 33850,
  "strapped": 21711,
  "strat": 31572,
  "strate": 28886,
  "strateg": 23228,
  "strategic": 43774,
  "strategy": 37039,
  "strates": 49381,
  "stre": 11162,
  "stream": 5505,
  "streamed": 33960,
  "streaming": 27365,
  "street": 15269,
  "streng": 38891,
  "strength": 49844,
  "stress": 36589,
  "stret": 28314,
  "stretched": 31486,
  "stric": 26022,
  "stricken": 29129,
  "strike": 23192,
  "strikes": 38596,
  "string": 17703,
  "stro": 26636,
  "stroke": 34595,
  "strom": 13328,
  "strong": 14015,
  "struct": 9947,
  "struction": 14989,
  "structured": 27866,
  "stry": 22576,
  "strÃ¶m": 37989,
  "stud": 13729,
  "studded": 40504,
  "student": 40912,
  "students": 40818,
  "studio": 46156,
  "study": 23489,
  "sty": 20597,
  "style": 11049,
  "styrene": 43875,
  "su": 12547,
  "sub": 15585,
  "subs": 15484,
  "subscribe": 34194,
  "subscriptions": 18085,
  "substring": 27558,
  "success": 42897,
  "such": 23459,
  "sufficiency": 36044,
  "sufficient": 34473,
  "sug": 37722,
  "suit": 45778,
  "suite": 20148,
  "suited": 36293,
  "sum": 24012,
  "summ": 8242,
  "summary": 9045,
  "summer": 24107,
  "sun": 27528,
  "sund": 47762,
  "sup": 9147,
  "super": 30928,
  "supp": 22987,
  "suppliers": 33625,
  "supply": 25414,
  "support": 21702,
  "supported": 22273,
  "supporting": 45720,
  "sur": 12915,
  "surface": 47072,
  "surgical": 48209,
  "surprise": 31685,
  "surveillance": 49542,
  "survey": 35253,
  "surviv": 43331,
  "survivors": 49493,
  "sus": 35091,
  "sust": 27446,
  "sustainability": 47470,
  "sustainable": 47410,
  "sustaining": 37375,
  "sw": 2530,
  "swe": 40336,
  "swed": 28649,
  "sweden": 43131,
  "swedish": 39493,
  "swell": 37520,
  "swick": 23449,
  "swing": 27842,
  "swire": 9812,
  "swiss": 32231,
  "swit": 47373,
  "switzerland": 48881,
  "sworth": 41592,
  "sx": 39106,
  "sy": 15772,
  "sych": 39222,
  "sydney": 46269,
  "symptomatic": 43045,
  "syn": 22880,
  "synd": 44965,
  "synthe": 48566,
  "syria": 47209,
  "sys": 47831,
  "system": 16715,
  "systems": 33659,
  "sz": 40998,
  "t": 84,
  "ta": 2141,
  "tab": 38234,
  "table": 9197,
  "tablet": 23829,
  "tac": 48349,
  "tag": 17670,
  "tage": 22322,
  "tags": 32651,
  "tah": 40245,
  "tai": 28420,
  "tail": 6739,
  "tailed": 42292,
  "taire": 40681,
  "taiwan": 35846,
  "take": 17035,
  "taking": 20762,
  "tal": 1157,
  "tale": 29675,
  "talk": 18198,
  "tall": 31794,
  "tam": 33715,
  "tan": 27715,
  "tani": 46892,
  "tank": 18703,
  "tar": 13420,
  "tard": 40244,
  "targ": 17797,
  "target": 30145,
  "targeted": 33533,
  "targeting": 39567,
  "tas": 30954,
  "tat": 33197,
  "tax": 8764,
  "tay": 30079,
  "taylor": 47895,
  "tb": 19453,
  "tc": 11943,
  "td": 15195,
  "te": 715,
  "teacher": 36388,
  "teachers": 35829,
  "team": 19286,
  "tec": 22146,
  "tech": 2665,
  "techn": 11349,
  "technavio": 13076,
  "technic": 45701,
  "technical": 37860,
  "technology": 21927,
  "ted": 858,
  "tedance": 21353,
  "tee": 18486,
  "teen": 12937,
  "teens": 33921,
  "teenth": 46186,
  "tega": 23527,
  "tegr": 38450,
  "tein": 25629,
  "tek": 28215,
  "tel": 14452,
  "tele": 25148,
  "tell": 44881,
  "tem": 21502,
  "temper": 43475,
  "temperature": 44764,
  "tempor": 40454,
  "ten": 1431,
  "tenberg": 36392,
  "tender": 28624,
  "tene": 29613,
  "teness": 20751,
  "tenham": 37392,
  "tens": 48958,
  "tenstein": 34223,
  "tent": 17080,
  "tenth": 43822,
  "ter": 364,
  "tera": 18100,
  "teral": 47287,
  "terdam": 27332,
  "tered": 4062,
  "terian": 34424,
  "tering": 8472,
  "terious": 49862,
  "term": 1817,
  "termin": 33095,
  "terms": 17639,
  "tern": 2306,
  "ternal": 23831,
  "ternet": 49807,
  "tero": 40598,
  "terr": 44597,
  "terra": 37319,
  "terror": 22074,
  "terrorism": 28085,
  "ters": 2643,
  "terson": 19996,
  "tery": 13194,
  "tes": 9256,
  "tesla": 28356,
  "test": 8340,
  "tested": 26611,
  "testing": 17816,
  "tests": 41647,
  "tex": 15021,
  "texas": 30782,
  "text": 12687,
  "tez": 50106,
  "th": 375,
  "tha": 15108,
  "thailand": 39181,
  "thal": 14197,
  "than": 6708,
  "thane": 36046,
  "thank": 49438,
  "thanks": 41238,
  "thansa": 15165,
  "that": 12449,
  "the": 1203,
  "thed": 34048,
  "theguardian": 36359,
  "their": 34746,
  "thel": 42964,
  "theless": 9342,
  "theme": 39705,
  "themed": 21894,
  "themes": 39629,
  "then": 24546,
  "theon": 29362,
  "ther": 482,
  "therapy": 41628,
  "there": 11115,
  "theresa": 46241,
  "theria": 38620,
  "thern": 4781,
  "these": 19791,
  "they": 11390,
  "thia": 21088,
  "thin": 35018,
  "thing": 2111,
  "things": 44662,
  "think": 18856,
  "thinkable": 26129,
  "thinking": 25201,
  "third": 10122,
  "thirds": 9029,
  "this": 7749,
  "thly": 21875,
  "thomas": 40761,
  "thomson": 24686,
  "thomsonreuters": 29012,
  "thon": 22757,
  "thood": 22288,
  "thor": 26504,
  "thorn": 47630,
  "thorne": 35845,
  "those": 33517,
  "though": 2399,
  "thought": 28258,
  "thous": 25890,
  "thousand": 48260,
  "thousands": 31504,
  "thr": 48647,
  "threat": 13890,
  "threatening": 16175,
  "three": 16182,
  "thro": 36002,
  "through": 6172,
  "throughput": 38834,
  "throughs": 47994,
  "thru": 20826,
  "ths": 27239,
  "thus": 48418,
  "thy": 17273,
  "ti": 5128,
  "tic": 4245,
  "tica": 39595,
  "tical": 7135,
  "tically": 15879,
  "tice": 44974,
  "ticket": 29771,
  "ticks": 45811,
  "tics": 15449,
  "tie": 33982,
  "tier": 14998,
  "tiered": 49272,
  "ties": 2923,
  "tig": 33468,
  "tight": 34952,
  "tik": 41710,
  "til": 44224,
  "tim": 9426,
  "time": 2348,
  "timed": 44954,
  "timeout": 20798,
  "times": 14458,
  "timore": 14340,
  "ting": 786,
  "tinged": 31820,
  "tings": 38552,
  "tingu": 15110,
  "tion": 1270,
  "tions": 1236,
  "tips": 46173,
  "tis": 45842,
  "tit": 29813,
  "tl": 36646,
  "tland": 43691,
  "tle": 1464,
  "tled": 49498,
  "tlement": 29296,
  "tler": 42991,
  "tles": 23544,
  "tm": 15863,
  "tman": 37899,
  "tmsnrt": 34066,
  "tn": 15370,
  "tner": 41984,
  "to": 1467,
  "toc": 35649,
  "today": 22547,
  "toe": 42431,
  "toff": 35736,
  "tog": 50010,
  "together": 34712,
  "tok": 6068,
  "tokyo": 25794,
  "tol": 15343,
  "tolerance": 37148,
  "tolerated": 37862,
  "tolowercase": 27540,
  "tom": 30933,
  "ton": 1674,
  "tonne": 34509,
  "too": 18296,
  "took": 21646,
  "top": 8259,
  "tops": 28130,
  "tor": 7261,
  "torn": 36045,
  "toronto": 28337,
  "tors": 21363,
  "tos": 39107,
  "total": 17122,
  "touch": 23374,
  "tour": 14307,
  "tourism": 44468,
  "tow": 44089,
  "town": 9308,
  "tox": 33613,
  "toxic": 47216,
  "toy": 40113,
  "toyota": 45350,
  "tr": 404,
  "tra": 2739,
  "trac": 39913,
  "trace": 23570,
  "tracing": 17314,
  "track": 13505,
  "tracked": 26416,
  "tracker": 43874,
  "tracking": 18294,
  "tracted": 18872,
  "trad": 38893,
  "trade": 15871,
  "traded": 13073,
  "trading": 26143,
  "tradition": 25294,
  "traditional": 26052,
  "traff": 29850,
  "traffic": 39607,
  "train": 26013,
  "trained": 29085,
  "training": 35019,
  "trak": 31624,
  "tram": 40674,
  "tran": 30597,
  "trand": 47846,
  "trans": 10667,
  "transfer": 39404,
  "transgender": 36807,
  "transition": 42935,
  "transport": 40283,
  "tras": 24321,
  "tration": 13100,
  "traumatic": 28137,
  "trave": 42770,
  "travel": 22113,
  "trax": 50098,
  "tre": 10422,
  "treas": 33729,
  "treasury": 36671,
  "treat": 16924,
  "treated": 26429,
  "treating": 47200,
  "treatment": 23380,
  "tree": 20080,
  "trend": 29056,
  "trends": 27048,
  "tri": 41812,
  "trial": 19651,
  "trials": 24333,
  "tric": 27240,
  "trick": 46418,
  "trics": 40631,
  "tries": 1035,
  "trig": 33806,
  "trillion": 33518,
  "trim": 23736,
  "trion": 45253,
  "trip": 26066,
  "trn": 24639,
  "tro": 24725,
  "tron": 21800,
  "tronic": 21839,
  "tronics": 45184,
  "tronomy": 48649,
  "trop": 48641,
  "truck": 29517,
  "truda": 12819,
  "true": 20002,
  "trump": 10245,
  "trun": 27794,
  "trust": 14867,
  "try": 670,
  "ts": 419,
  "tsch": 50168,
  "tsx": 33428,
  "tt": 1292,
  "tta": 29395,
  "tte": 43932,
  "tten": 19810,
  "tter": 46406,
  "tti": 23383,
  "tto": 38321,
  "tty": 37562,
  "tu": 12060,
  "tub": 37628,
  "tum": 40219,
  "tun": 29496,
  "tune": 44033,
  "tur": 20075,
  "turkey": 36404,
  "turn": 4940,
  "turned": 29738,
  "tv": 14270,
  "tw": 4614,
  "twe": 48147,
  "tweet": 47411,
  "twitter": 5889,
  "two": 11421,
  "tx": 25419,
  "ty": 1114,
  "typ": 47241,
  "type": 12890,
  "types": 31028,
  "tz": 9539,
  "tze": 45241,
  "tzer": 20045,
  "tÃ©": 47763,
  "u": 85,
  "ua": 5204,
  "uable": 5745,
  "uably": 13711,
  "uah": 47350,
  "uais": 42645,
  "ual": 752,
  "uala": 27910,
  "ually": 1454,
  "uan": 5447,
  "uana": 12642,
  "uang": 41943,
  "uania": 21651,
  "uant": 7960,
  "uar": 15591,
  "uard": 28311,
  "uaries": 47553,
  "uary": 1308,
  "uate": 6260,
  "uated": 8940,
  "uates": 11734,
  "uating": 13438,
  "uation": 1783,
  "uations": 4475,
  "uatu": 36789,
  "uay": 18855,
  "ub": 460,
  "uba": 15169,
  "ubaix": 23416,
  "ube": 5476,
  "uber": 15132,
  "ubern": 24404,
  "ubernetes": 38097,
  "ubis": 45742,
  "ubishi": 19176,
  "uble": 20687,
  "ublic": 2098,
  "ublica": 45473,
  "ublished": 35900,
  "ubm": 19184,
  "ubo": 49301,
  "ubre": 44189,
  "ubs": 3236,
  "ubscribe": 6652,
  "ubstant": 33520,
  "uc": 718,
  "uca": 36843,
  "ucan": 36414,
  "ucanumab": 45614,
  "ucc": 47036,
  "uccess": 16950,
  "ucci": 15007,
  "uce": 9429,
  "uced": 49951,
  "uch": 626,
  "ucha": 30883,
  "uchar": 28388,
  "uche": 44675,
  "ucher": 35479,
  "uchi": 19992,
  "uchin": 10573,
  "uchs": 42126,
  "uci": 4830,
  "ucic": 39761,
  "uciones": 37949,
  "uciÃ³n": 28365,
  "uck": 2185,
  "ucked": 36844,
  "ucker": 10751,
  "ucking": 13506,
  "uckland": 18358,
  "uckle": 36750,
  "ucks": 5976,
  "ucky": 6730,
  "ucle": 23003,
  "uclear": 27108,
  "uct": 1020,
  "uctible": 33764,
  "uction": 2661,
  "uctions": 18352,
  "uctive": 16390,
  "ucture": 2119,
  "ud": 436,
  "uda": 8487,
  "udan": 40224,
  "uddin": 46301,
  "ude": 2496,
  "udeau": 9756,
  "uded": 13181,
  "uder": 48779,
  "udes": 27673,
  "udge": 32502,
  "udging": 45207,
  "udi": 44665,
  "uding": 25930,
  "udo": 29092,
  "uds": 21801,
  "udy": 35564,
  "ue": 501,
  "ued": 1318,
  "ueh": 38243,
  "uel": 2247,
  "uela": 29250,
  "uelas": 37705,
  "ueless": 48437,
  "ueling": 27680,
  "uelle": 42139,
  "uelling": 37563,
  "uen": 33036,
  "uent": 31795,
  "uer": 12317,
  "uers": 28402,
  "ues": 776,
  "uesday": 1841,
  "uese": 18846,
  "uest": 16933,
  "uesta": 28381,
  "uestas": 48872,
  "uesto": 42528,
  "uet": 35730,
  "uez": 34074,
  "uf": 1601,
  "ufact": 1748,
  "uff": 3612,
[...]
